unsigned char acels_models_378_model_tflite[] = {
  0x20, 0x00, 0x00, 0x00, 0x54, 0x46, 0x4c, 0x33, 0x00, 0x00, 0x00, 0x00,
  0x14, 0x00, 0x20, 0x00, 0x1c, 0x00, 0x18, 0x00, 0x14, 0x00, 0x10, 0x00,
  0x0c, 0x00, 0x00, 0x00, 0x08, 0x00, 0x04, 0x00, 0x14, 0x00, 0x00, 0x00,
  0x1c, 0x00, 0x00, 0x00, 0x8c, 0x00, 0x00, 0x00, 0xe4, 0x00, 0x00, 0x00,
  0x90, 0x40, 0x00, 0x00, 0xa0, 0x40, 0x00, 0x00, 0xa8, 0x4f, 0x00, 0x00,
  0x03, 0x00, 0x00, 0x00, 0x01, 0x00, 0x00, 0x00, 0x04, 0x00, 0x00, 0x00,
  0x96, 0xbd, 0xff, 0xff, 0x0c, 0x00, 0x00, 0x00, 0x1c, 0x00, 0x00, 0x00,
  0x3c, 0x00, 0x00, 0x00, 0x0f, 0x00, 0x00, 0x00, 0x73, 0x65, 0x72, 0x76,
  0x69, 0x6e, 0x67, 0x5f, 0x64, 0x65, 0x66, 0x61, 0x75, 0x6c, 0x74, 0x00,
  0x01, 0x00, 0x00, 0x00, 0x04, 0x00, 0x00, 0x00, 0x90, 0xff, 0xff, 0xff,
  0x17, 0x00, 0x00, 0x00, 0x04, 0x00, 0x00, 0x00, 0x09, 0x00, 0x00, 0x00,
  0x64, 0x65, 0x6e, 0x73, 0x65, 0x5f, 0x31, 0x33, 0x31, 0x00, 0x00, 0x00,
  0x01, 0x00, 0x00, 0x00, 0x04, 0x00, 0x00, 0x00, 0xfe, 0xbf, 0xff, 0xff,
  0x04, 0x00, 0x00, 0x00, 0x0f, 0x00, 0x00, 0x00, 0x64, 0x65, 0x6e, 0x73,
  0x65, 0x5f, 0x31, 0x32, 0x36, 0x5f, 0x69, 0x6e, 0x70, 0x75, 0x74, 0x00,
  0x02, 0x00, 0x00, 0x00, 0x34, 0x00, 0x00, 0x00, 0x04, 0x00, 0x00, 0x00,
  0xdc, 0xff, 0xff, 0xff, 0x1a, 0x00, 0x00, 0x00, 0x04, 0x00, 0x00, 0x00,
  0x13, 0x00, 0x00, 0x00, 0x43, 0x4f, 0x4e, 0x56, 0x45, 0x52, 0x53, 0x49,
  0x4f, 0x4e, 0x5f, 0x4d, 0x45, 0x54, 0x41, 0x44, 0x41, 0x54, 0x41, 0x00,
  0x08, 0x00, 0x0c, 0x00, 0x08, 0x00, 0x04, 0x00, 0x08, 0x00, 0x00, 0x00,
  0x19, 0x00, 0x00, 0x00, 0x04, 0x00, 0x00, 0x00, 0x13, 0x00, 0x00, 0x00,
  0x6d, 0x69, 0x6e, 0x5f, 0x72, 0x75, 0x6e, 0x74, 0x69, 0x6d, 0x65, 0x5f,
  0x76, 0x65, 0x72, 0x73, 0x69, 0x6f, 0x6e, 0x00, 0x1b, 0x00, 0x00, 0x00,
  0xa8, 0x3f, 0x00, 0x00, 0xa0, 0x3f, 0x00, 0x00, 0x84, 0x3f, 0x00, 0x00,
  0x14, 0x3f, 0x00, 0x00, 0x8c, 0x3e, 0x00, 0x00, 0x1c, 0x35, 0x00, 0x00,
  0xcc, 0x33, 0x00, 0x00, 0xfc, 0x20, 0x00, 0x00, 0xfc, 0x1f, 0x00, 0x00,
  0x2c, 0x0d, 0x00, 0x00, 0xdc, 0x0b, 0x00, 0x00, 0x6c, 0x02, 0x00, 0x00,
  0xe4, 0x01, 0x00, 0x00, 0xe4, 0x00, 0x00, 0x00, 0xdc, 0x00, 0x00, 0x00,
  0xd4, 0x00, 0x00, 0x00, 0xcc, 0x00, 0x00, 0x00, 0xc4, 0x00, 0x00, 0x00,
  0xbc, 0x00, 0x00, 0x00, 0xb4, 0x00, 0x00, 0x00, 0xac, 0x00, 0x00, 0x00,
  0xa4, 0x00, 0x00, 0x00, 0x9c, 0x00, 0x00, 0x00, 0x94, 0x00, 0x00, 0x00,
  0x8c, 0x00, 0x00, 0x00, 0x6c, 0x00, 0x00, 0x00, 0x04, 0x00, 0x00, 0x00,
  0xe6, 0xc0, 0xff, 0xff, 0x04, 0x00, 0x00, 0x00, 0x58, 0x00, 0x00, 0x00,
  0x0c, 0x00, 0x00, 0x00, 0x08, 0x00, 0x0e, 0x00, 0x08, 0x00, 0x04, 0x00,
  0x08, 0x00, 0x00, 0x00, 0x10, 0x00, 0x00, 0x00, 0x28, 0x00, 0x00, 0x00,
  0x00, 0x00, 0x06, 0x00, 0x08, 0x00, 0x04, 0x00, 0x06, 0x00, 0x00, 0x00,
  0x04, 0x00, 0x00, 0x00, 0x01, 0x00, 0x00, 0x00, 0xeb, 0x03, 0x00, 0x00,
  0x00, 0x00, 0x0a, 0x00, 0x10, 0x00, 0x0c, 0x00, 0x08, 0x00, 0x04, 0x00,
  0x0a, 0x00, 0x00, 0x00, 0x02, 0x00, 0x00, 0x00, 0x02, 0x00, 0x00, 0x00,
  0x04, 0x00, 0x00, 0x00, 0x06, 0x00, 0x00, 0x00, 0x32, 0x2e, 0x31, 0x35,
  0x2e, 0x30, 0x00, 0x00, 0x4a, 0xc1, 0xff, 0xff, 0x04, 0x00, 0x00, 0x00,
  0x10, 0x00, 0x00, 0x00, 0x31, 0x2e, 0x31, 0x34, 0x2e, 0x30, 0x00, 0x00,
  0x00, 0x00, 0x00, 0x00, 0x00, 0x00, 0x00, 0x00, 0x00, 0xbf, 0xff, 0xff,
  0x04, 0xbf, 0xff, 0xff, 0x08, 0xbf, 0xff, 0xff, 0x0c, 0xbf, 0xff, 0xff,
  0x10, 0xbf, 0xff, 0xff, 0x14, 0xbf, 0xff, 0xff, 0x18, 0xbf, 0xff, 0xff,
  0x1c, 0xbf, 0xff, 0xff, 0x20, 0xbf, 0xff, 0xff, 0x24, 0xbf, 0xff, 0xff,
  0x28, 0xbf, 0xff, 0xff, 0x92, 0xc1, 0xff, 0xff, 0x04, 0x00, 0x00, 0x00,
  0xf0, 0x00, 0x00, 0x00, 0xc4, 0x0c, 0xc7, 0xe9, 0xf3, 0x2e, 0x0f, 0xef,
  0xdf, 0xc1, 0xed, 0xc2, 0x2d, 0x15, 0x1e, 0x18, 0xc9, 0x1e, 0xea, 0xfe,
  0x4f, 0xf0, 0x35, 0xaf, 0xc8, 0x39, 0xea, 0x06, 0x34, 0xe0, 0xf1, 0xb9,
  0xbb, 0xee, 0x0c, 0x2c, 0xe4, 0x67, 0x40, 0xd3, 0x34, 0xdf, 0xef, 0x14,
  0xf8, 0x07, 0xd1, 0xbc, 0x52, 0xf7, 0xc7, 0x1f, 0xca, 0xe4, 0xe3, 0xd6,
  0xe2, 0xc7, 0x2e, 0x0f, 0x2b, 0x4a, 0xcd, 0xcc, 0xe7, 0xc8, 0x28, 0xcb,
  0xe3, 0x4c, 0x14, 0xe6, 0xf4, 0x30, 0xe2, 0x1e, 0xba, 0xf7, 0x05, 0x40,
  0xd8, 0x46, 0xcc, 0x12, 0xf6, 0xdc, 0xfa, 0x11, 0xd6, 0xdc, 0x4e, 0xef,
  0x24, 0xc4, 0xdc, 0x5f, 0xf0, 0x04, 0xf2, 0x22, 0x47, 0xf0, 0xf1, 0x8d,
  0xd3, 0x10, 0xce, 0x52, 0x27, 0x3f, 0x0b, 0x9e, 0x16, 0xbc, 0x37, 0xcf,
  0x05, 0x54, 0x2b, 0xcb, 0x5e, 0x24, 0xcf, 0x44, 0xfc, 0xee, 0xe5, 0x15,
  0x31, 0xbb, 0x3e, 0xfc, 0xe1, 0x27, 0xc1, 0x14, 0xca, 0x2d, 0xc9, 0x1c,
  0xd8, 0x13, 0x30, 0x0d, 0xd4, 0x12, 0xdc, 0x25, 0x20, 0xf9, 0xef, 0xf3,
  0x22, 0x04, 0xde, 0x02, 0x0a, 0xff, 0xd3, 0x38, 0x1f, 0xc0, 0xc6, 0xd3,
  0x1a, 0xb8, 0xe9, 0x11, 0xdd, 0x03, 0x51, 0xdf, 0x15, 0x00, 0x0a, 0xb8,
  0xcb, 0x19, 0xfd, 0x23, 0xdd, 0x27, 0xcc, 0x2f, 0x0d, 0x22, 0xdc, 0x08,
  0xb7, 0x01, 0x14, 0x44, 0xe8, 0x28, 0xda, 0xdd, 0x19, 0x15, 0x0a, 0xfe,
  0xca, 0xbb, 0x96, 0xbf, 0xc1, 0x33, 0xd8, 0xdd, 0xe7, 0xf5, 0x91, 0xd8,
  0x81, 0xc5, 0xf1, 0x07, 0x25, 0x01, 0xe3, 0xf0, 0x0c, 0xe0, 0x27, 0xf3,
  0xe4, 0xdb, 0x31, 0xd8, 0xdb, 0x55, 0x2a, 0xe2, 0xbe, 0xfa, 0x2e, 0x02,
  0x16, 0x27, 0xf1, 0xa0, 0x8e, 0xc2, 0xff, 0xff, 0x04, 0x00, 0x00, 0x00,
  0x78, 0x00, 0x00, 0x00, 0x90, 0x08, 0x00, 0x00, 0xe5, 0x09, 0x00, 0x00,
  0xd7, 0xf9, 0xff, 0xff, 0x09, 0x03, 0x00, 0x00, 0xb0, 0xf0, 0xff, 0xff,
  0x3f, 0x0d, 0x00, 0x00, 0x0f, 0x0e, 0x00, 0x00, 0xba, 0x03, 0x00, 0x00,
  0x8b, 0x07, 0x00, 0x00, 0x62, 0xfe, 0xff, 0xff, 0x90, 0x01, 0x00, 0x00,
  0x79, 0xf9, 0xff, 0xff, 0x5e, 0x04, 0x00, 0x00, 0x81, 0xf4, 0xff, 0xff,
  0x10, 0xfa, 0xff, 0xff, 0xae, 0xee, 0xff, 0xff, 0xe3, 0x02, 0x00, 0x00,
  0xb7, 0xfb, 0xff, 0xff, 0x90, 0x00, 0x00, 0x00, 0x79, 0x00, 0x00, 0x00,
  0xa4, 0xf3, 0xff, 0xff, 0xb1, 0xfd, 0xff, 0xff, 0x7c, 0xfe, 0xff, 0xff,
  0x12, 0xfe, 0xff, 0xff, 0xfc, 0xfd, 0xff, 0xff, 0x90, 0xee, 0xff, 0xff,
  0xf2, 0x04, 0x00, 0x00, 0xf9, 0xfd, 0xff, 0xff, 0x72, 0xfd, 0xff, 0xff,
  0xae, 0x05, 0x00, 0x00, 0x12, 0xc3, 0xff, 0xff, 0x04, 0x00, 0x00, 0x00,
  0x60, 0x09, 0x00, 0x00, 0xee, 0x13, 0x44, 0x2a, 0x1c, 0xef, 0xfd, 0xf8,
  0xe9, 0xfa, 0x05, 0x13, 0x19, 0x27, 0x06, 0x16, 0xe7, 0xed, 0xf6, 0x12,
  0x11, 0x2f, 0xf9, 0xd5, 0xf8, 0xfc, 0xf2, 0x07, 0xf0, 0xff, 0xfb, 0x05,
  0x13, 0xfd, 0xed, 0xff, 0x03, 0x03, 0x08, 0xe5, 0xfb, 0xfd, 0x0c, 0x13,
  0x21, 0xee, 0x12, 0xeb, 0x06, 0xf7, 0x0c, 0x1c, 0x19, 0xd9, 0xfb, 0xc2,
  0xd9, 0xea, 0xff, 0x05, 0x03, 0x16, 0xf0, 0xe8, 0xed, 0xff, 0xfd, 0x09,
  0x01, 0x35, 0xf1, 0xd7, 0xf0, 0x07, 0xf6, 0xfb, 0xf6, 0x28, 0xf7, 0xf8,
  0xc9, 0xcc, 0x1a, 0x15, 0x12, 0xe0, 0xf8, 0x0c, 0xf9, 0xef, 0x12, 0xee,
  0xeb, 0xf6, 0xf5, 0xf5, 0x09, 0xfd, 0xf4, 0x16, 0x0f, 0xe4, 0xde, 0xf8,
  0xe5, 0xfd, 0xf5, 0x1e, 0xf8, 0x03, 0xfb, 0xd3, 0xed, 0x29, 0xfa, 0x02,
  0x25, 0x05, 0xf6, 0xe8, 0xf6, 0x05, 0x0e, 0xfc, 0x11, 0xf4, 0xea, 0x0d,
  0x15, 0xed, 0xdf, 0x21, 0x11, 0x0d, 0x04, 0xfe, 0xfa, 0xe8, 0x0a, 0x02,
  0x08, 0x14, 0x10, 0xdb, 0x04, 0x07, 0xdf, 0xf4, 0x05, 0x20, 0xfb, 0x0c,
  0x0b, 0xef, 0x6e, 0xeb, 0xca, 0x0c, 0x14, 0xf8, 0x02, 0xf8, 0xda, 0x28,
  0x27, 0x0c, 0xf3, 0x06, 0x01, 0x05, 0x0a, 0xfa, 0x03, 0x09, 0x08, 0x24,
  0xf0, 0xfa, 0x13, 0x0a, 0x27, 0x1b, 0xfa, 0x0c, 0xe6, 0x14, 0x10, 0x0d,
  0x2a, 0xea, 0xed, 0xff, 0xfa, 0xd5, 0x0a, 0xb7, 0xfe, 0xfc, 0x04, 0xf3,
  0xf3, 0x09, 0xef, 0x05, 0xfe, 0x0e, 0xfb, 0x06, 0x03, 0x24, 0xee, 0x07,
  0xe8, 0xfb, 0x27, 0x01, 0xfe, 0x32, 0x24, 0xd7, 0xec, 0x24, 0x03, 0xe8,
  0x46, 0xe0, 0x3a, 0xec, 0x04, 0xf2, 0x04, 0x35, 0xfe, 0xd0, 0xf2, 0xf4,
  0xe9, 0x02, 0x2a, 0x2d, 0x00, 0x14, 0xe8, 0x28, 0xa6, 0x10, 0x13, 0xea,
  0xf3, 0x0f, 0x0e, 0x0a, 0x09, 0xd7, 0xba, 0x04, 0x0f, 0xf5, 0x04, 0x13,
  0xea, 0x00, 0x13, 0xfc, 0xf0, 0xe3, 0x11, 0x03, 0xd7, 0xfb, 0x14, 0x0b,
  0x2d, 0xf9, 0x1b, 0xe3, 0xee, 0x06, 0x03, 0x08, 0x07, 0xde, 0xf9, 0x20,
  0xf7, 0xfe, 0xe1, 0x0c, 0x05, 0x03, 0x05, 0xe6, 0xe5, 0x10, 0x1b, 0x19,
  0x0d, 0xf9, 0xf4, 0x06, 0x09, 0xf5, 0xdf, 0x15, 0xe0, 0xe0, 0xed, 0xf3,
  0xdf, 0x21, 0x0c, 0x10, 0xde, 0x03, 0xd3, 0x1f, 0xe6, 0x0a, 0x0a, 0x01,
  0xe7, 0xed, 0x06, 0x06, 0xf3, 0x2a, 0x2c, 0xee, 0xd8, 0xe8, 0xe7, 0xdd,
  0x23, 0x55, 0xaa, 0x08, 0x02, 0xf1, 0xeb, 0xea, 0xe3, 0xf8, 0x39, 0xf2,
  0xd7, 0x1f, 0xfd, 0xd8, 0xf2, 0x09, 0xfe, 0x25, 0xe8, 0xd5, 0xf6, 0xe2,
  0xfa, 0x03, 0xc0, 0x0c, 0x07, 0x57, 0x02, 0xf0, 0x0a, 0xe8, 0xda, 0x01,
  0x1d, 0x04, 0xfb, 0x17, 0xd4, 0xe1, 0xf7, 0xad, 0xf3, 0x1b, 0x13, 0x02,
  0xf4, 0xee, 0x12, 0x02, 0x08, 0xf2, 0x0d, 0xf6, 0x0f, 0xec, 0xf4, 0xc0,
  0xf3, 0x10, 0xf5, 0x27, 0x26, 0x32, 0xe9, 0xfb, 0xfa, 0xe3, 0x41, 0x16,
  0x0f, 0x2f, 0x2b, 0xf1, 0x01, 0x09, 0x0d, 0x0b, 0xf4, 0xe0, 0xf9, 0x0a,
  0xf6, 0xf0, 0xe2, 0x14, 0xf5, 0xef, 0xfc, 0x1a, 0xe1, 0xea, 0xe8, 0xf7,
  0xfe, 0xbe, 0x18, 0x4a, 0x0a, 0xde, 0xfc, 0x09, 0x13, 0xc7, 0x08, 0xfa,
  0x41, 0x22, 0xf1, 0xbe, 0xf8, 0x29, 0x17, 0x01, 0xea, 0x0d, 0x11, 0x0f,
  0x22, 0x34, 0x04, 0xfc, 0xed, 0xeb, 0xf3, 0x02, 0x08, 0xe7, 0x25, 0x14,
  0xc5, 0xe2, 0xe3, 0x1f, 0x01, 0x0b, 0x0b, 0xee, 0xf2, 0xfb, 0x07, 0x2b,
  0x1d, 0xfc, 0xf7, 0x05, 0xfc, 0x0c, 0xbc, 0xe8, 0xa4, 0x36, 0x4c, 0xe4,
  0xfa, 0xf5, 0xf0, 0xf0, 0xe9, 0xe5, 0xf6, 0x0d, 0x28, 0xe0, 0x08, 0x09,
  0x05, 0xde, 0xfd, 0x0b, 0x09, 0xd4, 0xf8, 0xea, 0xf2, 0xd3, 0x0e, 0xff,
  0x24, 0x42, 0x0c, 0x0d, 0x04, 0xe9, 0x0a, 0xf1, 0x1c, 0xf4, 0x42, 0x19,
  0xeb, 0xe3, 0xee, 0xfe, 0x0e, 0x0c, 0xfc, 0x1f, 0x04, 0xe7, 0x14, 0x16,
  0xf8, 0xf9, 0x06, 0x27, 0xfa, 0xec, 0x2a, 0xfb, 0x0c, 0xee, 0xfa, 0xc7,
  0xe3, 0x05, 0x15, 0xe3, 0x0d, 0x16, 0x06, 0x12, 0xcd, 0x19, 0xf4, 0xea,
  0x0c, 0x10, 0xf1, 0x14, 0x06, 0xe8, 0x06, 0x06, 0x01, 0xe0, 0x08, 0xf9,
  0x33, 0x13, 0xf3, 0xe6, 0xda, 0xe9, 0x17, 0x12, 0x2f, 0xf0, 0x0c, 0x02,
  0xed, 0xb4, 0xe5, 0xff, 0xf9, 0xe9, 0xeb, 0x26, 0x04, 0x0a, 0x05, 0x22,
  0x08, 0x01, 0x06, 0x43, 0xe4, 0xf3, 0xf3, 0xe7, 0xc9, 0x30, 0x37, 0x04,
  0xfa, 0xf6, 0xf8, 0x07, 0x23, 0xf7, 0x16, 0x00, 0x11, 0xf3, 0x04, 0x08,
  0x13, 0x0a, 0xf5, 0xf2, 0x06, 0xcc, 0xe5, 0x04, 0xf6, 0xea, 0xf4, 0x08,
  0xd3, 0xe0, 0xd0, 0xed, 0x0a, 0xe2, 0xe4, 0x13, 0xf3, 0x1a, 0xaa, 0xda,
  0xe2, 0x33, 0x02, 0xf7, 0xf4, 0xfd, 0x0e, 0xe5, 0x04, 0x12, 0x05, 0xe0,
  0x0a, 0xfa, 0xf6, 0xb5, 0x35, 0x0f, 0xb4, 0xec, 0xe9, 0x0e, 0x1e, 0x15,
  0x66, 0x19, 0xfa, 0x00, 0xe7, 0xd5, 0x0f, 0xe2, 0x19, 0xfa, 0xf4, 0xf6,
  0xf5, 0xec, 0x16, 0x17, 0x03, 0x14, 0x10, 0xef, 0x24, 0x1a, 0xc6, 0xe6,
  0x39, 0x1f, 0x33, 0xdc, 0xd7, 0x1a, 0xd7, 0xfe, 0x03, 0x1c, 0x00, 0x0d,
  0x16, 0x12, 0x13, 0xe6, 0xf5, 0xff, 0x08, 0x34, 0xfe, 0xcd, 0x03, 0xf2,
  0xdc, 0xf9, 0x0a, 0x12, 0xf0, 0xeb, 0xf8, 0x14, 0x0c, 0xf2, 0xe6, 0xe5,
  0xd2, 0x12, 0x19, 0x0b, 0x0b, 0x11, 0xdb, 0x23, 0x06, 0x04, 0x08, 0x0e,
  0xfd, 0x04, 0xf5, 0xfb, 0xfb, 0x3b, 0x29, 0x0c, 0xe5, 0xf4, 0xef, 0xda,
  0xd2, 0xeb, 0x10, 0x2b, 0x4d, 0x02, 0xf1, 0x12, 0xe9, 0xd2, 0xfd, 0x13,
  0x03, 0x2c, 0x14, 0xfc, 0xdb, 0xfd, 0x00, 0xf8, 0x0a, 0x02, 0xfa, 0x05,
  0x19, 0xfa, 0x0c, 0xf3, 0x04, 0xe3, 0x1a, 0x1a, 0x18, 0x0b, 0x23, 0xff,
  0xee, 0x01, 0x0b, 0xf6, 0x27, 0x4e, 0xf5, 0x34, 0x06, 0x17, 0x16, 0x02,
  0xfd, 0xea, 0x1d, 0x03, 0x03, 0x14, 0x0c, 0x0a, 0xed, 0x0a, 0x0c, 0x28,
  0x04, 0x12, 0xd6, 0x16, 0xfa, 0x2b, 0x27, 0xee, 0xfe, 0xe9, 0x2c, 0xff,
  0x0e, 0x9e, 0x10, 0xed, 0xfa, 0x05, 0xf7, 0x06, 0xfc, 0xeb, 0x09, 0xf7,
  0xfd, 0xed, 0xfe, 0x35, 0x0e, 0x2b, 0xd5, 0xf2, 0xe6, 0xee, 0x05, 0xca,
  0x0f, 0xf9, 0xff, 0x10, 0xb1, 0xdd, 0xf7, 0xea, 0xfd, 0xf0, 0xf5, 0xf6,
  0x39, 0xfc, 0x11, 0x0c, 0xf1, 0x18, 0x20, 0xf9, 0xfb, 0xf1, 0x07, 0x00,
  0xf1, 0xc9, 0x4e, 0xfc, 0xf7, 0x0e, 0x12, 0x10, 0xf9, 0x02, 0xd7, 0x13,
  0x21, 0x11, 0x04, 0x0e, 0x04, 0x04, 0x01, 0xe0, 0x08, 0x10, 0xf6, 0x2d,
  0xff, 0x07, 0x21, 0xf8, 0x08, 0x02, 0xa1, 0xf8, 0x02, 0x17, 0x12, 0xf3,
  0x0d, 0xfe, 0x07, 0x10, 0xf1, 0xf4, 0xe7, 0xfe, 0x49, 0xf7, 0xeb, 0xfb,
  0xff, 0x08, 0x0f, 0xf9, 0xeb, 0x22, 0x4c, 0xf5, 0xf1, 0x08, 0x00, 0xf5,
  0xa1, 0x0e, 0xd0, 0x38, 0x34, 0x0b, 0xf3, 0x1e, 0x2d, 0x15, 0xef, 0xe7,
  0xe8, 0x01, 0x2d, 0xea, 0xfa, 0x0d, 0xf5, 0xf5, 0x09, 0x05, 0xfb, 0x13,
  0x1a, 0x01, 0xf9, 0x1a, 0x2d, 0x15, 0xd8, 0xf4, 0x1e, 0x3c, 0x3b, 0x12,
  0x50, 0x05, 0xed, 0xd0, 0x0d, 0x22, 0x3a, 0xf2, 0x22, 0xf5, 0xf0, 0xf4,
  0xed, 0x0c, 0x13, 0xf1, 0xfb, 0x17, 0xec, 0xfe, 0x2f, 0x12, 0x07, 0xff,
  0xfe, 0x19, 0x00, 0xd9, 0xcb, 0x03, 0x00, 0x0e, 0x0a, 0x0a, 0xf0, 0xf5,
  0xff, 0xd1, 0xfb, 0xf8, 0xf3, 0xff, 0xed, 0x25, 0x0a, 0xe6, 0x01, 0x19,
  0x0c, 0xf0, 0xf2, 0x19, 0x20, 0xf6, 0x25, 0x1e, 0x18, 0x03, 0xe9, 0xf4,
  0x09, 0xe7, 0x0d, 0xe8, 0x25, 0x3a, 0xef, 0xfc, 0xe1, 0x1e, 0x12, 0xe7,
  0xff, 0x11, 0x0a, 0x08, 0x13, 0x0e, 0x0c, 0xf3, 0xfd, 0x10, 0xf6, 0x05,
  0xea, 0x08, 0x8d, 0xfe, 0x05, 0xf3, 0xd4, 0x0f, 0xfe, 0x23, 0xe6, 0xc2,
  0xa5, 0xfe, 0xfd, 0x03, 0x05, 0x1d, 0x02, 0xda, 0x07, 0x13, 0x0e, 0xf2,
  0x26, 0x0a, 0xc9, 0xc2, 0xe3, 0xfb, 0x3a, 0x2c, 0xe2, 0xf3, 0xe8, 0xf6,
  0xdc, 0xf4, 0x3e, 0x13, 0xfe, 0x1a, 0xc9, 0x0c, 0xeb, 0xe5, 0x02, 0xfb,
  0xf5, 0x48, 0xc6, 0xdd, 0x03, 0x8b, 0xc4, 0xfe, 0xe4, 0x16, 0xf9, 0xef,
  0xc0, 0xde, 0xec, 0x00, 0x08, 0xe7, 0x10, 0x0c, 0xf5, 0x10, 0xbb, 0xd7,
  0x1b, 0xfc, 0x21, 0xf1, 0xfb, 0xf7, 0x0f, 0xf9, 0xf2, 0x11, 0xee, 0xd4,
  0xf8, 0x17, 0x0c, 0xe5, 0x0c, 0x00, 0x04, 0xf1, 0x0a, 0xc4, 0xd0, 0xba,
  0x00, 0x16, 0x02, 0x1a, 0x85, 0xe4, 0xfd, 0x10, 0xd8, 0x04, 0xfe, 0xf2,
  0x10, 0xf0, 0x03, 0x22, 0x04, 0xfd, 0xf6, 0x0b, 0xfd, 0xb9, 0x0f, 0x11,
  0xc8, 0xda, 0x03, 0x23, 0x15, 0x0e, 0x48, 0x12, 0xfa, 0x00, 0xee, 0xf1,
  0x27, 0xd8, 0x28, 0x0b, 0xe8, 0x1b, 0xfd, 0xe6, 0xf8, 0xff, 0xf3, 0xe1,
  0xeb, 0x0d, 0x16, 0x0c, 0xfb, 0xf1, 0x30, 0xf6, 0x04, 0xf7, 0x09, 0xf1,
  0xe7, 0x09, 0xdc, 0xd3, 0x2f, 0x32, 0x11, 0x13, 0xe6, 0x16, 0x09, 0xf4,
  0xf1, 0xe8, 0x05, 0xfc, 0x03, 0xdd, 0xda, 0x06, 0xf5, 0xfc, 0xf7, 0xf4,
  0x23, 0x29, 0xec, 0x0a, 0xf1, 0xf3, 0xe6, 0xf6, 0x02, 0xf1, 0x37, 0x05,
  0xe7, 0x1d, 0xe3, 0xfc, 0x04, 0x18, 0xed, 0x0a, 0xf7, 0xf2, 0x03, 0x1d,
  0x10, 0x0b, 0x00, 0x0c, 0xe9, 0xea, 0xc7, 0x01, 0xd0, 0x1c, 0x19, 0xf3,
  0xee, 0x10, 0x07, 0xf5, 0xf6, 0xe3, 0x00, 0x28, 0x0f, 0xf5, 0x0a, 0xfd,
  0xf3, 0x07, 0x03, 0x13, 0x01, 0xf8, 0x03, 0x11, 0x05, 0xf7, 0xf0, 0xec,
  0x42, 0x1a, 0x01, 0xff, 0x09, 0xea, 0xde, 0xeb, 0xf6, 0xe5, 0x26, 0x27,
  0x0b, 0x1f, 0xf0, 0x0e, 0xfd, 0x03, 0x18, 0x0f, 0x09, 0xf6, 0xfa, 0xe1,
  0xd9, 0x0d, 0x07, 0x08, 0xfa, 0x0d, 0x0d, 0x1a, 0xee, 0xe6, 0xf1, 0x0c,
  0xdd, 0x10, 0xea, 0xfb, 0x06, 0x0f, 0xcb, 0xfa, 0xed, 0x0a, 0x00, 0xfe,
  0xde, 0xef, 0x02, 0x0a, 0x0a, 0x2b, 0x30, 0x02, 0xe9, 0xf9, 0x08, 0x0f,
  0xe1, 0xfb, 0xb9, 0x2c, 0x4d, 0xfb, 0xee, 0xf4, 0xf8, 0xe9, 0x12, 0xe1,
  0xf5, 0xff, 0x0d, 0xfb, 0x0b, 0xfe, 0x06, 0xf2, 0xef, 0x00, 0xff, 0xd1,
  0xfd, 0xfb, 0xf7, 0xe8, 0xf6, 0xf5, 0xd7, 0x0c, 0x1b, 0x06, 0xfd, 0xeb,
  0x06, 0xe8, 0x04, 0x28, 0xfe, 0xe7, 0x11, 0xf0, 0x22, 0xfc, 0x09, 0xf4,
  0x2e, 0x1c, 0xf6, 0xee, 0xee, 0x2c, 0x29, 0xef, 0x14, 0x16, 0xeb, 0xfc,
  0xeb, 0xe8, 0xff, 0xf5, 0x0a, 0x09, 0x03, 0x43, 0xf1, 0xd6, 0xf2, 0x08,
  0xf5, 0x0e, 0xf2, 0x27, 0x01, 0x20, 0xca, 0xde, 0x1e, 0x31, 0x13, 0xe9,
  0x02, 0x01, 0xff, 0xe1, 0x26, 0x24, 0x33, 0x1b, 0xf2, 0x0d, 0xf4, 0x1e,
  0x37, 0xf7, 0x06, 0xf9, 0x26, 0xf0, 0x0f, 0xa2, 0xf7, 0xf2, 0x1a, 0xf5,
  0xf8, 0x0b, 0xfc, 0xe9, 0x0e, 0xf4, 0xf0, 0xe8, 0x13, 0x2e, 0xe5, 0x09,
  0xe0, 0xf7, 0x8e, 0x07, 0xfc, 0xf8, 0xf1, 0xf4, 0xf2, 0x20, 0xf6, 0xc8,
  0xe9, 0xfd, 0x1c, 0xd6, 0x0c, 0x0d, 0xe7, 0x08, 0xf2, 0xdc, 0x0c, 0xe0,
  0xfa, 0x01, 0xd9, 0xef, 0x12, 0xfc, 0x10, 0x19, 0xf1, 0x2f, 0x11, 0x2d,
  0x0e, 0xff, 0xea, 0xdc, 0x57, 0x0f, 0x01, 0xf3, 0x08, 0xf5, 0xf4, 0xf8,
  0xcb, 0xfb, 0x01, 0xef, 0xf3, 0x08, 0xe9, 0x12, 0x0a, 0x40, 0x01, 0x0f,
  0x25, 0x0a, 0x06, 0xff, 0xf7, 0x20, 0xf4, 0xf8, 0xeb, 0x1e, 0x23, 0x13,
  0x08, 0x06, 0x04, 0xf8, 0xfe, 0xff, 0x0e, 0x07, 0x14, 0xdc, 0x0f, 0x10,
  0xda, 0xfa, 0x13, 0x1a, 0xee, 0xdb, 0x1d, 0x2f, 0x0b, 0x11, 0x0d, 0xd8,
  0xce, 0x05, 0x16, 0xfc, 0x23, 0x06, 0xf1, 0x09, 0xdd, 0xfc, 0xf0, 0xef,
  0xfd, 0x16, 0xeb, 0xff, 0xec, 0xdd, 0xf7, 0x16, 0xe5, 0x0c, 0xfc, 0x08,
  0x57, 0xf5, 0x2e, 0xcd, 0xc5, 0x0d, 0xff, 0xea, 0xe7, 0xf7, 0x05, 0x0c,
  0x27, 0x0b, 0xe2, 0x0c, 0xfe, 0xfb, 0x05, 0xfc, 0xeb, 0xef, 0x09, 0x09,
  0xe1, 0xff, 0x05, 0x05, 0x1e, 0x02, 0x32, 0x2d, 0x30, 0x0a, 0x20, 0x02,
  0x15, 0x09, 0x0f, 0xdd, 0x34, 0x63, 0x13, 0x00, 0xe4, 0x0b, 0x1c, 0xee,
  0x00, 0xf8, 0x16, 0xea, 0x0d, 0x0e, 0x0a, 0x06, 0x09, 0x1f, 0xea, 0xed,
  0x03, 0x10, 0xec, 0xfd, 0xff, 0x00, 0xea, 0xe8, 0x08, 0x24, 0x1d, 0x08,
  0x10, 0x27, 0x23, 0xca, 0xf7, 0x00, 0x2c, 0x26, 0xdb, 0xd0, 0xee, 0x20,
  0x0c, 0x0d, 0xe2, 0x04, 0x0b, 0x08, 0x13, 0x16, 0xe0, 0xf2, 0xd7, 0xff,
  0xf0, 0x05, 0x0f, 0x11, 0x0a, 0xee, 0xd8, 0xf8, 0xf2, 0xfc, 0xf1, 0xef,
  0xdd, 0x10, 0x08, 0xf6, 0x08, 0x2b, 0x1a, 0x01, 0x03, 0x1a, 0x18, 0xf6,
  0x23, 0x1f, 0x0f, 0x15, 0x03, 0xe8, 0x07, 0x17, 0x1c, 0xc3, 0x3f, 0x59,
  0xf0, 0x20, 0xdd, 0x25, 0x05, 0x0d, 0xe1, 0xf1, 0xfb, 0x22, 0x08, 0xf0,
  0xe4, 0x04, 0xf5, 0x02, 0xff, 0xf7, 0xfd, 0x1d, 0x1f, 0xe8, 0xf1, 0xed,
  0xf7, 0xee, 0x1d, 0x0d, 0xf8, 0x24, 0xe2, 0x15, 0xe9, 0x02, 0x15, 0x0b,
  0x28, 0x1f, 0x03, 0xee, 0x0e, 0x40, 0x1d, 0xfd, 0xe1, 0xec, 0x15, 0x01,
  0xe5, 0x05, 0xe9, 0x39, 0x29, 0x2c, 0x39, 0xf7, 0xf7, 0xe1, 0x28, 0xed,
  0x1c, 0xe9, 0x21, 0xf7, 0xf3, 0xea, 0xe1, 0xff, 0xfc, 0x08, 0xf9, 0xea,
  0xdd, 0x0e, 0x21, 0x40, 0xfe, 0xf3, 0xea, 0xfc, 0xdb, 0xfb, 0x0f, 0xed,
  0xf2, 0xfa, 0x25, 0x08, 0x08, 0xf6, 0xe5, 0xfa, 0xec, 0x0b, 0x04, 0x02,
  0xfb, 0xfc, 0x14, 0x0b, 0x02, 0xd4, 0x1e, 0xee, 0xfd, 0xdd, 0xfc, 0xf4,
  0xbe, 0x18, 0xdd, 0x0a, 0x20, 0xf2, 0x0c, 0x17, 0x30, 0x25, 0xe8, 0xde,
  0xc5, 0xfc, 0x02, 0x07, 0xf4, 0xfa, 0xdf, 0x0b, 0xfd, 0x15, 0x00, 0x0a,
  0x33, 0x0c, 0xf0, 0xfe, 0xf6, 0xe2, 0x47, 0x1f, 0x27, 0x13, 0xeb, 0x17,
  0x04, 0xf3, 0xf4, 0x0b, 0x4b, 0x30, 0x02, 0x17, 0xec, 0x01, 0x17, 0xfa,
  0x0b, 0x28, 0xfd, 0xf7, 0x01, 0x0b, 0xed, 0xec, 0x02, 0x39, 0xed, 0x1d,
  0x2d, 0x0b, 0xf5, 0xe0, 0xcd, 0x0b, 0xf4, 0xf2, 0xf3, 0x0b, 0xf6, 0xdd,
  0x0a, 0xfb, 0xff, 0xee, 0xfc, 0x12, 0xf8, 0x0f, 0xe7, 0xe6, 0x17, 0xe2,
  0xd8, 0xf6, 0xeb, 0xdf, 0xf6, 0xfb, 0xc9, 0xdc, 0xf2, 0xe3, 0x00, 0xfa,
  0xe4, 0x2a, 0xfb, 0xf7, 0xe4, 0xf4, 0xde, 0x27, 0x0d, 0x0f, 0xf0, 0xfb,
  0xed, 0xef, 0x19, 0x24, 0x0e, 0x14, 0x1b, 0x0f, 0xfb, 0xc6, 0xeb, 0x14,
  0x17, 0x10, 0xc9, 0x02, 0xde, 0xf8, 0xfd, 0xff, 0xe7, 0x05, 0x04, 0xd1,
  0x02, 0xfb, 0xf0, 0xe1, 0xf9, 0xf9, 0xfe, 0x08, 0x0f, 0xfa, 0xfa, 0xe6,
  0x02, 0x0a, 0xf9, 0x04, 0x0d, 0x11, 0xc6, 0xc6, 0xe7, 0x0e, 0x19, 0x15,
  0x11, 0x05, 0x06, 0x0f, 0xc6, 0xd7, 0x11, 0xf6, 0x0e, 0x0e, 0x05, 0x13,
  0xef, 0xe4, 0x11, 0x20, 0x03, 0xe4, 0x02, 0x18, 0x18, 0xf2, 0xf3, 0x1d,
  0x19, 0xee, 0x12, 0x11, 0xef, 0x2b, 0x07, 0xdd, 0xd5, 0x0a, 0x20, 0x02,
  0x36, 0xdd, 0x1a, 0xe4, 0xf1, 0x09, 0x0f, 0x1d, 0xf3, 0xd5, 0xfd, 0xff,
  0xc9, 0xfb, 0x24, 0x22, 0x11, 0x20, 0x0d, 0x25, 0xd0, 0x13, 0x2b, 0xef,
  0x15, 0xe1, 0x1b, 0xe9, 0x28, 0xff, 0xf5, 0xc7, 0x01, 0xe8, 0x11, 0x10,
  0xf7, 0xfb, 0xf4, 0xf0, 0x02, 0xf9, 0xf2, 0xfd, 0xf4, 0x1a, 0x0c, 0x1a,
  0x30, 0x1a, 0x18, 0xf0, 0xd0, 0x2c, 0x1c, 0xf5, 0xf5, 0x19, 0xfe, 0xf5,
  0x16, 0xb1, 0xf6, 0x16, 0x17, 0x07, 0xee, 0x21, 0x0a, 0xe1, 0x0a, 0x03,
  0x05, 0xe8, 0x14, 0x27, 0xe8, 0xe5, 0x2e, 0x14, 0xff, 0x09, 0x13, 0x01,
  0xc4, 0xe9, 0x0e, 0xe7, 0x35, 0x15, 0x07, 0x09, 0xeb, 0xf7, 0xf7, 0x09,
  0x12, 0xf1, 0x06, 0xef, 0x02, 0xd6, 0xc6, 0x13, 0xf4, 0x08, 0xf1, 0xe3,
  0x18, 0x0a, 0x08, 0xef, 0x01, 0xd8, 0xbb, 0x1a, 0x14, 0xf9, 0xeb, 0x12,
  0xdf, 0x3c, 0xbd, 0x1a, 0xf9, 0x01, 0xf5, 0xec, 0x08, 0x1e, 0x03, 0xfb,
  0x16, 0x10, 0xe7, 0xcc, 0xfb, 0x02, 0xfb, 0x2f, 0xab, 0x21, 0x12, 0xf1,
  0xfd, 0xe8, 0x14, 0x01, 0x31, 0xd7, 0xee, 0xdd, 0xf9, 0xe6, 0x01, 0xfc,
  0xf0, 0x2d, 0xfc, 0xe6, 0xf4, 0xe1, 0xf2, 0xfc, 0xe1, 0x11, 0xf4, 0xee,
  0xf3, 0x0b, 0xc5, 0x4d, 0x45, 0x25, 0xfc, 0x01, 0x02, 0xd6, 0x48, 0xec,
  0x00, 0x01, 0x12, 0xf6, 0xee, 0x02, 0xde, 0xf4, 0x08, 0xf6, 0xeb, 0xff,
  0xf8, 0xf6, 0xe9, 0x2e, 0x12, 0x23, 0x2e, 0xf8, 0xf0, 0xf0, 0xf6, 0xe9,
  0x06, 0x13, 0x17, 0xeb, 0x0f, 0xf4, 0xdd, 0xf6, 0xc7, 0x00, 0x17, 0xff,
  0xd5, 0xf3, 0xfb, 0xff, 0x22, 0xfe, 0xee, 0xf4, 0x05, 0xf9, 0x11, 0x1b,
  0x26, 0xf2, 0xde, 0x01, 0x06, 0x04, 0x07, 0x1c, 0xf8, 0xdf, 0x06, 0xf0,
  0xf7, 0xde, 0xd5, 0x14, 0xfd, 0xf6, 0xc0, 0xd9, 0xf5, 0x12, 0x21, 0xb8,
  0xfa, 0x11, 0xf8, 0x01, 0x17, 0xfb, 0x20, 0x1f, 0xe5, 0x23, 0x27, 0x1e,
  0x09, 0x09, 0xfe, 0xce, 0x4c, 0x15, 0xf1, 0xed, 0xf6, 0x06, 0xf9, 0xf9,
  0xd8, 0x03, 0x0b, 0xf1, 0xf9, 0x06, 0xe2, 0x00, 0xf5, 0x3d, 0xfd, 0xec,
  0xdf, 0x0b, 0x1f, 0x18, 0x02, 0x12, 0x0e, 0xe5, 0x04, 0x0e, 0x09, 0x0b,
  0x08, 0x10, 0x34, 0xfa, 0x0c, 0xf1, 0x2d, 0x0f, 0x10, 0xf9, 0xd2, 0xfe,
  0x24, 0xee, 0x0a, 0x08, 0x03, 0xf2, 0xea, 0x37, 0x81, 0x2e, 0x29, 0xe6,
  0x07, 0x0f, 0x26, 0x0b, 0x34, 0xe1, 0xc6, 0xe4, 0x10, 0xec, 0xfa, 0xf4,
  0xee, 0x09, 0xf4, 0xf1, 0xf8, 0xfa, 0x05, 0x12, 0xf3, 0x33, 0x02, 0xfa,
  0x1d, 0x29, 0xee, 0x00, 0xf6, 0x02, 0xea, 0xfa, 0xea, 0x19, 0x19, 0xf7,
  0xf3, 0x1d, 0x05, 0xe8, 0xf7, 0xf5, 0x0f, 0x2f, 0x10, 0xeb, 0xec, 0x05,
  0x04, 0x08, 0xdf, 0x0a, 0x7e, 0xcc, 0xff, 0xff, 0x04, 0x00, 0x00, 0x00,
  0x40, 0x01, 0x00, 0x00, 0xbe, 0xfa, 0xff, 0xff, 0x89, 0xf4, 0xff, 0xff,
  0x5c, 0x0b, 0x00, 0x00, 0xab, 0x01, 0x00, 0x00, 0xa5, 0xff, 0xff, 0xff,
  0x46, 0xfc, 0xff, 0xff, 0x40, 0x12, 0x00, 0x00, 0x01, 0xfb, 0xff, 0xff,
  0x09, 0x08, 0x00, 0x00, 0x30, 0x04, 0x00, 0x00, 0x54, 0x0c, 0x00, 0x00,
  0x9a, 0x06, 0x00, 0x00, 0xb8, 0x0f, 0x00, 0x00, 0x9f, 0xf9, 0xff, 0xff,
  0xf7, 0xf2, 0xff, 0xff, 0x65, 0x05, 0x00, 0x00, 0x91, 0x01, 0x00, 0x00,
  0xce, 0x05, 0x00, 0x00, 0xc9, 0xf3, 0xff, 0xff, 0x7f, 0x02, 0x00, 0x00,
  0xd0, 0xf4, 0xff, 0xff, 0x9e, 0x02, 0x00, 0x00, 0x84, 0x0d, 0x00, 0x00,
  0x77, 0xf4, 0xff, 0xff, 0x09, 0x04, 0x00, 0x00, 0xcc, 0xf9, 0xff, 0xff,
  0xc8, 0xef, 0xff, 0xff, 0x79, 0x06, 0x00, 0x00, 0x71, 0xff, 0xff, 0xff,
  0x77, 0xf8, 0xff, 0xff, 0xe5, 0x03, 0x00, 0x00, 0x20, 0x01, 0x00, 0x00,
  0x50, 0x00, 0x00, 0x00, 0xd8, 0x07, 0x00, 0x00, 0x8b, 0xfa, 0xff, 0xff,
  0xc1, 0x07, 0x00, 0x00, 0xd5, 0xfd, 0xff, 0xff, 0x55, 0xff, 0xff, 0xff,
  0xb7, 0xfa, 0xff, 0xff, 0x56, 0xfe, 0xff, 0xff, 0x69, 0xf5, 0xff, 0xff,
  0x44, 0x03, 0x00, 0x00, 0xc3, 0xfe, 0xff, 0xff, 0x92, 0xef, 0xff, 0xff,
  0x43, 0x02, 0x00, 0x00, 0xe8, 0xff, 0xff, 0xff, 0x7d, 0x04, 0x00, 0x00,
  0x74, 0x09, 0x00, 0x00, 0x2d, 0x0c, 0x00, 0x00, 0x5b, 0x0d, 0x00, 0x00,
  0x5b, 0x09, 0x00, 0x00, 0x62, 0x01, 0x00, 0x00, 0x8b, 0xf5, 0xff, 0xff,
  0xad, 0xf8, 0xff, 0xff, 0x6f, 0xf7, 0xff, 0xff, 0x7f, 0xf7, 0xff, 0xff,
  0xca, 0x09, 0x00, 0x00, 0xf9, 0x04, 0x00, 0x00, 0xaa, 0xfe, 0xff, 0xff,
  0xe3, 0x05, 0x00, 0x00, 0x51, 0xfb, 0xff, 0xff, 0x76, 0x0b, 0x00, 0x00,
  0x1d, 0xf4, 0xff, 0xff, 0x6a, 0x0d, 0x00, 0x00, 0x50, 0xfe, 0xff, 0xff,
  0x74, 0x08, 0x00, 0x00, 0x92, 0x03, 0x00, 0x00, 0x93, 0x04, 0x00, 0x00,
  0x4f, 0x06, 0x00, 0x00, 0x61, 0x0d, 0x00, 0x00, 0x5c, 0xf1, 0xff, 0xff,
  0xbd, 0xf2, 0xff, 0xff, 0x2c, 0x07, 0x00, 0x00, 0x97, 0x09, 0x00, 0x00,
  0x5d, 0x09, 0x00, 0x00, 0x81, 0x02, 0x00, 0x00, 0xb9, 0x09, 0x00, 0x00,
  0xdc, 0xf7, 0xff, 0xff, 0xd5, 0x07, 0x00, 0x00, 0xb9, 0x00, 0x00, 0x00,
  0xca, 0xcd, 0xff, 0xff, 0x04, 0x00, 0x00, 0x00, 0xc0, 0x12, 0x00, 0x00,
  0xe7, 0xe2, 0x02, 0x21, 0xef, 0x08, 0xf6, 0x00, 0xe4, 0x07, 0x08, 0xdb,
  0xf8, 0x0c, 0x0b, 0x11, 0x00, 0xe8, 0xf3, 0xed, 0x00, 0x08, 0xf8, 0xf9,
  0x12, 0x19, 0xfb, 0xf1, 0x0a, 0x1c, 0x07, 0x01, 0xfb, 0xed, 0xfc, 0xfd,
  0xf4, 0xf4, 0x03, 0x03, 0xf5, 0x01, 0x0f, 0xe9, 0x13, 0xf9, 0x0d, 0x00,
  0xe6, 0x00, 0xf4, 0xfa, 0xeb, 0x02, 0x0c, 0xfe, 0xf7, 0xf9, 0x01, 0xf9,
  0xdf, 0x0d, 0xed, 0xf6, 0x20, 0xe3, 0x0d, 0xf9, 0x00, 0xee, 0xe5, 0x08,
  0xd9, 0xf6, 0xfd, 0xf6, 0xee, 0x0c, 0xf7, 0xeb, 0xec, 0x0e, 0xf9, 0xf8,
  0x09, 0xff, 0x03, 0x24, 0xf6, 0xf6, 0xbe, 0xde, 0x03, 0x01, 0x11, 0xf5,
  0x1b, 0xf6, 0x03, 0xeb, 0x1f, 0xfd, 0x15, 0xdf, 0xcf, 0x07, 0xf6, 0x08,
  0x09, 0x10, 0xf5, 0x0a, 0x11, 0xf3, 0xf4, 0xe6, 0x0f, 0x1a, 0xf6, 0x2d,
  0xf4, 0xe0, 0xf5, 0x13, 0xe9, 0x0d, 0xfa, 0xfa, 0xfd, 0x02, 0xf7, 0x0d,
  0x04, 0x00, 0xfe, 0xf9, 0xec, 0xf3, 0xea, 0x0b, 0x03, 0xe3, 0xfa, 0x09,
  0xef, 0xf4, 0x1e, 0x18, 0x02, 0x02, 0x0e, 0xef, 0xf4, 0xfc, 0xfa, 0x0c,
  0xf9, 0x06, 0xfe, 0xee, 0xf1, 0xe2, 0xe7, 0x08, 0xf4, 0xfe, 0xff, 0xfa,
  0xfc, 0xfc, 0x00, 0xeb, 0xef, 0x09, 0x14, 0x03, 0xf4, 0x19, 0xf5, 0x05,
  0xf9, 0x04, 0x18, 0xe8, 0x14, 0xf6, 0xed, 0x02, 0x1f, 0x07, 0x25, 0x05,
  0xfc, 0x06, 0xe4, 0x0d, 0xd0, 0x0d, 0xf5, 0x07, 0xd6, 0x0c, 0xfc, 0xe8,
  0xf4, 0xf8, 0x4e, 0xeb, 0xf6, 0x0a, 0xf5, 0xfb, 0xf1, 0xf5, 0xef, 0x0a,
  0xfd, 0xe7, 0x18, 0x0f, 0xf8, 0x07, 0xf3, 0x04, 0x04, 0x0b, 0x0b, 0xf6,
  0xfa, 0xfe, 0xd8, 0xf3, 0x07, 0x01, 0xf7, 0xf1, 0xee, 0x0b, 0x17, 0xeb,
  0x06, 0xf6, 0xfa, 0xf2, 0x04, 0x02, 0xf3, 0xfd, 0x03, 0x06, 0x15, 0xf9,
  0xff, 0x0a, 0x01, 0x12, 0xde, 0x1e, 0x04, 0x07, 0xee, 0xd4, 0x08, 0xfe,
  0x3c, 0x1a, 0x2a, 0xfa, 0xfe, 0x0a, 0x14, 0x10, 0x18, 0xfd, 0x16, 0xea,
  0xfc, 0xd0, 0xed, 0xf9, 0x08, 0x14, 0xf9, 0xfe, 0x26, 0xf1, 0x13, 0x00,
  0xf1, 0xdf, 0x0e, 0x03, 0x0f, 0xf6, 0x16, 0x04, 0x02, 0x10, 0x1c, 0xf5,
  0x12, 0x06, 0x22, 0xdf, 0xfc, 0xf1, 0xd7, 0xfd, 0x00, 0x0c, 0xfa, 0xf9,
  0xf2, 0x09, 0xeb, 0xec, 0x0b, 0x15, 0xfe, 0x0e, 0x01, 0x11, 0x13, 0xef,
  0x08, 0xd7, 0xfd, 0x1b, 0x2d, 0xe8, 0xf7, 0x1a, 0xf7, 0x15, 0xf2, 0xf8,
  0x2b, 0xf8, 0xfd, 0x08, 0x25, 0x16, 0x10, 0xf4, 0x04, 0xf2, 0xf7, 0x0a,
  0xfc, 0xe5, 0x02, 0x10, 0x06, 0x15, 0xf3, 0x23, 0x13, 0x16, 0x00, 0x00,
  0x0a, 0x05, 0x05, 0x04, 0xfc, 0x1a, 0xf0, 0x08, 0x09, 0x1b, 0x11, 0x01,
  0x05, 0xf1, 0xf2, 0xfc, 0x0b, 0x02, 0xfd, 0x16, 0x16, 0x16, 0xf8, 0x07,
  0xfb, 0x0c, 0xf8, 0x0a, 0x0f, 0x07, 0x05, 0xe4, 0x42, 0x08, 0x03, 0x12,
  0x13, 0xf8, 0x27, 0x0a, 0xe6, 0xda, 0xfb, 0x12, 0xfc, 0x0c, 0x03, 0xef,
  0xe8, 0xff, 0x08, 0xd7, 0xf0, 0x15, 0x1c, 0xf1, 0xea, 0xf3, 0xfb, 0x12,
  0xf9, 0xef, 0x00, 0xf3, 0x0f, 0xfb, 0x09, 0xf8, 0x11, 0x2f, 0x3b, 0x12,
  0x25, 0x0d, 0xf0, 0x14, 0x9c, 0xfc, 0xf2, 0x03, 0xec, 0x0a, 0x07, 0xf7,
  0x11, 0xea, 0x1c, 0x00, 0xf0, 0x00, 0x06, 0x0a, 0xf5, 0x09, 0x00, 0x03,
  0x06, 0x05, 0x06, 0x09, 0xee, 0xf4, 0x03, 0xf5, 0x0b, 0xf3, 0x04, 0xfb,
  0xf9, 0x00, 0xe3, 0x05, 0xe6, 0xfc, 0xe4, 0xc7, 0xf9, 0x22, 0xf6, 0xec,
  0x0f, 0x1c, 0xf5, 0x0c, 0x12, 0x06, 0xf6, 0xf1, 0x04, 0x09, 0x28, 0x06,
  0x0f, 0xfa, 0x07, 0x04, 0x04, 0xfb, 0x16, 0xfd, 0xf9, 0x1a, 0xe1, 0x08,
  0x14, 0xfb, 0xf9, 0xf5, 0xec, 0xfd, 0xf4, 0xe8, 0xba, 0x0c, 0xf5, 0x12,
  0x4c, 0x01, 0xf2, 0xf6, 0x0c, 0xf9, 0xf5, 0x14, 0x20, 0x00, 0xfd, 0x01,
  0x04, 0xe9, 0xfa, 0xf9, 0x13, 0x1a, 0xe4, 0xf5, 0x1b, 0x0c, 0x0e, 0xe7,
  0x20, 0xfe, 0xf6, 0x42, 0x09, 0x17, 0x06, 0xf3, 0xf4, 0x0d, 0x24, 0x15,
  0xed, 0x0d, 0x0e, 0xff, 0x09, 0xe9, 0xfb, 0xf3, 0xc9, 0xf4, 0x1c, 0x1b,
  0xf2, 0xfa, 0xf9, 0xf3, 0x06, 0x11, 0xef, 0x09, 0xff, 0x04, 0xf1, 0x01,
  0x18, 0xfe, 0x10, 0x0d, 0xf8, 0xf9, 0x20, 0xba, 0xe2, 0x1b, 0x01, 0x09,
  0x01, 0x0b, 0x00, 0x0b, 0x3d, 0xf3, 0x09, 0x0d, 0xee, 0x0a, 0x00, 0x38,
  0xfd, 0xfb, 0x01, 0xfd, 0xe7, 0x19, 0x06, 0x18, 0x0d, 0xff, 0x03, 0xf5,
  0xf2, 0xf1, 0x17, 0xe3, 0xeb, 0x18, 0xfc, 0x11, 0xfc, 0x10, 0xfc, 0xf3,
  0x02, 0xf1, 0x11, 0xe8, 0xfe, 0xfa, 0xfb, 0x06, 0xfc, 0x15, 0xf9, 0x0f,
  0x09, 0x00, 0x04, 0xea, 0x0f, 0x0c, 0xf5, 0xdb, 0x0e, 0x03, 0xfe, 0x2c,
  0x05, 0xef, 0xfb, 0x12, 0x0c, 0xf3, 0x21, 0xe3, 0xea, 0xfa, 0xe2, 0xfd,
  0x03, 0x01, 0xf3, 0x1d, 0x05, 0xf5, 0xf1, 0x08, 0x02, 0xf4, 0x12, 0x21,
  0xfd, 0x09, 0xe8, 0x06, 0x03, 0xfe, 0xf6, 0xee, 0xfc, 0x06, 0xfb, 0xff,
  0xf5, 0xfb, 0x10, 0xed, 0xfd, 0x18, 0xfe, 0x0f, 0x04, 0xee, 0xda, 0x0d,
  0x0b, 0xd4, 0xfa, 0x00, 0x00, 0x19, 0x0b, 0xfc, 0xed, 0x10, 0x00, 0x29,
  0x06, 0x1f, 0xff, 0xed, 0x0b, 0x00, 0xfa, 0xf0, 0xf5, 0x05, 0x05, 0x12,
  0x03, 0xec, 0xd5, 0xeb, 0x0c, 0xf8, 0xff, 0x07, 0x00, 0xf2, 0x0a, 0x01,
  0xf1, 0x09, 0x07, 0x13, 0xe2, 0x20, 0x07, 0x13, 0xfa, 0xdb, 0x13, 0x00,
  0x22, 0x07, 0x0f, 0xfd, 0x04, 0xf8, 0x19, 0xf5, 0x15, 0x0f, 0x18, 0xf8,
  0xea, 0xde, 0xf8, 0xfc, 0xf3, 0x15, 0x04, 0x00, 0x14, 0x01, 0x30, 0xf0,
  0x00, 0xe3, 0x04, 0x12, 0x0b, 0x0c, 0x10, 0x1d, 0x08, 0x07, 0x26, 0xeb,
  0xf3, 0x0a, 0x1e, 0xde, 0x05, 0xe9, 0xe1, 0xfa, 0xfe, 0xf7, 0x04, 0x09,
  0x01, 0x01, 0xe0, 0xa1, 0x01, 0x26, 0x06, 0x09, 0xce, 0xe5, 0x12, 0x0b,
  0xf8, 0xf7, 0x0f, 0x14, 0x02, 0xf5, 0xe6, 0x0a, 0x0a, 0xf7, 0xfd, 0xf7,
  0x10, 0xee, 0xfa, 0x19, 0x0b, 0xff, 0x5f, 0xd0, 0xf1, 0x0a, 0xfb, 0x01,
  0x0b, 0x04, 0x19, 0x0c, 0x1e, 0x0c, 0x02, 0x0c, 0xf0, 0x2a, 0xfe, 0x3d,
  0xf4, 0xf1, 0x07, 0xeb, 0xf3, 0x0c, 0x0e, 0xf8, 0x14, 0x0c, 0x07, 0xed,
  0xfa, 0xeb, 0x04, 0xe9, 0xf7, 0xf3, 0xf6, 0x1f, 0x02, 0x1b, 0xe7, 0xe9,
  0x00, 0xf9, 0x23, 0xf5, 0x01, 0x09, 0xd9, 0xee, 0x12, 0x0d, 0xf1, 0x08,
  0x05, 0x13, 0x18, 0xfc, 0xf2, 0x02, 0xee, 0xf5, 0xff, 0x0a, 0x01, 0x1d,
  0x08, 0xf9, 0xfb, 0xf6, 0xfc, 0xfe, 0x06, 0xf2, 0x0a, 0x00, 0xf5, 0x05,
  0x03, 0x01, 0xfc, 0x09, 0x14, 0x0a, 0xfe, 0x04, 0x1a, 0x09, 0x14, 0x15,
  0x15, 0xfe, 0xf8, 0xf5, 0xf9, 0x0d, 0x0a, 0x0c, 0xe7, 0x01, 0x19, 0x04,
  0xf9, 0xf4, 0x4a, 0xf2, 0xfa, 0x0d, 0xec, 0x01, 0xf6, 0xec, 0x01, 0x12,
  0x01, 0xfe, 0xfe, 0x06, 0xf8, 0xfd, 0x07, 0xf9, 0xfe, 0x00, 0xf9, 0x09,
  0xf7, 0xf0, 0x05, 0xf3, 0xff, 0xff, 0xdd, 0xa6, 0xfc, 0x20, 0xfe, 0x05,
  0xfc, 0xef, 0xfc, 0x14, 0xf7, 0x5d, 0xf4, 0xf4, 0xce, 0x18, 0xfe, 0xed,
  0x14, 0xea, 0xfa, 0xe8, 0xe1, 0xe2, 0xff, 0xf1, 0xde, 0x11, 0xf3, 0x08,
  0xf4, 0x02, 0xfd, 0xf2, 0x0e, 0x27, 0xff, 0xef, 0x05, 0xfa, 0xfb, 0xcc,
  0xf0, 0x05, 0x34, 0xfd, 0x07, 0xee, 0xfe, 0x04, 0xf6, 0xdd, 0xfc, 0x10,
  0xf9, 0xe3, 0xdf, 0xeb, 0x01, 0x0b, 0xf6, 0xf7, 0xf4, 0xfb, 0x09, 0x03,
  0xf7, 0xf4, 0xfa, 0x0b, 0x28, 0xf9, 0x0d, 0xf2, 0xe9, 0x03, 0x00, 0x1d,
  0xc2, 0xe2, 0x11, 0xff, 0xde, 0xf1, 0xa9, 0xed, 0xee, 0xf9, 0x05, 0x14,
  0xf9, 0xf5, 0x1b, 0x02, 0xfb, 0xf4, 0xec, 0xef, 0x09, 0x0a, 0x02, 0xf2,
  0x1b, 0xf2, 0xe3, 0x00, 0x05, 0x0d, 0x09, 0xfc, 0xe8, 0x0a, 0x02, 0x17,
  0x0c, 0x02, 0x14, 0x0e, 0xfe, 0xf0, 0xef, 0x0a, 0xff, 0x20, 0xf7, 0x1d,
  0xe4, 0xe4, 0xf8, 0xd8, 0xeb, 0x19, 0x02, 0xf3, 0x16, 0x07, 0x02, 0xea,
  0xec, 0xef, 0xf6, 0xfb, 0xec, 0xdd, 0xef, 0x18, 0x0a, 0x12, 0xd9, 0xfb,
  0x04, 0x04, 0x2a, 0x05, 0x07, 0x04, 0xef, 0xe7, 0xf8, 0x11, 0xf4, 0x05,
  0xff, 0x08, 0x08, 0xe6, 0xde, 0xf0, 0x1c, 0x05, 0xfe, 0xf9, 0x2c, 0xf8,
  0x11, 0xf2, 0x09, 0x01, 0x24, 0xed, 0xea, 0xff, 0x2a, 0xf2, 0xf0, 0x16,
  0xfe, 0x13, 0x1f, 0xe4, 0xe0, 0xe7, 0xdc, 0x2e, 0x02, 0xfe, 0xf8, 0x11,
  0xf4, 0x14, 0xe7, 0x07, 0xf1, 0x1c, 0x09, 0x15, 0xf0, 0xea, 0xf8, 0xd0,
  0x09, 0x14, 0xf6, 0x07, 0x3a, 0x0f, 0x05, 0xfa, 0xda, 0xf4, 0xe0, 0xf3,
  0x17, 0xf5, 0xec, 0x06, 0xfe, 0x0f, 0xbf, 0xfa, 0xf4, 0x06, 0x28, 0xf8,
  0x0d, 0x24, 0xe9, 0xf0, 0x0b, 0xf6, 0x05, 0x07, 0x05, 0xf0, 0x04, 0x02,
  0xe4, 0xfb, 0x11, 0x15, 0xf4, 0xf0, 0x24, 0xf0, 0x0f, 0x02, 0x24, 0xff,
  0x42, 0xc5, 0xfb, 0x0b, 0x0e, 0xef, 0xe9, 0x15, 0xe3, 0x27, 0x0e, 0xfe,
  0xf8, 0xe8, 0xc7, 0x0d, 0x09, 0xff, 0xfb, 0xf5, 0xd3, 0x09, 0xe9, 0x1f,
  0x1d, 0x18, 0x32, 0x04, 0xea, 0xf2, 0xf8, 0xe3, 0x01, 0x06, 0xfe, 0x03,
  0x1c, 0x24, 0xfa, 0xee, 0xf5, 0x0d, 0xd3, 0xfe, 0x10, 0xf9, 0xe8, 0xf9,
  0x10, 0x12, 0xb0, 0x19, 0x0d, 0x1b, 0x23, 0x00, 0x0a, 0x0e, 0x07, 0xfc,
  0x10, 0xee, 0x0d, 0x01, 0x0c, 0xfe, 0xfb, 0xf6, 0x0b, 0x21, 0x08, 0xfe,
  0xff, 0xf3, 0xf4, 0xf8, 0xf8, 0xf5, 0xf1, 0x0a, 0xf4, 0x03, 0xec, 0x02,
  0x1c, 0x01, 0x0b, 0xf0, 0x25, 0xff, 0xce, 0x11, 0xf4, 0xf9, 0xf5, 0x03,
  0xed, 0xfd, 0xea, 0xf8, 0xfb, 0x03, 0xfc, 0xfd, 0x39, 0xfc, 0xf5, 0xeb,
  0x19, 0xf8, 0x09, 0x1d, 0xf4, 0x0b, 0xd2, 0xfe, 0xe9, 0xfb, 0x04, 0x01,
  0x12, 0x0c, 0x03, 0xf0, 0xf5, 0x0a, 0xfa, 0x08, 0x11, 0xeb, 0x0c, 0x13,
  0xf8, 0x03, 0xfe, 0x03, 0x0a, 0xeb, 0x7f, 0x17, 0x03, 0x0e, 0x03, 0x07,
  0x1e, 0xf7, 0xfc, 0xfb, 0x06, 0x0b, 0x01, 0xfd, 0x05, 0x0d, 0x0e, 0x05,
  0xfa, 0x09, 0xe2, 0x05, 0xee, 0x0f, 0xe3, 0x06, 0xeb, 0x27, 0x05, 0x04,
  0x0e, 0xcf, 0x03, 0xf7, 0x01, 0x0b, 0x05, 0x0b, 0xf5, 0xf6, 0x09, 0xf3,
  0x07, 0xf0, 0x19, 0xf1, 0x0b, 0xcb, 0xe1, 0x0b, 0x07, 0x0c, 0xf4, 0x0c,
  0xf2, 0xfc, 0x01, 0x0c, 0x07, 0xf4, 0x18, 0xff, 0x10, 0xf9, 0x06, 0xf3,
  0xfe, 0x1d, 0x04, 0x0f, 0x0c, 0xfd, 0x22, 0xfb, 0xdc, 0xff, 0xea, 0x10,
  0x0e, 0xf6, 0x0b, 0xeb, 0x0b, 0x08, 0x02, 0x08, 0x2c, 0x08, 0xf5, 0xfb,
  0xe8, 0xe8, 0x0c, 0x07, 0x08, 0x13, 0x02, 0x15, 0xf9, 0x0a, 0x14, 0xe7,
  0x12, 0xf3, 0x0b, 0x0d, 0xf2, 0xea, 0xea, 0x0d, 0xe3, 0xfc, 0x26, 0xff,
  0xff, 0x03, 0x02, 0x03, 0x10, 0x09, 0x07, 0xff, 0x04, 0x0a, 0xfd, 0xed,
  0xd0, 0x05, 0x15, 0x1b, 0xe7, 0xf7, 0xf0, 0xd8, 0x07, 0xee, 0x09, 0x05,
  0x10, 0xf1, 0xf5, 0x05, 0xca, 0x02, 0xfe, 0xf3, 0x02, 0xe5, 0xef, 0xfc,
  0xee, 0x15, 0xf2, 0xf0, 0x0f, 0xf1, 0x1a, 0x05, 0xf2, 0x0c, 0xa2, 0xf2,
  0xf1, 0xe5, 0x00, 0xf8, 0xe7, 0x05, 0xfd, 0xf5, 0xff, 0x07, 0xfe, 0xfc,
  0x00, 0x02, 0x05, 0x0d, 0xf7, 0x00, 0x10, 0x00, 0xf7, 0x1d, 0xf6, 0xf8,
  0xfe, 0x00, 0xef, 0xf7, 0x0f, 0xdd, 0xe6, 0x10, 0x16, 0x04, 0x0f, 0x11,
  0x0c, 0x08, 0x1d, 0x2b, 0x08, 0xff, 0x08, 0x09, 0xed, 0xed, 0xc6, 0x04,
  0xfa, 0x0b, 0x21, 0xf5, 0x0e, 0xfc, 0x01, 0x06, 0x04, 0x08, 0x0f, 0x0b,
  0xfb, 0xe2, 0x08, 0xf8, 0x00, 0x14, 0xfa, 0x1d, 0xf9, 0x0f, 0x12, 0xe9,
  0x05, 0xf9, 0xff, 0x20, 0xfa, 0xf7, 0xfd, 0xe9, 0x06, 0x3d, 0xec, 0xf9,
  0x12, 0x08, 0x14, 0x00, 0x0e, 0x16, 0x10, 0xfa, 0xfa, 0xf9, 0x16, 0x11,
  0x1c, 0x04, 0xf5, 0x1c, 0x16, 0xf6, 0xef, 0x03, 0xf0, 0x00, 0xfd, 0x24,
  0xf6, 0x05, 0xec, 0x1b, 0xf0, 0xfd, 0xe0, 0x1f, 0x0c, 0xe2, 0xf4, 0x07,
  0x02, 0x00, 0xe8, 0x08, 0x11, 0x13, 0xf0, 0xf3, 0xfa, 0xfa, 0xfc, 0x07,
  0x03, 0x1b, 0xf6, 0x08, 0x1c, 0x10, 0x0e, 0x01, 0x10, 0xfc, 0xfe, 0xfb,
  0xfe, 0xf9, 0xe4, 0x23, 0x0b, 0x15, 0xf4, 0x1a, 0x06, 0x1c, 0x03, 0x12,
  0x23, 0x1d, 0xf9, 0xe0, 0x27, 0x21, 0x07, 0x11, 0x0f, 0xf4, 0x09, 0x00,
  0xef, 0x02, 0x07, 0x08, 0xf3, 0xe8, 0x0f, 0xea, 0x0d, 0xf4, 0xf9, 0x07,
  0xf7, 0x04, 0x01, 0xe7, 0x63, 0xe2, 0xfd, 0xd7, 0x30, 0x1a, 0x0c, 0xf6,
  0xf4, 0x1a, 0x00, 0xfe, 0xf1, 0xfe, 0x09, 0x21, 0x09, 0xe6, 0xfb, 0x06,
  0xfe, 0x13, 0xed, 0x17, 0x0b, 0xf8, 0x1c, 0xf9, 0xf4, 0x44, 0xfa, 0x10,
  0xf8, 0x0c, 0x11, 0xef, 0xfe, 0xe8, 0x01, 0x01, 0xec, 0xfe, 0xed, 0x21,
  0x0a, 0x14, 0xdf, 0xf1, 0x1a, 0xfb, 0x1e, 0xef, 0x0b, 0xe7, 0xff, 0xfb,
  0x05, 0x38, 0xfb, 0x06, 0x10, 0xfc, 0x10, 0xfb, 0xfa, 0xf7, 0x0a, 0xfd,
  0xec, 0x00, 0x0d, 0xfb, 0x04, 0x0c, 0xf2, 0xeb, 0xee, 0x0d, 0xf6, 0x02,
  0xfd, 0x12, 0xf4, 0x10, 0x09, 0xbf, 0x0a, 0xf5, 0xfd, 0x22, 0x0c, 0x1d,
  0xf5, 0x04, 0x00, 0x01, 0x2a, 0xe3, 0x05, 0xf4, 0xed, 0xec, 0xf0, 0x09,
  0x0b, 0x0c, 0x0a, 0x12, 0xf6, 0x06, 0xf3, 0x1b, 0x01, 0xf6, 0x2b, 0xfc,
  0x09, 0xfe, 0x18, 0x00, 0xf7, 0x14, 0xf9, 0x50, 0x00, 0x0b, 0x0c, 0xe7,
  0x13, 0xe9, 0x03, 0xf0, 0x15, 0xe4, 0x0a, 0xf6, 0x02, 0x0d, 0x13, 0x10,
  0x26, 0xf0, 0x04, 0xed, 0x19, 0x09, 0xe3, 0xf5, 0x07, 0x00, 0xf6, 0xf4,
  0xf2, 0xef, 0x03, 0xf4, 0xe5, 0x16, 0x12, 0xed, 0x01, 0xf4, 0x01, 0x02,
  0x10, 0xfe, 0xd3, 0x38, 0x1f, 0xf2, 0xfb, 0xe8, 0x0e, 0x0e, 0xff, 0x0d,
  0xe7, 0x07, 0xeb, 0x01, 0xf8, 0x06, 0x05, 0xe8, 0x10, 0x03, 0x0d, 0x1b,
  0xed, 0xfd, 0x01, 0xef, 0xe4, 0xf5, 0xf8, 0x01, 0x04, 0xf0, 0xfa, 0x1f,
  0x00, 0xf7, 0x18, 0xed, 0x01, 0x0c, 0x1b, 0x00, 0x0b, 0x08, 0xe8, 0xf1,
  0xf1, 0xf9, 0x11, 0x1b, 0x00, 0x00, 0x03, 0xe9, 0xfc, 0x03, 0x00, 0x15,
  0xfc, 0x08, 0xfc, 0x07, 0x03, 0x05, 0xfa, 0xf1, 0x0f, 0xfd, 0x1b, 0xf9,
  0x20, 0xd4, 0x13, 0x0c, 0xea, 0xfe, 0x0d, 0x08, 0xea, 0x28, 0xf5, 0xf7,
  0x01, 0xee, 0xfe, 0xee, 0x23, 0xfc, 0x10, 0xec, 0xec, 0x0e, 0x06, 0x13,
  0x1c, 0x0c, 0x52, 0x06, 0xf0, 0xee, 0xf1, 0xfd, 0x06, 0xe8, 0x09, 0xf6,
  0xfd, 0xff, 0xaa, 0xfe, 0x05, 0x04, 0xf5, 0xf4, 0x14, 0xe5, 0x0e, 0xd0,
  0x0d, 0x04, 0xe7, 0x12, 0xf2, 0x11, 0x0c, 0xe9, 0xec, 0x02, 0xfe, 0x1d,
  0x02, 0xb3, 0x00, 0xff, 0xc5, 0x0a, 0xf9, 0xf6, 0x0a, 0x13, 0xe6, 0xe1,
  0x06, 0xf6, 0x04, 0x5a, 0xff, 0xda, 0xec, 0xff, 0xff, 0xfe, 0x1c, 0xe6,
  0x1a, 0x0c, 0xe2, 0xf5, 0x12, 0xfe, 0xfd, 0x23, 0xf1, 0xfa, 0xed, 0x07,
  0x1d, 0xfe, 0x03, 0x13, 0x01, 0x08, 0xe6, 0x03, 0x09, 0x1d, 0xfd, 0x0a,
  0xe6, 0xfc, 0x0b, 0x0b, 0xeb, 0x16, 0x18, 0xe2, 0xf6, 0x14, 0xfe, 0x11,
  0x01, 0xf5, 0xef, 0x1e, 0xf9, 0xdd, 0xfe, 0xf9, 0xf4, 0xff, 0xfc, 0x03,
  0xf5, 0xfe, 0xfd, 0x31, 0x00, 0x05, 0x0a, 0xe1, 0x0b, 0x0a, 0xe7, 0xe9,
  0xfe, 0x0d, 0x17, 0x0c, 0xee, 0xe5, 0x06, 0x10, 0xf5, 0x1c, 0xfb, 0x12,
  0xf0, 0x19, 0xfa, 0xab, 0x2a, 0xef, 0xe3, 0x05, 0xed, 0xe3, 0xf1, 0x01,
  0xd8, 0x10, 0x16, 0xf6, 0x01, 0x04, 0x03, 0xfc, 0x07, 0x31, 0x05, 0x02,
  0xff, 0x0c, 0x06, 0xec, 0xe7, 0x04, 0x0e, 0x12, 0xf4, 0xe4, 0xed, 0xe0,
  0x0b, 0xe9, 0x0a, 0x0b, 0xf9, 0xf2, 0xea, 0xf7, 0xed, 0xfe, 0xfe, 0xe2,
  0x09, 0xfc, 0xfd, 0x04, 0xf6, 0x04, 0xf2, 0xf8, 0x01, 0xf7, 0x26, 0xf8,
  0xee, 0x1a, 0xe1, 0xfa, 0xe2, 0xfa, 0x04, 0x0b, 0xdf, 0x04, 0xf5, 0xe8,
  0x12, 0x07, 0x0e, 0x04, 0x05, 0x02, 0xd3, 0xe6, 0x01, 0x07, 0x09, 0x10,
  0xeb, 0x17, 0xdf, 0xea, 0x06, 0xf7, 0x05, 0xe3, 0x00, 0xfc, 0xde, 0x11,
  0xff, 0x12, 0x11, 0xe9, 0xe5, 0x0a, 0x0d, 0x0d, 0x01, 0xe9, 0x26, 0xf2,
  0x13, 0xdf, 0xf5, 0xe0, 0x14, 0x10, 0x09, 0x20, 0xf5, 0x09, 0xf4, 0x05,
  0xe1, 0xed, 0x0d, 0x06, 0x0d, 0xf4, 0x26, 0x02, 0xf0, 0x4a, 0xf0, 0x08,
  0xf9, 0x04, 0x1b, 0x06, 0x11, 0xfa, 0xe6, 0xfb, 0xeb, 0xcc, 0x12, 0x18,
  0xf6, 0xfb, 0x00, 0x11, 0x1e, 0x0c, 0xed, 0x12, 0xf8, 0xfb, 0xeb, 0xf5,
  0x06, 0xe9, 0x03, 0x17, 0x09, 0xda, 0x0c, 0x18, 0xf4, 0x07, 0x3d, 0xf8,
  0xfe, 0x0e, 0xed, 0x02, 0x10, 0x10, 0x0e, 0xf8, 0x19, 0xff, 0x01, 0x09,
  0x19, 0xe7, 0x15, 0x1f, 0x03, 0x07, 0xf2, 0x20, 0x06, 0x0b, 0xfc, 0xfd,
  0xf6, 0x0e, 0x08, 0xfd, 0x10, 0x05, 0x09, 0xde, 0xfc, 0x1d, 0xf2, 0x01,
  0x08, 0xf3, 0x0a, 0x4c, 0x05, 0xfc, 0x12, 0xfb, 0x09, 0x07, 0x0a, 0xf9,
  0xf4, 0x0d, 0xfc, 0x02, 0x09, 0xfc, 0x00, 0xf0, 0x0c, 0xe4, 0xe3, 0xf1,
  0xfe, 0x12, 0x12, 0x0d, 0xfa, 0xf8, 0xf6, 0x10, 0xfb, 0xfa, 0xff, 0xed,
  0x0c, 0x00, 0x1d, 0xfd, 0x08, 0xf4, 0xfe, 0xf1, 0x1e, 0xe0, 0x11, 0xed,
  0x05, 0x46, 0xfd, 0x04, 0xfb, 0x09, 0xfd, 0xe0, 0x08, 0x0c, 0xfb, 0x04,
  0xf0, 0xfe, 0xea, 0x13, 0xfc, 0x26, 0x34, 0xf1, 0x02, 0xf1, 0x01, 0xfd,
  0x05, 0x08, 0xf7, 0x08, 0xd5, 0x0f, 0xbb, 0xfb, 0x05, 0xf7, 0xe4, 0x05,
  0xfe, 0xe3, 0x04, 0xd6, 0x0c, 0x08, 0xe0, 0xf0, 0x1c, 0xfd, 0x0c, 0xde,
  0xe9, 0xe3, 0xf1, 0x23, 0xf3, 0xe6, 0xf3, 0xfb, 0xbf, 0xff, 0xe9, 0x01,
  0xfa, 0xfc, 0xf1, 0xde, 0x1b, 0xf1, 0xed, 0x0d, 0x0f, 0xfd, 0x2c, 0x0a,
  0x10, 0xf4, 0x1b, 0xf6, 0xf7, 0xf2, 0xdc, 0x10, 0xf4, 0x13, 0x03, 0xfa,
  0x21, 0xe2, 0xf2, 0x08, 0x06, 0xfc, 0x04, 0x05, 0xf4, 0x22, 0xea, 0x3c,
  0xf5, 0x04, 0x06, 0xfb, 0xf7, 0x02, 0xff, 0xea, 0x17, 0xff, 0x0d, 0xf6,
  0xec, 0x28, 0xfc, 0x1c, 0xf9, 0xfa, 0xe3, 0x11, 0x32, 0xe4, 0x13, 0x01,
  0x03, 0x1c, 0xf4, 0x0d, 0x02, 0x13, 0x07, 0x10, 0x06, 0x0b, 0xf8, 0xf1,
  0x14, 0xf5, 0x05, 0xf6, 0xfb, 0xf8, 0x22, 0x14, 0x24, 0x10, 0xe1, 0xe8,
  0x0d, 0x09, 0xec, 0x0e, 0xf9, 0x0e, 0xe7, 0x14, 0xfc, 0x14, 0x08, 0xf3,
  0x11, 0x0b, 0x01, 0xfb, 0x11, 0xfc, 0xd8, 0x25, 0xfe, 0xf1, 0xf5, 0xf8,
  0x03, 0xfa, 0xef, 0xf1, 0xf5, 0xfe, 0xfe, 0xf9, 0x06, 0x00, 0xea, 0xf8,
  0x0d, 0xf4, 0xf9, 0x21, 0xeb, 0x05, 0x0a, 0xf5, 0xef, 0xfa, 0xfc, 0x0c,
  0xf9, 0x00, 0xfe, 0x0c, 0x00, 0x21, 0x20, 0xf4, 0xfc, 0xd8, 0x1f, 0x0f,
  0xf1, 0x11, 0xed, 0x24, 0x0a, 0xf9, 0x09, 0x02, 0x0a, 0x05, 0x03, 0xf0,
  0x05, 0xfd, 0xee, 0x0c, 0x18, 0x0c, 0xf2, 0xf0, 0x0a, 0xf9, 0xfd, 0xf1,
  0x02, 0x02, 0x23, 0x14, 0xf2, 0x08, 0xf4, 0x15, 0xf8, 0x12, 0x06, 0x09,
  0xfe, 0xfb, 0xb9, 0x29, 0x13, 0x00, 0x08, 0xf3, 0xf9, 0xf7, 0xf5, 0x03,
  0xea, 0xf8, 0x0f, 0x00, 0x14, 0xe8, 0xfd, 0xcf, 0x22, 0x23, 0x03, 0x17,
  0x18, 0xf4, 0xf8, 0x06, 0xf7, 0x01, 0x02, 0x0c, 0x26, 0x08, 0x10, 0x13,
  0xfe, 0x0a, 0x0c, 0xec, 0x0a, 0x1b, 0x20, 0xfe, 0x06, 0xfd, 0xde, 0xf9,
  0xf0, 0xff, 0x14, 0x16, 0xfc, 0x00, 0x0e, 0x05, 0xfe, 0x00, 0x00, 0x0d,
  0xf6, 0x04, 0x22, 0x01, 0x05, 0xfa, 0xf2, 0x25, 0x0b, 0xfe, 0xfb, 0xf9,
  0xfe, 0x02, 0xd7, 0x04, 0xe3, 0xf9, 0xf5, 0x29, 0xf9, 0xdf, 0x0d, 0x00,
  0x09, 0xdd, 0xfe, 0x03, 0xe7, 0xf2, 0xf8, 0xf3, 0x03, 0x1c, 0x14, 0xf9,
  0x0b, 0xd9, 0xe6, 0x11, 0x0d, 0x11, 0xf6, 0xf2, 0x1c, 0xed, 0xf4, 0x11,
  0xfb, 0x06, 0x16, 0x0e, 0xf2, 0x0f, 0x04, 0xd4, 0x1a, 0x06, 0xe6, 0x08,
  0xfc, 0xfb, 0x28, 0x00, 0x01, 0x05, 0xfe, 0x18, 0xf5, 0x23, 0x00, 0xe0,
  0x0e, 0x08, 0x08, 0x25, 0x11, 0xf1, 0x0e, 0xf8, 0x00, 0x0a, 0x07, 0xfb,
  0xff, 0xdf, 0x07, 0xeb, 0x11, 0xe1, 0x22, 0x47, 0xe4, 0x18, 0xf9, 0xe6,
  0x31, 0xf7, 0x04, 0xe0, 0x37, 0x16, 0xf7, 0x15, 0xf9, 0x03, 0xfc, 0x01,
  0xfc, 0xd6, 0x07, 0x08, 0xf2, 0x01, 0xf6, 0x24, 0xff, 0x07, 0xfd, 0xee,
  0x10, 0x0f, 0x17, 0x08, 0x0e, 0x16, 0xe9, 0x0d, 0xf6, 0x21, 0xfe, 0xfd,
  0x19, 0xeb, 0xfb, 0x05, 0x09, 0xfd, 0xf4, 0xee, 0x18, 0x08, 0xfc, 0xfd,
  0x0b, 0x0c, 0x07, 0xec, 0xea, 0xf3, 0x13, 0x09, 0x0e, 0x04, 0x03, 0x1c,
  0x01, 0xf8, 0x03, 0x0f, 0xfd, 0xfa, 0xee, 0xec, 0x09, 0x13, 0xf9, 0x31,
  0xde, 0xef, 0xdb, 0xf5, 0xf9, 0x12, 0x09, 0xf8, 0xe3, 0x03, 0xf9, 0xfd,
  0x0c, 0xf8, 0x07, 0x09, 0xf3, 0x01, 0x15, 0xf9, 0x24, 0x03, 0x02, 0x0c,
  0x17, 0xf9, 0x09, 0xdb, 0xf7, 0x15, 0x14, 0x21, 0xfa, 0xff, 0xfe, 0x0e,
  0xc7, 0xeb, 0x2a, 0xec, 0x02, 0xf9, 0xf8, 0x09, 0xf9, 0xfa, 0x09, 0x16,
  0xee, 0xf4, 0x03, 0x03, 0xdb, 0xe5, 0x0a, 0xe2, 0xf9, 0xd9, 0xfd, 0x22,
  0xe9, 0xff, 0x06, 0xeb, 0xf9, 0xef, 0xdb, 0xcf, 0xe4, 0x1f, 0x01, 0xfb,
  0x12, 0x07, 0x03, 0xe9, 0x0d, 0x0d, 0x15, 0x18, 0xf8, 0x00, 0xd2, 0xfb,
  0x04, 0x0b, 0xf1, 0x03, 0x03, 0x0c, 0xff, 0xf1, 0x15, 0xd2, 0xf5, 0xfb,
  0xec, 0x08, 0x02, 0x23, 0xfb, 0x06, 0xea, 0xf7, 0x21, 0xfc, 0x00, 0xdd,
  0x07, 0xe4, 0xe9, 0x0a, 0x06, 0xff, 0xef, 0x17, 0xf8, 0x1b, 0x09, 0xff,
  0x28, 0xf8, 0x32, 0x18, 0x02, 0x12, 0x10, 0x11, 0xfa, 0x1c, 0x06, 0x2b,
  0xea, 0xd2, 0x11, 0xfd, 0xdd, 0xfd, 0xf7, 0x32, 0x26, 0x01, 0x1e, 0xf0,
  0x0a, 0x21, 0xf4, 0xe6, 0x21, 0x0d, 0xe9, 0xf8, 0xfb, 0x0c, 0x19, 0x13,
  0xfc, 0xf7, 0x1d, 0xfe, 0xf3, 0xf8, 0xf6, 0xed, 0x06, 0x00, 0xf0, 0xe4,
  0xf4, 0xea, 0x01, 0x03, 0xf8, 0x07, 0xf7, 0x07, 0xea, 0x00, 0xff, 0x01,
  0xe7, 0x14, 0xf3, 0xe9, 0x01, 0x00, 0x04, 0xf3, 0x0c, 0x18, 0x14, 0x17,
  0x02, 0xe6, 0xee, 0xed, 0xeb, 0xfa, 0xf6, 0x0d, 0x07, 0xf3, 0xfa, 0xf7,
  0xf0, 0x14, 0x08, 0xc7, 0xef, 0xfd, 0xf4, 0xf4, 0x08, 0x0d, 0xf9, 0xf9,
  0xff, 0xec, 0x1f, 0x02, 0xeb, 0x02, 0xfe, 0xfc, 0xee, 0xeb, 0x00, 0x06,
  0xfb, 0xf1, 0xf9, 0xe4, 0xff, 0xf7, 0x09, 0xf5, 0x01, 0xfb, 0x1d, 0x20,
  0xfe, 0xfa, 0x08, 0xfe, 0x07, 0x09, 0x07, 0x0f, 0x0a, 0x12, 0x9f, 0xfd,
  0x0e, 0x08, 0x1b, 0x0b, 0x03, 0xff, 0xf6, 0x18, 0x0d, 0xfd, 0x1c, 0x18,
  0xf7, 0x01, 0xe4, 0x14, 0xea, 0x06, 0x05, 0x06, 0xdb, 0x04, 0x00, 0xe0,
  0x0a, 0x09, 0x0f, 0xf9, 0x08, 0x0c, 0x09, 0xfb, 0x07, 0xe6, 0xf0, 0x1e,
  0x10, 0xed, 0xf6, 0x0d, 0xfc, 0x24, 0x03, 0xfa, 0x07, 0x04, 0x01, 0x00,
  0x12, 0xf9, 0xef, 0xc7, 0x0b, 0x01, 0xe0, 0xff, 0x02, 0x16, 0x1f, 0x09,
  0xff, 0x0a, 0x19, 0x04, 0xfb, 0xf4, 0xfd, 0xf5, 0x17, 0xfd, 0xde, 0x10,
  0xfc, 0xff, 0xe6, 0xff, 0x1c, 0x02, 0x0a, 0xff, 0x22, 0xf4, 0xec, 0xee,
  0xd2, 0x01, 0x02, 0x03, 0xe1, 0xf2, 0xd9, 0xe6, 0x1b, 0xfa, 0x06, 0xfb,
  0x02, 0xf5, 0xfb, 0x02, 0x1c, 0x08, 0xfc, 0x09, 0xfe, 0x1e, 0xb1, 0x04,
  0x18, 0x15, 0x0e, 0xfc, 0x0f, 0x0a, 0x00, 0xf2, 0xf6, 0x05, 0xeb, 0xfa,
  0x1a, 0xf5, 0x09, 0x00, 0xf9, 0x0f, 0xfa, 0xff, 0x11, 0x08, 0x18, 0xfa,
  0x1c, 0x06, 0x1e, 0x60, 0x08, 0xe8, 0x03, 0xf0, 0x02, 0xfe, 0x0c, 0xfd,
  0xfa, 0xc3, 0x02, 0xfa, 0x18, 0xf5, 0x1d, 0x21, 0xf3, 0x08, 0xf7, 0x17,
  0x1d, 0x1b, 0xfb, 0x16, 0x14, 0x08, 0x04, 0xf5, 0x03, 0x16, 0xfa, 0x07,
  0xfb, 0xe3, 0x0d, 0x15, 0xff, 0xfe, 0xf4, 0x25, 0xff, 0xed, 0xf3, 0xef,
  0x0b, 0x1c, 0x10, 0x0f, 0x12, 0x1d, 0x0c, 0x07, 0x0e, 0x14, 0x13, 0xff,
  0x18, 0xe6, 0xf5, 0xfe, 0x10, 0xfb, 0xf8, 0xfd, 0xf1, 0x23, 0x09, 0xf4,
  0x08, 0x03, 0xfa, 0xfa, 0x0c, 0xfc, 0x06, 0x04, 0x1e, 0x23, 0xfe, 0x04,
  0x1c, 0x12, 0x4c, 0x13, 0x05, 0x0c, 0x0a, 0xf1, 0x10, 0x06, 0x09, 0x35,
  0xf5, 0xf9, 0xc2, 0x00, 0xf3, 0x0f, 0xf3, 0xce, 0xff, 0xf8, 0xf7, 0x11,
  0x08, 0xf4, 0xfa, 0x14, 0xc7, 0xf9, 0xf1, 0xfe, 0xf5, 0xf5, 0xf9, 0xf7,
  0xfd, 0x05, 0xee, 0xf4, 0x07, 0x17, 0xf6, 0x12, 0xfd, 0xec, 0xf2, 0x0f,
  0xe0, 0xef, 0xf4, 0x07, 0x0d, 0x0b, 0x14, 0x0d, 0xfe, 0x05, 0xe9, 0x03,
  0xf9, 0xfc, 0xe4, 0x21, 0xf6, 0xf6, 0x1b, 0x0b, 0xed, 0x08, 0x0a, 0x2c,
  0xfa, 0x13, 0x0b, 0xe2, 0x17, 0x06, 0xfa, 0x1a, 0x0f, 0xf6, 0xfd, 0xf6,
  0x04, 0x09, 0xe8, 0xf1, 0xf8, 0xfa, 0x00, 0x22, 0xf7, 0xef, 0xe8, 0xfd,
  0x0c, 0xf3, 0x21, 0x09, 0x07, 0x07, 0xef, 0xfe, 0x15, 0x08, 0x0d, 0xf5,
  0xe1, 0xfb, 0xf6, 0x0a, 0x29, 0xf3, 0x17, 0x03, 0x0d, 0xf6, 0xf2, 0xfb,
  0x0d, 0x0f, 0x09, 0x04, 0xff, 0xf7, 0xf8, 0x0e, 0xea, 0x0a, 0x15, 0xde,
  0x00, 0x02, 0xeb, 0xfb, 0x13, 0xf0, 0x01, 0x22, 0xe9, 0xe2, 0x02, 0xfa,
  0x03, 0xf9, 0x01, 0xf5, 0xeb, 0xfe, 0xfb, 0x05, 0x02, 0x10, 0x0d, 0xe7,
  0x07, 0xfc, 0xdb, 0xf0, 0xf2, 0x28, 0x0c, 0x0e, 0xf7, 0x1b, 0x04, 0xfa,
  0x06, 0x18, 0xe7, 0xf9, 0xdc, 0x09, 0xd8, 0xeb, 0xf1, 0xff, 0xfe, 0xdd,
  0xe8, 0xf4, 0x1c, 0x05, 0x08, 0xf2, 0xfe, 0x06, 0xfe, 0x02, 0x12, 0xe5,
  0xf5, 0x13, 0xe4, 0xe6, 0x11, 0xe6, 0x0c, 0xd2, 0x0c, 0x15, 0xf5, 0x17,
  0x0b, 0x02, 0x0b, 0xff, 0xd7, 0xf2, 0xea, 0xfd, 0xf6, 0xf6, 0x14, 0xfe,
  0xff, 0x23, 0x14, 0xfa, 0xe6, 0x18, 0x04, 0xff, 0xfd, 0xc2, 0x0a, 0x18,
  0x04, 0xfc, 0x04, 0x14, 0xe6, 0xe6, 0x07, 0x0d, 0xf6, 0xf8, 0x0a, 0x08,
  0x0c, 0xf5, 0xf1, 0xe5, 0xff, 0xf8, 0xef, 0xfa, 0x09, 0x09, 0xfe, 0x22,
  0x04, 0xf3, 0x11, 0xf5, 0x05, 0x04, 0x20, 0xf3, 0xe8, 0xfb, 0xf3, 0x0d,
  0xff, 0x21, 0xfc, 0x11, 0x0f, 0xec, 0x03, 0xf4, 0x23, 0x0d, 0x07, 0x10,
  0x01, 0x17, 0xe6, 0x08, 0xf3, 0x11, 0x10, 0x01, 0xda, 0x01, 0x01, 0xf4,
  0x02, 0xe9, 0x08, 0xde, 0xf3, 0x0d, 0xd7, 0x06, 0xf8, 0xfe, 0xec, 0x0f,
  0x06, 0xc0, 0x13, 0xe1, 0x00, 0x09, 0xee, 0xff, 0xfa, 0x07, 0x0b, 0x11,
  0xef, 0x06, 0xe9, 0xfb, 0xfa, 0xe1, 0xfb, 0xfd, 0xbf, 0x02, 0xf9, 0x08,
  0x02, 0xff, 0xea, 0xf8, 0x01, 0x04, 0xf9, 0x41, 0xed, 0xf2, 0xec, 0x0e,
  0x14, 0xf2, 0x27, 0xf3, 0x09, 0xf5, 0xf5, 0xfa, 0x11, 0x12, 0x08, 0x05,
  0x00, 0xfd, 0xee, 0xf6, 0x18, 0x03, 0x11, 0x01, 0xff, 0xfd, 0xed, 0xf5,
  0xfe, 0x1a, 0x0a, 0xff, 0xd4, 0xf6, 0x06, 0xf4, 0xfe, 0xfd, 0x16, 0xf4,
  0xff, 0x07, 0xe9, 0x04, 0xf2, 0x07, 0xe9, 0x09, 0xff, 0xaf, 0x09, 0xf3,
  0xfe, 0x01, 0xec, 0x04, 0x03, 0x0a, 0x0c, 0x11, 0xf2, 0x11, 0xeb, 0xfa,
  0x00, 0xfa, 0xf7, 0xeb, 0xda, 0x0e, 0xfe, 0x0c, 0xd9, 0x03, 0x15, 0x09,
  0x09, 0xf3, 0x03, 0xeb, 0x06, 0xf9, 0x34, 0x1f, 0x00, 0xff, 0x0a, 0xea,
  0x0f, 0xe1, 0x03, 0xfc, 0x0b, 0xfc, 0x0d, 0xf0, 0x08, 0x04, 0x11, 0x00,
  0xe4, 0xf1, 0xfb, 0x07, 0x08, 0x07, 0x00, 0x38, 0xf0, 0xf7, 0x04, 0xf9,
  0x0f, 0xfd, 0x0e, 0xf4, 0x19, 0x00, 0xe0, 0x1a, 0xea, 0x0b, 0x10, 0x01,
  0xf6, 0xf5, 0xf6, 0x00, 0x07, 0x18, 0xec, 0x21, 0x0c, 0x07, 0x14, 0x02,
  0x1f, 0x11, 0x09, 0xdc, 0xf5, 0xf9, 0xf3, 0x04, 0x03, 0x0c, 0x12, 0x16,
  0x0c, 0xee, 0xf8, 0x0b, 0x02, 0x04, 0xf5, 0xfe, 0xfe, 0xf7, 0xd5, 0x00,
  0xfc, 0xff, 0xf6, 0xf7, 0xc2, 0x2e, 0x0b, 0xf8, 0x2f, 0x02, 0x11, 0xd2,
  0x1f, 0x03, 0x02, 0xee, 0x0e, 0x20, 0x2f, 0xdf, 0xf0, 0x03, 0xf9, 0xfd,
  0x13, 0xd5, 0x09, 0xf9, 0x0c, 0xeb, 0x0f, 0xf9, 0x0b, 0x0d, 0x11, 0x23,
  0xfa, 0x1b, 0x04, 0x02, 0xe2, 0xef, 0x06, 0x04, 0x0d, 0xf9, 0x27, 0x10,
  0xec, 0x18, 0x01, 0x04, 0x08, 0xf5, 0x1c, 0xf9, 0x08, 0xf4, 0xf8, 0xef,
  0xf4, 0xc6, 0x18, 0x12, 0xec, 0x00, 0xee, 0xe7, 0x08, 0x0e, 0xf2, 0x03,
  0x00, 0x02, 0xe2, 0xf7, 0xfd, 0x08, 0xf7, 0xfb, 0xf1, 0x01, 0x19, 0xef,
  0x0c, 0xf5, 0x2e, 0x10, 0xeb, 0x01, 0x09, 0xfb, 0x03, 0x15, 0xfe, 0xed,
  0x04, 0xfa, 0x01, 0xec, 0x15, 0x02, 0xfb, 0xfd, 0xf7, 0x0c, 0xfc, 0x08,
  0xfd, 0x06, 0x0c, 0x04, 0xf0, 0xf5, 0xf6, 0x02, 0x04, 0xea, 0x05, 0xdc,
  0xf6, 0xf5, 0xdf, 0x00, 0xf7, 0x03, 0xf7, 0x1b, 0xfe, 0xe3, 0x1c, 0xe5,
  0x0a, 0xfd, 0xed, 0x0d, 0xfb, 0x00, 0x0e, 0xef, 0xf3, 0x07, 0xf2, 0x23,
  0xed, 0xe6, 0xf8, 0xee, 0xcd, 0x0a, 0xef, 0x0d, 0x03, 0x0d, 0x19, 0xfd,
  0x01, 0xef, 0xf6, 0xf1, 0x09, 0xf6, 0xff, 0x02, 0xf3, 0x02, 0xf3, 0x06,
  0x2c, 0x02, 0x0d, 0x02, 0x18, 0xf6, 0xe2, 0x0c, 0xe0, 0xfe, 0x12, 0x06,
  0xd8, 0xfc, 0xdf, 0xef, 0x11, 0xfd, 0x13, 0xf8, 0x16, 0xf7, 0x06, 0xfe,
  0x2f, 0xff, 0xf6, 0x17, 0x0c, 0x20, 0xb8, 0x17, 0x05, 0x0b, 0xfd, 0x01,
  0x0d, 0x14, 0x10, 0xfb, 0xfa, 0x22, 0xf6, 0xf0, 0x01, 0xf8, 0x0b, 0xfa,
  0x01, 0xf3, 0xff, 0xfd, 0x03, 0xff, 0x27, 0x0c, 0x0c, 0xfe, 0x1b, 0x28,
  0x0c, 0xf2, 0xfe, 0x09, 0xd8, 0xfb, 0xfe, 0xf9, 0xfe, 0x04, 0x07, 0x25,
  0xf5, 0xf9, 0xd9, 0xe5, 0xec, 0x06, 0x15, 0xdc, 0xfa, 0xfd, 0xeb, 0xf0,
  0x1c, 0xe5, 0x27, 0xe3, 0xd7, 0x0b, 0x03, 0x0c, 0xf6, 0x1b, 0x17, 0x32,
  0x27, 0xea, 0xfd, 0xf1, 0xef, 0x12, 0xfd, 0x26, 0xf0, 0xf1, 0xfa, 0xf4,
  0xcb, 0x06, 0x03, 0xed, 0x0f, 0xfc, 0x0d, 0x08, 0xf7, 0xd3, 0x03, 0x00,
  0xf2, 0xf0, 0xe1, 0x29, 0xf5, 0x0c, 0x04, 0xde, 0xf0, 0xeb, 0x0f, 0x11,
  0x06, 0xfa, 0xfc, 0xda, 0x02, 0x10, 0xf6, 0x0b, 0x0d, 0x17, 0x01, 0xf2,
  0xd2, 0x04, 0x18, 0x23, 0xec, 0x07, 0x22, 0xf4, 0x00, 0x0f, 0xf4, 0xef,
  0x04, 0x03, 0xdc, 0xe9, 0x0b, 0xeb, 0xfc, 0x12, 0xf4, 0x06, 0x0b, 0xd9,
  0xe2, 0x02, 0xfb, 0x02, 0xe1, 0x06, 0x05, 0xeb, 0xfe, 0x05, 0x00, 0x13,
  0xff, 0x0b, 0xf4, 0x1a, 0xfb, 0xf5, 0xf5, 0xf3, 0xee, 0x04, 0xfa, 0x14,
  0x0d, 0x03, 0x0f, 0xf4, 0xf8, 0x09, 0xf2, 0xdf, 0xf9, 0x0b, 0xe8, 0x15,
  0x03, 0xff, 0xf2, 0xfb, 0x0a, 0xfd, 0x11, 0xef, 0xfc, 0x04, 0xf6, 0xf9,
  0x06, 0x0a, 0x02, 0x0f, 0x0e, 0x00, 0xf0, 0xd5, 0xf3, 0xfb, 0xe9, 0x0e,
  0xed, 0x0a, 0xfd, 0x20, 0xf0, 0x03, 0xfa, 0xef, 0xec, 0x10, 0x0b, 0x0a,
  0xf7, 0x07, 0x04, 0x02, 0x0e, 0xf0, 0xfe, 0x0d, 0x22, 0x1a, 0xff, 0xf0,
  0x04, 0x11, 0x23, 0x0d, 0x1c, 0x01, 0x0b, 0xf9, 0xf1, 0xfb, 0xf9, 0xfa,
  0xf1, 0x0b, 0x09, 0xf5, 0xf9, 0xfe, 0x2e, 0x00, 0xf2, 0xe9, 0xff, 0xeb,
  0x15, 0xf1, 0x01, 0xfa, 0xf9, 0xf5, 0x12, 0x01, 0xfd, 0x0a, 0x1c, 0xd9,
  0x00, 0xf1, 0xf7, 0xf7, 0xf3, 0x08, 0x09, 0xfc, 0xf4, 0x0b, 0xb8, 0xd2,
  0xf8, 0x35, 0x02, 0xf6, 0x06, 0xf3, 0x09, 0x22, 0xff, 0x01, 0xde, 0xd2,
  0xf7, 0x1c, 0x00, 0xef, 0xfe, 0x23, 0xf6, 0x14, 0xfc, 0xf1, 0x13, 0x9d,
  0x07, 0xfe, 0xe7, 0x06, 0xf4, 0x10, 0x2e, 0xee, 0x05, 0x0f, 0xf3, 0xf1,
  0x03, 0xe4, 0x13, 0xed, 0xf2, 0xef, 0xea, 0x06, 0x05, 0x06, 0xf9, 0x13,
  0xfa, 0x00, 0x09, 0x01, 0xf6, 0xc5, 0xff, 0x00, 0xf0, 0x0f, 0x24, 0xe0,
  0xd5, 0xff, 0x15, 0xf1, 0xf1, 0xc8, 0x0a, 0xf5, 0x16, 0xda, 0x08, 0xf8,
  0xeb, 0xdc, 0x0d, 0x2f, 0xdf, 0x07, 0xee, 0xef, 0xf8, 0x19, 0xee, 0xe2,
  0x09, 0x09, 0xea, 0xf9, 0xfd, 0xed, 0xff, 0xfc, 0x07, 0xe5, 0x0b, 0x10,
  0xf1, 0x24, 0x0c, 0x07, 0x12, 0x14, 0xf9, 0xfd, 0x17, 0xf3, 0xf8, 0x03,
  0x1c, 0x19, 0x0e, 0x04, 0x17, 0xf5, 0x0b, 0x19, 0x1d, 0xf4, 0x03, 0xf9,
  0x0e, 0x01, 0xf6, 0xff, 0xe7, 0x12, 0x14, 0x01, 0xfa, 0x06, 0x15, 0xf9,
  0xff, 0x00, 0x01, 0xf6, 0x07, 0xe1, 0x15, 0x2e, 0xeb, 0xfe, 0x22, 0xf7,
  0xfa, 0x14, 0xfb, 0xf7, 0x02, 0xf7, 0xe7, 0xf6, 0x11, 0xe5, 0xf4, 0xe9,
  0x11, 0x03, 0xdd, 0xee, 0xff, 0x1c, 0x18, 0x08, 0x0f, 0x0b, 0x02, 0xfe,
  0xfc, 0x1a, 0xf3, 0x07, 0xf9, 0x11, 0xf9, 0x0c, 0x15, 0xf3, 0xf9, 0xf2,
  0xb8, 0xf6, 0x1a, 0xfb, 0xea, 0x09, 0xee, 0x14, 0x06, 0xfe, 0xfb, 0xf7,
  0xfb, 0x00, 0xf4, 0xec, 0xf2, 0xfc, 0x09, 0xe7, 0x0f, 0xf1, 0x08, 0xf3,
  0x11, 0xf9, 0xfc, 0x10, 0x01, 0xd8, 0x03, 0x01, 0xfe, 0xeb, 0xec, 0xf8,
  0xfe, 0x25, 0xfe, 0xef, 0xeb, 0xfc, 0x0d, 0xfb, 0xf4, 0xe1, 0x12, 0x0a,
  0x0f, 0x00, 0xf1, 0x20, 0xe1, 0x06, 0x09, 0x08, 0xf3, 0xd3, 0x09, 0xf8,
  0xd7, 0xf9, 0xdb, 0xfd, 0xf8, 0xf7, 0xf1, 0x01, 0xf3, 0xf6, 0xf6, 0x1b,
  0xf8, 0xed, 0x03, 0xfb, 0xfa, 0x1a, 0x07, 0xf8, 0xf8, 0x00, 0x0f, 0xd7,
  0x11, 0x05, 0x0a, 0x14, 0x05, 0x17, 0x04, 0xe3, 0xfb, 0xff, 0x25, 0x11,
  0x09, 0xf7, 0xfc, 0x0b, 0xfb, 0x0f, 0x02, 0x0b, 0x00, 0x09, 0x11, 0xf2,
  0xf5, 0x0d, 0x0f, 0xfc, 0xdd, 0xe4, 0xfb, 0xef, 0x0a, 0xed, 0x0c, 0x33,
  0xea, 0x01, 0xfe, 0x02, 0x04, 0xfe, 0x0a, 0xe9, 0x10, 0xf2, 0x02, 0xe6,
  0xf8, 0xfd, 0xf1, 0x06, 0xf3, 0xfc, 0xb6, 0xd4, 0x01, 0x35, 0xf9, 0x04,
  0x09, 0xfb, 0xb9, 0xe9, 0x0a, 0xfb, 0xf8, 0x1c, 0xfb, 0xea, 0xe9, 0x0b,
  0xf5, 0x11, 0x58, 0x08, 0x02, 0x04, 0xf5, 0xfe, 0x0e, 0xf6, 0xfe, 0xfa,
  0x0c, 0xfe, 0x0f, 0xfa, 0x23, 0x00, 0x16, 0x05, 0xf8, 0xff, 0xfe, 0x0d,
  0xee, 0xfc, 0xf8, 0xed, 0xf6, 0xff, 0xfe, 0xff, 0xf7, 0xfe, 0x1f, 0xc9,
  0xe9, 0x16, 0xf5, 0x16, 0xed, 0xf7, 0x02, 0x6e, 0x01, 0xef, 0x18, 0xf9,
  0xfd, 0x00, 0x11, 0xf5, 0xf6, 0xff, 0xf8, 0x26, 0x00, 0xec, 0xf0, 0xef,
  0x07, 0xf0, 0xda, 0xd3, 0xfb, 0x20, 0x0a, 0x0e, 0xd0, 0xf0, 0x05, 0x2f,
  0xe3, 0x03, 0x05, 0xef, 0xf8, 0x1a, 0xfb, 0xf0, 0xf6, 0x14, 0x06, 0x10,
  0x27, 0xea, 0xfb, 0xf5, 0xf8, 0xfa, 0x0e, 0xc2, 0x04, 0x1e, 0x08, 0x03,
  0x0d, 0x10, 0x08, 0xfd, 0x1e, 0xf4, 0xff, 0xfd, 0xf5, 0x06, 0x11, 0x00,
  0xf5, 0x04, 0xfa, 0xf0, 0x01, 0x08, 0x04, 0xff, 0xee, 0x09, 0x04, 0xe0,
  0xf2, 0x09, 0x0b, 0xec, 0xef, 0x05, 0xf8, 0x09, 0x04, 0xfd, 0xea, 0xed,
  0x14, 0xfd, 0x0d, 0xef, 0x14, 0xe0, 0xf1, 0x07, 0xef, 0x00, 0x07, 0xf4,
  0x06, 0xf7, 0xe8, 0xe2, 0x00, 0x06, 0xf6, 0x0b, 0x01, 0x24, 0x00, 0xfb,
  0xe6, 0x0c, 0xfb, 0xfb, 0x19, 0xe8, 0x15, 0x02, 0xd9, 0xf0, 0xfd, 0x0b,
  0xd1, 0x08, 0xfd, 0x02, 0xdf, 0x01, 0x00, 0x01, 0x04, 0x10, 0xe8, 0xde,
  0xf4, 0x08, 0x02, 0xed, 0xff, 0x09, 0x37, 0x0e, 0x01, 0xea, 0xd9, 0xf2,
  0xf7, 0xe1, 0xec, 0xeb, 0x11, 0xde, 0xd7, 0x02, 0xed, 0x22, 0x06, 0x02,
  0xfe, 0xfd, 0xfd, 0xeb, 0xf6, 0xef, 0xf5, 0x03, 0xfd, 0xf0, 0x16, 0x00,
  0xf2, 0x13, 0xf5, 0xf8, 0xd7, 0xbb, 0xff, 0x0a, 0xd7, 0xff, 0xd6, 0x00,
  0x96, 0xe0, 0xff, 0xff, 0x04, 0x00, 0x00, 0x00, 0xf0, 0x00, 0x00, 0x00,
  0xf7, 0xfe, 0xff, 0xff, 0x33, 0xf9, 0xff, 0xff, 0x6a, 0x02, 0x00, 0x00,
  0xaf, 0xf7, 0xff, 0xff, 0x01, 0xff, 0xff, 0xff, 0x81, 0xf6, 0xff, 0xff,
  0xbd, 0x01, 0x00, 0x00, 0x80, 0x01, 0x00, 0x00, 0xeb, 0x03, 0x00, 0x00,
  0x2a, 0xfd, 0xff, 0xff, 0x64, 0xfa, 0xff, 0xff, 0x0a, 0xfe, 0xff, 0xff,
  0xba, 0x00, 0x00, 0x00, 0x3a, 0xfd, 0xff, 0xff, 0xf8, 0x0a, 0x00, 0x00,
  0xe7, 0x14, 0x00, 0x00, 0x62, 0xf8, 0xff, 0xff, 0xcd, 0x02, 0x00, 0x00,
  0xfd, 0x08, 0x00, 0x00, 0x04, 0xfb, 0xff, 0xff, 0x21, 0x09, 0x00, 0x00,
  0xfe, 0x00, 0x00, 0x00, 0x6a, 0xfc, 0xff, 0xff, 0x89, 0xf4, 0xff, 0xff,
  0x58, 0x01, 0x00, 0x00, 0x7b, 0xfa, 0xff, 0xff, 0x48, 0xff, 0xff, 0xff,
  0x7f, 0x0b, 0x00, 0x00, 0x61, 0xf8, 0xff, 0xff, 0x3a, 0xfc, 0xff, 0xff,
  0x46, 0x02, 0x00, 0x00, 0x23, 0xf9, 0xff, 0xff, 0xe3, 0x03, 0x00, 0x00,
  0x37, 0xfc, 0xff, 0xff, 0xd6, 0xfc, 0xff, 0xff, 0xd6, 0xfd, 0xff, 0xff,
  0x9c, 0x05, 0x00, 0x00, 0x3d, 0xfe, 0xff, 0xff, 0xf2, 0x06, 0x00, 0x00,
  0xad, 0x00, 0x00, 0x00, 0x52, 0x07, 0x00, 0x00, 0x3b, 0xfd, 0xff, 0xff,
  0x39, 0xfd, 0xff, 0xff, 0x00, 0xf9, 0xff, 0xff, 0xe3, 0xf8, 0xff, 0xff,
  0xf9, 0xf7, 0xff, 0xff, 0x8c, 0xfb, 0xff, 0xff, 0x70, 0xf4, 0xff, 0xff,
  0xd0, 0xfa, 0xff, 0xff, 0xad, 0xfb, 0xff, 0xff, 0x48, 0x01, 0x00, 0x00,
  0x1a, 0xfc, 0xff, 0xff, 0x92, 0xff, 0xff, 0xff, 0x3c, 0x01, 0x00, 0x00,
  0x51, 0xfc, 0xff, 0xff, 0x8a, 0xfc, 0xff, 0xff, 0x37, 0xfc, 0xff, 0xff,
  0xd8, 0xfa, 0xff, 0xff, 0xac, 0xfa, 0xff, 0xff, 0xc4, 0xff, 0xff, 0xff,
  0x92, 0xe1, 0xff, 0xff, 0x04, 0x00, 0x00, 0x00, 0xc0, 0x12, 0x00, 0x00,
  0xf2, 0xf0, 0x17, 0x0d, 0xf2, 0x01, 0xf3, 0xf1, 0xfe, 0x13, 0xf3, 0x10,
  0xe7, 0xf5, 0xf5, 0xe3, 0xe0, 0x01, 0x13, 0x04, 0xfa, 0x0a, 0x00, 0x01,
  0xee, 0x38, 0xd9, 0xf0, 0x33, 0x00, 0xf6, 0x0d, 0xff, 0x03, 0x10, 0x13,
  0x11, 0xe3, 0x22, 0xeb, 0x0c, 0x03, 0x1d, 0xfc, 0x00, 0x17, 0xe9, 0xf9,
  0xff, 0xed, 0x1d, 0xe0, 0x1e, 0xfd, 0x0a, 0xf1, 0x1b, 0x3d, 0x07, 0xfa,
  0xf4, 0x0e, 0x0e, 0x28, 0xf1, 0xf9, 0x1d, 0x15, 0xf5, 0x06, 0xed, 0xff,
  0xe9, 0xfd, 0xc8, 0xe7, 0x1d, 0xff, 0xd9, 0x0d, 0xf5, 0x0b, 0x14, 0x0f,
  0xc1, 0xe7, 0xed, 0x2e, 0xfa, 0xd4, 0x0c, 0x10, 0x22, 0x0e, 0xf5, 0x16,
  0x17, 0xe7, 0xe7, 0x23, 0x0d, 0x05, 0x18, 0xff, 0x03, 0xe2, 0x19, 0x2e,
  0xf2, 0xf4, 0xe1, 0xef, 0x0e, 0x14, 0x35, 0x08, 0xdd, 0x03, 0xe8, 0xdd,
  0x0b, 0x04, 0xe9, 0x19, 0x1b, 0xf9, 0x23, 0x08, 0x02, 0x1a, 0x0b, 0x00,
  0xeb, 0x10, 0xe4, 0xdf, 0x07, 0xf8, 0xfa, 0xec, 0xfa, 0x0e, 0xe3, 0xf4,
  0x24, 0x41, 0xce, 0xf5, 0x33, 0x23, 0x11, 0xf2, 0x2e, 0xee, 0x0f, 0x25,
  0xf5, 0xf8, 0x0c, 0x04, 0x1a, 0xef, 0x1e, 0xef, 0x12, 0x14, 0x0b, 0x26,
  0x0a, 0x0b, 0x0f, 0x12, 0x20, 0xf8, 0x08, 0xdd, 0x20, 0x46, 0x03, 0x01,
  0xeb, 0x13, 0xfe, 0xf0, 0x0a, 0xf5, 0xc4, 0x2e, 0x16, 0xdc, 0xed, 0xe7,
  0x0a, 0x1d, 0x05, 0xec, 0x10, 0xf9, 0xf7, 0xf1, 0xec, 0xf7, 0xfe, 0xf8,
  0xfe, 0x0b, 0x13, 0x0f, 0xff, 0xe7, 0xe4, 0x06, 0x0b, 0x22, 0x09, 0xf4,
  0xf8, 0xfd, 0x21, 0x58, 0xf1, 0x30, 0x07, 0xfa, 0x05, 0xf9, 0x15, 0xed,
  0x06, 0x15, 0x05, 0x15, 0xed, 0xeb, 0xec, 0x08, 0xc0, 0xef, 0x03, 0x09,
  0x0f, 0x1c, 0x25, 0x19, 0x16, 0xe8, 0xfa, 0xec, 0x03, 0x35, 0x16, 0xff,
  0xfa, 0x02, 0xe9, 0xc1, 0x0f, 0x1e, 0xed, 0x05, 0x05, 0xd3, 0xf8, 0x12,
  0xde, 0x10, 0x0d, 0xfa, 0xf4, 0xde, 0xe6, 0x05, 0x1d, 0x22, 0xe7, 0x30,
  0x1e, 0x08, 0x0c, 0x04, 0x08, 0x03, 0x29, 0x1c, 0xee, 0x1e, 0x01, 0x10,
  0x05, 0xf8, 0x0b, 0x07, 0x28, 0x37, 0x0e, 0x14, 0xfa, 0xf6, 0x03, 0xeb,
  0xe9, 0xf1, 0x11, 0xfa, 0xf2, 0x00, 0xd1, 0x02, 0xff, 0xef, 0xff, 0xf6,
  0x0a, 0xfb, 0xcd, 0xda, 0x04, 0x0b, 0xf5, 0x04, 0xe3, 0x21, 0x3f, 0xed,
  0xf6, 0x06, 0xde, 0x1f, 0xee, 0x14, 0x0f, 0xfe, 0x08, 0xd8, 0x3b, 0x11,
  0x0b, 0xfe, 0x21, 0x1a, 0x00, 0xe5, 0x00, 0xcd, 0xdd, 0xfe, 0x39, 0x3e,
  0xdd, 0x05, 0x18, 0x09, 0x05, 0x4c, 0x12, 0xf8, 0x03, 0xf8, 0x1b, 0xfb,
  0x04, 0x0a, 0x01, 0x22, 0xea, 0xee, 0x1e, 0xec, 0x0f, 0x07, 0xd5, 0xfb,
  0xfe, 0x14, 0xda, 0xbc, 0x14, 0x03, 0xdc, 0x0a, 0xf5, 0x11, 0x08, 0x15,
  0xd9, 0x0c, 0xf9, 0xef, 0x1d, 0x0e, 0x09, 0x04, 0x29, 0xd9, 0x04, 0xf9,
  0x11, 0xef, 0x12, 0x10, 0xfd, 0xf1, 0x14, 0x09, 0x0d, 0x1b, 0xf0, 0xfd,
  0x06, 0xf5, 0x0c, 0xdc, 0x13, 0x24, 0xfc, 0xff, 0x14, 0x2e, 0x1d, 0x0d,
  0xdd, 0xe6, 0x03, 0x12, 0x15, 0xd7, 0xee, 0xd9, 0x13, 0xe5, 0xf1, 0xf6,
  0x00, 0xfd, 0xdd, 0xf9, 0x19, 0xf8, 0xd0, 0x0e, 0x15, 0xf7, 0x04, 0x1e,
  0xdb, 0x11, 0xe5, 0x19, 0x15, 0x1e, 0xfb, 0x14, 0x22, 0x00, 0x3d, 0x02,
  0xf2, 0x07, 0xe0, 0x20, 0x07, 0x22, 0x0c, 0xf9, 0x09, 0x21, 0xf7, 0xf5,
  0x08, 0x03, 0x11, 0xe2, 0xf2, 0x04, 0xf5, 0xdb, 0xe8, 0xf8, 0xfd, 0xd2,
  0x02, 0xf6, 0xe2, 0x13, 0xfa, 0xf2, 0x0a, 0xfc, 0xfa, 0x0d, 0xd4, 0xe6,
  0xf8, 0xdd, 0xc7, 0xdb, 0x1f, 0xdc, 0xf1, 0x0a, 0x06, 0x07, 0xf5, 0x19,
  0xef, 0x0d, 0xff, 0x11, 0x00, 0x26, 0xfc, 0x18, 0x13, 0x19, 0x0e, 0x18,
  0xce, 0xe8, 0xf0, 0x26, 0xf5, 0xf8, 0xef, 0xfe, 0xf7, 0x1e, 0x0d, 0x18,
  0x16, 0x2e, 0xe4, 0xf4, 0x2d, 0x11, 0xef, 0x1d, 0x19, 0x01, 0xf7, 0xff,
  0xff, 0xe5, 0x0d, 0xed, 0xfb, 0xd6, 0x03, 0xf2, 0xf1, 0xc1, 0x03, 0xf4,
  0x0b, 0x0a, 0x17, 0x2a, 0x10, 0x11, 0xea, 0x03, 0xf8, 0xf8, 0xf2, 0x10,
  0x01, 0x33, 0x38, 0xf2, 0x18, 0xeb, 0xed, 0xf2, 0x06, 0x14, 0xe8, 0xf8,
  0x1a, 0x02, 0x1c, 0x09, 0xee, 0x00, 0x1d, 0xfc, 0x09, 0x00, 0xda, 0xf2,
  0xf3, 0xf8, 0xe7, 0x07, 0xe4, 0xea, 0xf0, 0xff, 0xf3, 0xe0, 0xdf, 0x00,
  0xef, 0xfd, 0x27, 0xf6, 0x18, 0x1c, 0x17, 0xf6, 0x02, 0xe6, 0x25, 0x0a,
  0xef, 0xf2, 0x20, 0x11, 0xe7, 0xfe, 0x15, 0x11, 0x15, 0xeb, 0xdb, 0xde,
  0x20, 0x02, 0xfd, 0xe7, 0x13, 0xeb, 0x11, 0x08, 0xed, 0x10, 0x12, 0x02,
  0xf2, 0xff, 0x13, 0xdb, 0xef, 0x0d, 0xe3, 0x02, 0xf4, 0xef, 0xf6, 0x0d,
  0x03, 0xdb, 0x0c, 0xf9, 0x12, 0xe8, 0x18, 0x02, 0x03, 0xd9, 0xf5, 0x21,
  0x00, 0xdc, 0x15, 0xfa, 0xf1, 0x1c, 0x03, 0xef, 0x04, 0xf5, 0xce, 0x00,
  0x05, 0xf0, 0xfc, 0x22, 0xf8, 0xec, 0x12, 0xf2, 0x18, 0xf8, 0x02, 0x03,
  0x09, 0x11, 0xff, 0xbc, 0x21, 0xf8, 0x2a, 0xef, 0x13, 0xf3, 0xff, 0xec,
  0x03, 0xee, 0x2e, 0xfd, 0x0d, 0x1f, 0x11, 0xe3, 0x2d, 0x0a, 0x14, 0xdb,
  0x11, 0xdb, 0x1d, 0xe6, 0x09, 0xf0, 0x1e, 0xff, 0x09, 0x08, 0x0e, 0x18,
  0x1c, 0xd8, 0x11, 0x15, 0xad, 0x34, 0x05, 0xfa, 0x0e, 0x0e, 0xf9, 0x09,
  0x35, 0x10, 0x00, 0x08, 0x19, 0xf7, 0xfc, 0xde, 0xe4, 0xe7, 0xfa, 0x03,
  0x09, 0xed, 0x19, 0x1e, 0x0a, 0x0b, 0xde, 0x0f, 0xed, 0xe8, 0xdd, 0x0e,
  0x13, 0xf8, 0x0a, 0xd7, 0xcb, 0xec, 0xf1, 0x02, 0xfc, 0xf9, 0x01, 0x11,
  0x14, 0xdd, 0xed, 0xf3, 0xfa, 0x0f, 0xfc, 0x07, 0x1c, 0x24, 0x18, 0x2d,
  0x0e, 0x1b, 0x1a, 0xee, 0xcf, 0x08, 0xec, 0x00, 0xf2, 0xee, 0xf9, 0x03,
  0x15, 0xeb, 0x13, 0x16, 0xe2, 0x01, 0x1d, 0x0b, 0xf6, 0xdb, 0xed, 0xe4,
  0x07, 0x1a, 0x0b, 0x03, 0x19, 0xcf, 0xe1, 0xff, 0xfb, 0x0d, 0xef, 0x0b,
  0x05, 0x0a, 0x14, 0x01, 0x00, 0xfe, 0x2d, 0x05, 0x1e, 0x21, 0xe6, 0xba,
  0x25, 0xf0, 0xe8, 0x03, 0xe1, 0x16, 0x0f, 0xfd, 0xdb, 0x13, 0x0e, 0xff,
  0x02, 0xeb, 0x1b, 0xe6, 0xff, 0x2a, 0x1d, 0xe7, 0x19, 0xe4, 0x06, 0xf3,
  0xf6, 0x0d, 0x00, 0x26, 0xd2, 0x15, 0x03, 0x0c, 0xf4, 0x0f, 0xf6, 0x13,
  0xed, 0x18, 0xf3, 0xdd, 0x03, 0xf4, 0x2b, 0x06, 0x01, 0x0e, 0xec, 0xfe,
  0x08, 0xf5, 0x24, 0xc3, 0x0c, 0xe0, 0x15, 0xdc, 0xfd, 0x01, 0xf8, 0xda,
  0x05, 0xc4, 0xfb, 0xe3, 0xde, 0x0e, 0xef, 0xdb, 0xea, 0x02, 0xf3, 0xd7,
  0xfd, 0xed, 0x09, 0xfa, 0x11, 0x18, 0x00, 0xf6, 0x0c, 0xfe, 0xf9, 0xf6,
  0x19, 0xff, 0x19, 0xf5, 0xf5, 0x07, 0x1c, 0xe1, 0xfa, 0xe9, 0xf4, 0x0c,
  0x03, 0xe0, 0x0b, 0x23, 0xbe, 0xf1, 0xde, 0xfc, 0xd5, 0x1b, 0xfd, 0x0e,
  0x01, 0x20, 0xe2, 0x28, 0xf6, 0x01, 0x05, 0x29, 0x2d, 0x0d, 0x01, 0x1e,
  0xe9, 0x10, 0xe1, 0x32, 0xf8, 0xdb, 0xde, 0x1d, 0xf7, 0xcb, 0x1c, 0xf7,
  0xf3, 0xf9, 0xf1, 0x29, 0xee, 0xcc, 0x0a, 0xc8, 0x08, 0xfe, 0xea, 0xf5,
  0x05, 0xe5, 0xc6, 0xdf, 0x02, 0xf0, 0xfe, 0xdf, 0x0d, 0xd4, 0xf7, 0x12,
  0x1c, 0x29, 0x08, 0x01, 0x0d, 0x0b, 0xfc, 0x0d, 0xfd, 0x03, 0xf8, 0x07,
  0xee, 0xf4, 0x11, 0x1b, 0xfd, 0xee, 0x20, 0x08, 0x1f, 0x06, 0xea, 0x01,
  0x0f, 0x13, 0xf4, 0xf3, 0x06, 0xf9, 0xeb, 0xfc, 0x03, 0x00, 0xd8, 0x07,
  0x02, 0x12, 0x06, 0xf3, 0xf6, 0xde, 0xf5, 0x06, 0x0e, 0xf8, 0xe3, 0xfa,
  0x00, 0xf3, 0xf8, 0x0a, 0xfa, 0xf8, 0x16, 0x22, 0x1e, 0xf9, 0x24, 0xf4,
  0xfe, 0xf6, 0x09, 0xb0, 0x0a, 0xdb, 0x04, 0x0a, 0x09, 0xff, 0xf2, 0x01,
  0x09, 0xe5, 0x17, 0x1e, 0xf6, 0x22, 0xf6, 0xcd, 0x12, 0x19, 0xea, 0xff,
  0x0f, 0x27, 0xff, 0xf5, 0xf5, 0xf4, 0x29, 0xfa, 0x0c, 0xec, 0xeb, 0x15,
  0xf2, 0x3f, 0xec, 0x02, 0x0c, 0x06, 0x00, 0x2a, 0xf0, 0xe2, 0x1e, 0x0f,
  0xd5, 0x25, 0x14, 0xc9, 0xe7, 0xfb, 0x0e, 0xe7, 0xf1, 0xfb, 0x14, 0xf6,
  0xef, 0x0a, 0x13, 0x07, 0x03, 0x23, 0xf2, 0xdb, 0xcf, 0xf8, 0xf0, 0x19,
  0x02, 0x24, 0x03, 0xee, 0x0a, 0x08, 0x0f, 0x19, 0x28, 0x0d, 0x07, 0xfa,
  0x06, 0x00, 0x11, 0x12, 0xe3, 0x15, 0xe5, 0xff, 0xeb, 0x0d, 0x23, 0x1b,
  0xeb, 0xe2, 0xf1, 0x30, 0xfd, 0x0f, 0xe7, 0x11, 0xf6, 0x32, 0xfa, 0x11,
  0xeb, 0x00, 0xec, 0xf3, 0x2c, 0x08, 0xe8, 0x22, 0x09, 0xe1, 0x18, 0x03,
  0xea, 0xea, 0xdd, 0x24, 0xf8, 0xef, 0x09, 0xfe, 0x0f, 0x06, 0xfa, 0x06,
  0x1b, 0xf4, 0xfa, 0xf0, 0xfa, 0xfd, 0xf8, 0xf2, 0xf0, 0xdd, 0x18, 0xdb,
  0xfc, 0x07, 0x28, 0x0a, 0x3b, 0xcb, 0x14, 0xfe, 0x23, 0x09, 0xe0, 0xf6,
  0xfd, 0xfa, 0xfe, 0x15, 0x14, 0xfe, 0x0f, 0xd0, 0x2a, 0x0b, 0x0e, 0x00,
  0x11, 0x13, 0x15, 0xfc, 0xe5, 0xff, 0x04, 0x38, 0x10, 0x10, 0x19, 0xf9,
  0xe8, 0x33, 0x14, 0x04, 0x51, 0xde, 0x2c, 0x12, 0x18, 0xfa, 0xee, 0xf6,
  0x07, 0xe3, 0x2a, 0x02, 0x07, 0x06, 0x0c, 0xd1, 0x1b, 0x29, 0x04, 0xf2,
  0x07, 0xec, 0xfe, 0xef, 0xf1, 0xd6, 0x16, 0xd9, 0x08, 0x0b, 0xe8, 0xf6,
  0x14, 0x0a, 0xfd, 0x0e, 0x0b, 0x19, 0xe4, 0x53, 0xe2, 0xfa, 0x54, 0xee,
  0x15, 0x0a, 0x09, 0xa9, 0xe5, 0xf4, 0x24, 0x13, 0x0b, 0x4a, 0x15, 0x01,
  0xdb, 0xf5, 0xf8, 0xe7, 0x0e, 0x07, 0xe8, 0xe1, 0xe6, 0xee, 0xfc, 0xfa,
  0x03, 0x03, 0xe5, 0xf1, 0x03, 0xf2, 0xff, 0xf8, 0xff, 0xf6, 0x18, 0x22,
  0x10, 0xf7, 0x2b, 0x11, 0x00, 0xf2, 0x1f, 0xe8, 0x03, 0xde, 0x32, 0xe2,
  0xf1, 0xe6, 0xbb, 0x16, 0xf5, 0xf1, 0x2f, 0x06, 0xf5, 0x2e, 0x1b, 0xe1,
  0xea, 0x03, 0xee, 0xf7, 0x30, 0x05, 0xc8, 0x0e, 0x06, 0x02, 0xf7, 0x02,
  0xe8, 0xd4, 0xf7, 0x0b, 0xfe, 0xe7, 0xf5, 0xea, 0x00, 0x21, 0x01, 0xe7,
  0xe6, 0xf3, 0xe7, 0x1f, 0x1b, 0x0c, 0xf0, 0xfa, 0xed, 0xdf, 0x39, 0x24,
  0xe4, 0x3e, 0x00, 0x0d, 0xf7, 0xf2, 0xf7, 0xf5, 0x12, 0xd2, 0xc3, 0x00,
  0xfb, 0x14, 0x27, 0xe8, 0x15, 0x1b, 0x10, 0xdf, 0x13, 0x04, 0xdd, 0x11,
  0xf1, 0x14, 0x0a, 0x12, 0xd0, 0xec, 0x02, 0x03, 0xf7, 0xf7, 0xe7, 0x0b,
  0x09, 0x46, 0x04, 0xdb, 0x1c, 0x00, 0x1e, 0x01, 0x00, 0xe1, 0xdf, 0xfa,
  0x09, 0x00, 0x23, 0xf5, 0x0c, 0x15, 0x28, 0xf8, 0xff, 0x3a, 0xff, 0xed,
  0x02, 0xea, 0x10, 0xd8, 0x13, 0x04, 0xed, 0xe7, 0x10, 0x1c, 0x05, 0xed,
  0x04, 0x1b, 0xf6, 0xfa, 0x00, 0x13, 0x04, 0x04, 0xf0, 0x07, 0xe4, 0x07,
  0xf6, 0x0b, 0xdc, 0x37, 0x25, 0xf8, 0xe4, 0xff, 0x02, 0x16, 0xfd, 0x23,
  0x37, 0x17, 0xfb, 0x04, 0xf8, 0x1b, 0xf5, 0xf4, 0x1d, 0xf6, 0x01, 0x19,
  0xf3, 0xf1, 0x11, 0xd1, 0xee, 0xfa, 0x1f, 0x04, 0x0e, 0x01, 0x05, 0x32,
  0x05, 0xf1, 0x04, 0x12, 0x1a, 0x01, 0xfd, 0xfa, 0x1b, 0x09, 0x1d, 0xf6,
  0x22, 0x0f, 0x12, 0x0a, 0xf2, 0x04, 0x0e, 0xf9, 0x0d, 0x33, 0x10, 0x31,
  0x0f, 0x0a, 0x05, 0xf9, 0x0b, 0xfb, 0x02, 0x00, 0xfd, 0x0a, 0x18, 0x1e,
  0xef, 0x0c, 0x19, 0x10, 0xe9, 0xf3, 0x05, 0x24, 0x20, 0x1b, 0xef, 0x1d,
  0x12, 0x23, 0xf1, 0xd1, 0xf7, 0xfa, 0x0f, 0x09, 0x0b, 0x06, 0xf1, 0x0c,
  0x0e, 0xf1, 0x17, 0xf4, 0x4f, 0x09, 0xf1, 0xf5, 0x1d, 0x11, 0x06, 0xf5,
  0x0a, 0xed, 0xe0, 0xd7, 0xde, 0x18, 0x01, 0xe2, 0xe9, 0x0c, 0xe5, 0x0b,
  0x0e, 0x13, 0x06, 0x1f, 0x0e, 0xfe, 0xf4, 0xcb, 0xf1, 0xe6, 0xf8, 0x03,
  0x0a, 0xe9, 0x0a, 0x06, 0xec, 0x06, 0xf6, 0xe9, 0x11, 0x19, 0xf5, 0x32,
  0x0a, 0xed, 0xd5, 0x11, 0xd7, 0xf0, 0xd6, 0x1b, 0xf0, 0x00, 0xf4, 0x03,
  0x02, 0x21, 0xe3, 0x05, 0xe8, 0xed, 0xb7, 0x20, 0xe9, 0x13, 0xec, 0xf9,
  0x04, 0x0a, 0xf5, 0x06, 0x0d, 0xf9, 0x2b, 0x05, 0x0a, 0xc8, 0xf9, 0xfb,
  0xf5, 0xf7, 0x08, 0xfa, 0xfd, 0x00, 0xda, 0x19, 0xea, 0x18, 0x06, 0xfa,
  0xdc, 0xd8, 0xff, 0x08, 0x06, 0xf0, 0x15, 0xe1, 0xd6, 0x06, 0x03, 0xc9,
  0xf7, 0x02, 0xf7, 0x0b, 0x11, 0xfc, 0xc3, 0x06, 0x0e, 0xea, 0x1c, 0x08,
  0xe3, 0x08, 0x17, 0x16, 0xea, 0x02, 0xdc, 0x0d, 0xf8, 0xc0, 0x07, 0xf4,
  0xfa, 0x17, 0x22, 0x0e, 0x02, 0xfb, 0xf6, 0xea, 0x1a, 0x19, 0xfd, 0x05,
  0xc5, 0xf8, 0x05, 0x1c, 0x11, 0xee, 0xf1, 0x27, 0x18, 0x0f, 0xf3, 0x13,
  0xf1, 0x55, 0xfa, 0xda, 0x2a, 0x01, 0x26, 0x03, 0xf7, 0xe7, 0xff, 0x30,
  0xfe, 0xed, 0x3c, 0x08, 0x26, 0xfb, 0x2f, 0x05, 0xff, 0x00, 0xf3, 0xdc,
  0x10, 0xf1, 0x13, 0xda, 0x2e, 0xed, 0x10, 0xf7, 0x36, 0x0a, 0xef, 0xd7,
  0x12, 0xf4, 0x18, 0x1e, 0xe7, 0x40, 0xec, 0xfa, 0xe8, 0xed, 0x04, 0x07,
  0x13, 0x0f, 0xf9, 0xd6, 0xde, 0x0c, 0x15, 0xed, 0xf8, 0x29, 0x0a, 0x0c,
  0xc3, 0xfc, 0x4c, 0x12, 0xf9, 0xfc, 0x01, 0x04, 0xf5, 0x06, 0xe9, 0x06,
  0xff, 0x0a, 0x0a, 0xf3, 0xee, 0xef, 0xfa, 0xf3, 0x14, 0xce, 0x05, 0xff,
  0xff, 0xf8, 0x18, 0xde, 0x1c, 0xf6, 0xf1, 0x13, 0xfc, 0xe7, 0x02, 0x09,
  0xef, 0x28, 0x03, 0x0a, 0xf8, 0x07, 0xfd, 0x4e, 0xe7, 0xf0, 0x3b, 0xe8,
  0xf1, 0xf3, 0xfc, 0xee, 0xe9, 0xf4, 0x07, 0xee, 0x19, 0x21, 0xe5, 0xa8,
  0x1f, 0x08, 0xea, 0x04, 0xe8, 0xf3, 0xe7, 0xd8, 0xee, 0x31, 0x01, 0xef,
  0xfa, 0x32, 0x15, 0x09, 0xfd, 0x1f, 0xfe, 0x17, 0x0f, 0xf4, 0x18, 0x03,
  0xee, 0xec, 0x18, 0x1e, 0xfa, 0xf0, 0xdf, 0x02, 0x03, 0xd5, 0x0c, 0xf3,
  0xff, 0x17, 0x03, 0x14, 0x19, 0x19, 0xc1, 0xf0, 0x06, 0xdc, 0x0b, 0x0f,
  0xd1, 0xe9, 0x2b, 0xed, 0xdf, 0xda, 0x0f, 0x1b, 0x11, 0x18, 0xee, 0x0a,
  0xf4, 0x02, 0xf4, 0x0d, 0x2a, 0x16, 0xfe, 0x0a, 0xf1, 0xcf, 0x0a, 0x01,
  0x10, 0xd9, 0x14, 0xfa, 0xfd, 0xfe, 0x0e, 0xdb, 0x02, 0xff, 0x02, 0x00,
  0xf7, 0xf8, 0x0b, 0xd2, 0xf8, 0x22, 0xfb, 0xc8, 0x2a, 0x20, 0x04, 0x07,
  0x0d, 0xf8, 0xf7, 0xe1, 0x05, 0xf9, 0x2f, 0xec, 0x05, 0xfc, 0xfb, 0xea,
  0xf0, 0x09, 0x21, 0x38, 0x19, 0x07, 0x1a, 0xf9, 0xd1, 0x28, 0xfa, 0x00,
  0xe2, 0x01, 0x04, 0x26, 0xe8, 0x15, 0x10, 0x00, 0x0c, 0xed, 0x16, 0xfa,
  0xe2, 0xf5, 0xff, 0x00, 0x03, 0xdb, 0xdf, 0xf0, 0xf0, 0x03, 0x18, 0xf7,
  0x08, 0x0b, 0xb0, 0xf4, 0xfc, 0x11, 0xef, 0xfa, 0xdc, 0x14, 0xf8, 0xff,
  0x0b, 0x17, 0x45, 0xfa, 0xf6, 0x04, 0x01, 0xee, 0x19, 0x0d, 0xec, 0x11,
  0xe9, 0xf9, 0x0b, 0x1b, 0x10, 0x02, 0x25, 0xe2, 0x0f, 0xfb, 0xe4, 0x09,
  0x16, 0x37, 0x0f, 0xc2, 0x28, 0xe8, 0xff, 0xf9, 0xe9, 0xf2, 0xd0, 0xfd,
  0x15, 0xe5, 0x1f, 0x07, 0xf9, 0x0a, 0xf2, 0x17, 0xfe, 0x4d, 0xf4, 0xe8,
  0xf0, 0xcd, 0xcd, 0xf0, 0x00, 0xf2, 0xef, 0xf0, 0x0a, 0xec, 0xfd, 0xdf,
  0xe1, 0xf8, 0x04, 0xee, 0x10, 0xdf, 0x7f, 0xcf, 0x12, 0xf3, 0xf8, 0xe3,
  0xed, 0xfc, 0xed, 0xfc, 0x26, 0xfc, 0xdc, 0xda, 0x05, 0xfe, 0xdd, 0xf0,
  0x1b, 0x12, 0x04, 0x13, 0x08, 0xdd, 0x17, 0x10, 0x04, 0x15, 0xee, 0xf6,
  0x02, 0x2c, 0xf1, 0x09, 0xfb, 0x0f, 0x09, 0x09, 0x20, 0x17, 0x00, 0x09,
  0xff, 0x00, 0xed, 0xf5, 0xd5, 0x05, 0xd3, 0x0a, 0xe2, 0x00, 0xe6, 0x18,
  0x13, 0xf3, 0xf6, 0x13, 0xfd, 0xfd, 0x19, 0xdf, 0x0b, 0x26, 0x0b, 0xf7,
  0x01, 0x25, 0x24, 0x32, 0x22, 0x1b, 0xe3, 0x10, 0x08, 0xec, 0xf5, 0xf5,
  0x22, 0x0d, 0xf4, 0xfb, 0x09, 0xc7, 0xeb, 0xf4, 0xec, 0x17, 0x00, 0x00,
  0xf7, 0x01, 0xfe, 0x05, 0x0a, 0xfe, 0xfc, 0x1c, 0xe3, 0x0b, 0x02, 0xd9,
  0xec, 0x05, 0xff, 0xed, 0x10, 0x04, 0xf1, 0x21, 0x13, 0x11, 0xed, 0x06,
  0x41, 0x1e, 0x11, 0xec, 0x02, 0x0e, 0x02, 0x2b, 0xea, 0xeb, 0xf5, 0xfd,
  0x1d, 0xf7, 0x0a, 0x10, 0xe1, 0x17, 0x41, 0xe0, 0x19, 0xee, 0x0d, 0xe4,
  0x15, 0x0c, 0x3f, 0x24, 0xdd, 0xe0, 0xd6, 0xfb, 0x0c, 0x0f, 0xf3, 0x20,
  0xef, 0x1d, 0xe6, 0xe8, 0xf2, 0x03, 0x19, 0x1d, 0xdc, 0x22, 0x1f, 0xef,
  0xf5, 0xff, 0xff, 0x25, 0xe0, 0x11, 0xe8, 0x24, 0xe5, 0x0f, 0x37, 0x1b,
  0x1b, 0x02, 0xf9, 0xe8, 0xeb, 0xfb, 0xfe, 0x00, 0xfa, 0x04, 0x0e, 0xfd,
  0x3d, 0x1d, 0x25, 0x03, 0xf6, 0xff, 0x12, 0xf3, 0xea, 0xd6, 0xe3, 0xdb,
  0x3c, 0xf6, 0x3d, 0xf6, 0xf3, 0x05, 0x0b, 0xec, 0xee, 0xf6, 0xf9, 0x10,
  0xd4, 0x17, 0xfe, 0xfb, 0xd8, 0xe8, 0x04, 0x08, 0x2d, 0x0c, 0xf2, 0x03,
  0x12, 0x02, 0xf7, 0x1b, 0x00, 0xf5, 0xfa, 0x25, 0x01, 0xf5, 0x09, 0x52,
  0x08, 0x04, 0xf7, 0xe9, 0xf8, 0xf9, 0x0e, 0x02, 0x05, 0x0e, 0x32, 0x09,
  0xfb, 0x2d, 0x19, 0x1e, 0xf6, 0xe8, 0x37, 0x01, 0x05, 0xff, 0xde, 0xf0,
  0x0c, 0x03, 0x08, 0xce, 0x11, 0x1e, 0xfe, 0xda, 0xfb, 0x19, 0xf1, 0x06,
  0xed, 0xef, 0x06, 0xeb, 0x02, 0xfb, 0xf1, 0xed, 0x2c, 0xff, 0x18, 0x29,
  0x0d, 0x15, 0x0f, 0x19, 0x01, 0xeb, 0x0b, 0xd6, 0xf8, 0xdb, 0x10, 0x01,
  0xff, 0x12, 0xf2, 0xf4, 0x27, 0xf7, 0x02, 0x35, 0x0d, 0xe2, 0x30, 0x0d,
  0xdd, 0x1a, 0x08, 0xff, 0xfe, 0xf5, 0x14, 0x36, 0x27, 0x02, 0x20, 0xf8,
  0xfb, 0x0e, 0x1b, 0xd6, 0x08, 0x06, 0xf0, 0xfb, 0xef, 0xd8, 0x04, 0xe6,
  0x04, 0x03, 0x20, 0xf2, 0x0f, 0x00, 0xdc, 0xc7, 0x04, 0x15, 0x13, 0xf5,
  0xeb, 0x01, 0x18, 0xf2, 0xfb, 0xe5, 0x29, 0xc9, 0x0f, 0xd7, 0x14, 0xec,
  0x05, 0x14, 0xf0, 0xed, 0x12, 0x4c, 0xf5, 0xfd, 0x09, 0x20, 0x0b, 0x14,
  0x02, 0xf7, 0xdc, 0x07, 0x29, 0x18, 0xd7, 0x08, 0xfd, 0x07, 0xee, 0x0f,
  0xdf, 0x32, 0x0a, 0xee, 0x27, 0xef, 0x02, 0xf9, 0x0e, 0xf0, 0xff, 0x1e,
  0x12, 0xf0, 0x0b, 0x03, 0x03, 0x2f, 0x14, 0x06, 0xfc, 0x12, 0xec, 0xf7,
  0xf0, 0x0a, 0x25, 0xf9, 0x25, 0x0e, 0xf5, 0x08, 0x0e, 0x24, 0x1d, 0x0b,
  0xf6, 0xea, 0x0f, 0x13, 0xe4, 0x09, 0x04, 0xd5, 0x00, 0x0e, 0x0f, 0x1d,
  0xf0, 0xe0, 0x0f, 0xd3, 0xeb, 0xf0, 0xfe, 0xf6, 0xe4, 0xe4, 0x04, 0x16,
  0x10, 0xf1, 0x0a, 0x17, 0xf4, 0x11, 0xf3, 0x19, 0xf7, 0x05, 0xd8, 0x18,
  0xd2, 0xf5, 0x06, 0xaa, 0x03, 0xdd, 0xfa, 0xfd, 0x0c, 0x00, 0xe0, 0x20,
  0x1a, 0xdc, 0xe3, 0xec, 0xfa, 0x23, 0x0a, 0x1c, 0x14, 0xef, 0xe1, 0x0f,
  0xee, 0xe3, 0x02, 0x22, 0xea, 0x10, 0xf9, 0x00, 0xfc, 0x06, 0x07, 0xff,
  0x10, 0x04, 0x00, 0xbe, 0x05, 0x0c, 0xf8, 0x01, 0xf2, 0xf5, 0xf4, 0xf6,
  0xeb, 0xf5, 0xf3, 0x21, 0x0c, 0x29, 0x1a, 0xf8, 0x02, 0x08, 0x05, 0x03,
  0xe5, 0x0f, 0xf4, 0xe6, 0xf7, 0xde, 0xfd, 0x05, 0xe8, 0xf0, 0x0c, 0x44,
  0xf4, 0xf8, 0xf4, 0x06, 0xf3, 0x1d, 0xe1, 0x07, 0xf4, 0x11, 0x22, 0x09,
  0xdc, 0xca, 0x09, 0xf7, 0x0d, 0x98, 0x26, 0xf5, 0x0b, 0x04, 0xe4, 0xe6,
  0xe3, 0xe2, 0xca, 0x08, 0xef, 0x0c, 0xfc, 0xfb, 0x21, 0x03, 0xe4, 0x01,
  0xda, 0x0b, 0xe3, 0xfd, 0xe2, 0xf5, 0x1a, 0x2b, 0x02, 0xf1, 0x1d, 0xf4,
  0xe7, 0x0d, 0x0a, 0x12, 0x0b, 0x08, 0x0c, 0x02, 0x14, 0x10, 0x04, 0xdc,
  0x01, 0xf5, 0xe3, 0xbe, 0x03, 0xb8, 0xf7, 0x03, 0x0f, 0xfc, 0xc4, 0xf6,
  0x07, 0x0b, 0x03, 0x0f, 0x01, 0x25, 0x0b, 0x27, 0x08, 0xf1, 0x2e, 0x00,
  0xdd, 0x0b, 0x1c, 0x06, 0xde, 0x01, 0x16, 0x08, 0xf8, 0xe5, 0x1a, 0xfc,
  0x0e, 0xf2, 0xfa, 0x1b, 0xe9, 0xfe, 0x1e, 0xfe, 0xe3, 0x14, 0xe3, 0xf8,
  0xe9, 0xfe, 0x03, 0xeb, 0x06, 0x0e, 0xe6, 0xf1, 0x04, 0xfb, 0x05, 0xfa,
  0xf9, 0xed, 0x11, 0x0b, 0xeb, 0x19, 0xdf, 0xd3, 0xdb, 0xdf, 0x26, 0xf3,
  0x08, 0x0c, 0x03, 0xde, 0x68, 0xf3, 0xdd, 0x08, 0xe7, 0xf7, 0x00, 0xef,
  0xd0, 0x0e, 0x0f, 0x48, 0xf6, 0x0d, 0xff, 0x0a, 0x31, 0x1a, 0x1a, 0x1f,
  0xe6, 0xfc, 0xe1, 0xe4, 0x1d, 0x10, 0x0c, 0xf6, 0x07, 0x06, 0x11, 0xe6,
  0xe2, 0xf0, 0x0e, 0x1c, 0x2f, 0x16, 0xf0, 0xd7, 0xe3, 0xf4, 0x10, 0xdc,
  0xff, 0x11, 0x01, 0xf6, 0xf5, 0xe5, 0x12, 0xe9, 0xf3, 0x11, 0xf8, 0xfb,
  0x01, 0xf3, 0xe9, 0xfb, 0x02, 0xeb, 0x17, 0xe8, 0x05, 0xe2, 0xe8, 0xf0,
  0x01, 0x07, 0xf6, 0xfb, 0x07, 0xe9, 0xf3, 0xc5, 0x06, 0xc1, 0xd1, 0x0b,
  0x30, 0x0c, 0xff, 0xfd, 0xf9, 0x06, 0x06, 0x14, 0x08, 0x07, 0xff, 0x24,
  0x1b, 0x0c, 0x01, 0xfd, 0xe8, 0x18, 0x0b, 0x19, 0x14, 0x0b, 0xfe, 0x0b,
  0x04, 0x15, 0xcd, 0xfb, 0x05, 0x1a, 0xd8, 0x3e, 0xf8, 0xf4, 0xfa, 0x2a,
  0xf4, 0x2c, 0xfc, 0xee, 0x09, 0xe7, 0x14, 0x01, 0x04, 0xf9, 0x25, 0xfd,
  0x0c, 0x1e, 0x28, 0xf3, 0x00, 0x07, 0x15, 0x02, 0x00, 0x00, 0xf4, 0xe5,
  0xf2, 0x13, 0x18, 0xe8, 0xec, 0xf7, 0xfb, 0xf8, 0x00, 0xe6, 0xfc, 0xfe,
  0x16, 0x24, 0x37, 0x28, 0x07, 0x08, 0x1f, 0x14, 0x1c, 0x18, 0xe7, 0xed,
  0x03, 0x21, 0x24, 0x24, 0x0d, 0xfa, 0xf3, 0xd3, 0x13, 0x09, 0xfc, 0xe5,
  0xe5, 0xf1, 0x11, 0xce, 0x4e, 0xdc, 0x10, 0xfc, 0x0c, 0x11, 0xdd, 0xf5,
  0xe5, 0xeb, 0xf3, 0x13, 0xfd, 0x0b, 0xf0, 0x07, 0x28, 0x28, 0x02, 0xf2,
  0xe9, 0x31, 0xd6, 0xd8, 0xff, 0xda, 0x11, 0x0d, 0x12, 0xfb, 0x2e, 0x03,
  0x02, 0xe8, 0xf9, 0x18, 0x25, 0x16, 0x1a, 0xff, 0xe8, 0x26, 0xfd, 0x05,
  0xe6, 0xfa, 0xeb, 0x1b, 0xef, 0xd6, 0x0c, 0xee, 0xf9, 0xce, 0xfb, 0xc5,
  0xfc, 0x2e, 0xe6, 0x11, 0x04, 0xf9, 0x18, 0xe7, 0x0d, 0xbe, 0x15, 0xfd,
  0xcb, 0x08, 0x12, 0xfe, 0x19, 0x0a, 0xfa, 0x19, 0x06, 0x01, 0xf0, 0x2f,
  0xf7, 0x23, 0xf9, 0xf9, 0xe8, 0xf9, 0x02, 0xfd, 0xeb, 0x00, 0x0a, 0x2d,
  0x16, 0x05, 0x08, 0xeb, 0x0b, 0x04, 0x07, 0x06, 0xfe, 0x08, 0xf3, 0xe9,
  0xf3, 0x0e, 0xf3, 0xf8, 0x1a, 0xf0, 0x03, 0xe4, 0x09, 0xfc, 0xea, 0xcf,
  0x06, 0x17, 0xfa, 0xe1, 0x10, 0xf5, 0x1d, 0x05, 0x1a, 0xe4, 0x01, 0x01,
  0x22, 0x0f, 0x1f, 0x07, 0x03, 0x08, 0x35, 0x1a, 0xf7, 0x23, 0x08, 0xea,
  0xe1, 0x1b, 0x0e, 0xca, 0x18, 0xee, 0x06, 0xf9, 0xf3, 0x12, 0xfb, 0xfe,
  0x07, 0x12, 0x2f, 0x0e, 0xe7, 0xfd, 0xf7, 0xf4, 0x06, 0x0b, 0x11, 0x18,
  0xf2, 0xf4, 0xf2, 0x08, 0xd3, 0x29, 0xdf, 0x05, 0xe5, 0x1e, 0x29, 0xdd,
  0xe7, 0x11, 0xff, 0xe7, 0x17, 0xf0, 0xff, 0x2d, 0xed, 0xeb, 0x32, 0xff,
  0xfc, 0x24, 0x1f, 0x12, 0x00, 0x22, 0x20, 0x1c, 0x17, 0x3b, 0x13, 0xde,
  0xff, 0x11, 0xf0, 0x0c, 0x0c, 0xd8, 0xf7, 0xeb, 0xe1, 0xef, 0x16, 0xf8,
  0x1a, 0x06, 0x22, 0xfb, 0x03, 0x01, 0x17, 0xeb, 0x03, 0x05, 0x11, 0xf7,
  0xf3, 0x06, 0x14, 0x1e, 0xfe, 0x00, 0x0e, 0xf7, 0x06, 0xf4, 0x0a, 0xd3,
  0xf0, 0x38, 0xfa, 0xd2, 0x09, 0xe8, 0x19, 0x3b, 0xfc, 0xd4, 0x1d, 0xfe,
  0x0d, 0x08, 0x0e, 0x1f, 0x25, 0x0b, 0xf5, 0xec, 0x14, 0x0f, 0xec, 0xdc,
  0x09, 0x18, 0x05, 0xfb, 0xe4, 0x01, 0x08, 0x00, 0x1b, 0x02, 0xf4, 0x00,
  0xed, 0x03, 0x2a, 0x04, 0xee, 0x01, 0x0d, 0xf9, 0xfb, 0x0f, 0x04, 0x0a,
  0xea, 0xf9, 0xff, 0x16, 0xda, 0xf6, 0x0e, 0xea, 0xe1, 0xf4, 0xeb, 0xf7,
  0x01, 0x17, 0x07, 0xec, 0xea, 0xe0, 0xff, 0xe8, 0x25, 0xfa, 0xe3, 0xf5,
  0x04, 0xfb, 0x17, 0x17, 0xe3, 0xfe, 0x1d, 0xcd, 0xf2, 0xc9, 0x0b, 0x0a,
  0x51, 0x27, 0x06, 0xd7, 0x12, 0x0d, 0xdd, 0x0e, 0x0d, 0x04, 0xe3, 0xf7,
  0x1c, 0x02, 0x22, 0xfd, 0xc5, 0xf4, 0x1f, 0x14, 0x44, 0x0c, 0x0d, 0xf2,
  0x3c, 0xf9, 0x01, 0x0b, 0xef, 0x07, 0x11, 0x2f, 0x09, 0x17, 0x03, 0x26,
  0xec, 0x17, 0xeb, 0x0b, 0x0e, 0x1d, 0x01, 0xf3, 0xfc, 0x33, 0xff, 0x0b,
  0xfc, 0xf3, 0xe7, 0x1f, 0xeb, 0x02, 0xfb, 0x32, 0x0d, 0x49, 0x1f, 0x10,
  0xdb, 0x01, 0xf4, 0x25, 0x0a, 0xe9, 0xfc, 0x1a, 0xfe, 0x0c, 0x18, 0x0e,
  0x1a, 0xe3, 0x03, 0x0e, 0x14, 0xf8, 0x02, 0x05, 0xf9, 0xe4, 0xfa, 0x2a,
  0xee, 0x11, 0x0d, 0xf1, 0x14, 0x17, 0x17, 0xe7, 0x13, 0x09, 0x0e, 0xec,
  0xfc, 0xf7, 0xf1, 0x09, 0xe2, 0xd6, 0xe9, 0xf7, 0xfd, 0x2b, 0xe3, 0xdc,
  0x00, 0x00, 0x04, 0xf7, 0x2e, 0x16, 0xe3, 0xfe, 0x0b, 0xde, 0x04, 0xf0,
  0xef, 0xe7, 0x11, 0x08, 0xee, 0xc5, 0x04, 0x29, 0xfb, 0x2f, 0x0b, 0x19,
  0x25, 0xe2, 0x0d, 0x3b, 0xf1, 0x1a, 0xd5, 0x12, 0xe6, 0xe9, 0xec, 0xed,
  0xff, 0x4c, 0xe0, 0x0b, 0xfa, 0xff, 0x06, 0x21, 0xe2, 0xf7, 0x04, 0x14,
  0xf3, 0xf9, 0x22, 0x15, 0xf2, 0x21, 0xcc, 0x13, 0x15, 0x25, 0x05, 0x25,
  0xed, 0x03, 0xe2, 0x15, 0xe1, 0x14, 0x3f, 0x1d, 0xee, 0x17, 0x06, 0xef,
  0xe4, 0x0a, 0x32, 0x20, 0x01, 0xe7, 0x07, 0x0b, 0x0d, 0x07, 0xf0, 0x18,
  0xfe, 0x0e, 0x05, 0xf8, 0x12, 0xfc, 0x07, 0xe1, 0xfc, 0x00, 0x0b, 0x37,
  0x09, 0xee, 0x24, 0x05, 0x34, 0x00, 0xf2, 0x01, 0x13, 0x16, 0x06, 0xfc,
  0xf8, 0x12, 0x2d, 0xea, 0xff, 0xf8, 0xee, 0x20, 0xfb, 0xf6, 0x17, 0x04,
  0x2e, 0x00, 0x00, 0x0b, 0xc9, 0xee, 0x3d, 0xf5, 0x02, 0xfd, 0x0d, 0xf3,
  0xf1, 0xe3, 0x03, 0xe4, 0xfe, 0x2e, 0xf1, 0x06, 0xfe, 0xec, 0xf9, 0x13,
  0xe2, 0xf2, 0xd6, 0xe9, 0xf0, 0x03, 0x0f, 0xfa, 0x0c, 0x02, 0xfb, 0xe6,
  0x10, 0xea, 0x2f, 0xe3, 0xec, 0xfc, 0xf4, 0xf6, 0x02, 0x2a, 0x22, 0x05,
  0xd8, 0xe8, 0xe3, 0x1e, 0x12, 0x17, 0xe5, 0x08, 0xdd, 0x24, 0xfc, 0xfb,
  0xd7, 0xe1, 0xd1, 0xfe, 0xf3, 0x12, 0xfd, 0x0d, 0x0b, 0x09, 0xfd, 0x0a,
  0xe4, 0xeb, 0xda, 0x26, 0x06, 0xe3, 0xe8, 0x1b, 0x0f, 0x04, 0x1c, 0xf9,
  0x28, 0x06, 0xf9, 0x01, 0x0f, 0xfc, 0x08, 0x16, 0x0e, 0xeb, 0xf8, 0x1d,
  0x23, 0x0e, 0x1c, 0xde, 0x12, 0x04, 0x0f, 0xfc, 0xfe, 0x0c, 0xe4, 0xef,
  0x16, 0xf0, 0x00, 0xfe, 0xf5, 0xf7, 0x24, 0xdb, 0x22, 0xf7, 0xec, 0x0d,
  0x20, 0x14, 0xe1, 0xf2, 0xed, 0xee, 0x18, 0x02, 0x0f, 0xfd, 0xe1, 0x0f,
  0x12, 0x3a, 0x2b, 0x03, 0x26, 0x0d, 0x07, 0x07, 0x06, 0xfd, 0xe5, 0xf8,
  0xe8, 0xf4, 0x09, 0xe0, 0xd6, 0x09, 0x13, 0xfe, 0x48, 0x1e, 0xed, 0x07,
  0x4f, 0xfb, 0xe1, 0xf0, 0x08, 0xee, 0x18, 0x02, 0x03, 0x1d, 0xe9, 0xfc,
  0x17, 0xf0, 0x07, 0x01, 0x0f, 0x0f, 0xdd, 0xf5, 0x02, 0x27, 0x16, 0x05,
  0x00, 0x15, 0xf3, 0xfa, 0xed, 0xdd, 0xf8, 0xfd, 0xfb, 0xe2, 0xd4, 0x1a,
  0x3e, 0x25, 0x0e, 0xf9, 0xf4, 0xf6, 0x01, 0x1a, 0xe2, 0xff, 0xf0, 0x15,
  0x04, 0x0e, 0xef, 0xe8, 0xe7, 0xe8, 0x2a, 0x15, 0x28, 0x26, 0xd1, 0x11,
  0x27, 0xef, 0xd1, 0x03, 0x24, 0xfe, 0xc9, 0xf8, 0x0b, 0xf8, 0xf0, 0x2b,
  0x0e, 0x04, 0xfe, 0x07, 0xfd, 0xfc, 0xf3, 0xf3, 0x19, 0xef, 0x25, 0xe4,
  0xfa, 0x34, 0x4d, 0x43, 0xd1, 0x0a, 0x12, 0x06, 0x05, 0xc3, 0x13, 0x04,
  0x19, 0x04, 0xf7, 0xf7, 0x05, 0xd7, 0x07, 0xc4, 0xe6, 0xf7, 0xea, 0xf1,
  0xe6, 0xfa, 0x08, 0x17, 0xfb, 0x14, 0xfd, 0xf7, 0xdf, 0x07, 0x29, 0xd0,
  0xee, 0x10, 0x08, 0x1e, 0xf1, 0xf8, 0xf8, 0x08, 0xf4, 0xf8, 0xfc, 0x0c,
  0xed, 0x01, 0x09, 0xe0, 0x03, 0x06, 0xcf, 0x17, 0xfe, 0xdf, 0x10, 0x08,
  0x08, 0x17, 0x2a, 0x25, 0xf3, 0x07, 0xfd, 0x0c, 0x05, 0x30, 0x05, 0xe1,
  0xe9, 0xef, 0x1c, 0xf6, 0xf9, 0xc6, 0x02, 0xfc, 0xff, 0xfb, 0xe6, 0x1d,
  0x1f, 0x0b, 0x11, 0xef, 0x06, 0x22, 0x06, 0x0d, 0xfe, 0xf3, 0xf0, 0xe5,
  0xe7, 0x01, 0x2c, 0x14, 0xf7, 0xe5, 0xfe, 0x02, 0x1c, 0xe8, 0xf9, 0xcc,
  0x00, 0x14, 0x0f, 0x04, 0xfe, 0x09, 0xee, 0x06, 0xeb, 0xf9, 0x13, 0x27,
  0x0d, 0x26, 0x32, 0x11, 0x1b, 0x1c, 0xee, 0x1b, 0xdd, 0x0f, 0x09, 0xff,
  0xda, 0xee, 0xcb, 0x1f, 0x02, 0xff, 0xd1, 0xf6, 0xfe, 0xe2, 0x13, 0x05,
  0x15, 0x06, 0x16, 0xe7, 0xfc, 0xfb, 0x1e, 0x0f, 0xe8, 0x04, 0x0e, 0x12,
  0xf5, 0x08, 0x52, 0x05, 0x30, 0x19, 0x2a, 0xdb, 0x43, 0xf8, 0x10, 0xf1,
  0x11, 0x2a, 0xf6, 0xe2, 0xd5, 0x09, 0x1d, 0x28, 0xf0, 0x0b, 0xf7, 0x15,
  0x14, 0xf9, 0x00, 0x1e, 0x31, 0x1a, 0xef, 0xdd, 0xfb, 0xfc, 0xe6, 0x0b,
  0x07, 0x07, 0x04, 0xf9, 0xf5, 0xe8, 0xeb, 0x03, 0x09, 0xf3, 0xf7, 0x25,
  0x4a, 0x0e, 0xe9, 0xf2, 0xf1, 0x08, 0x10, 0x2a, 0xfd, 0x04, 0xf3, 0xdd,
  0x22, 0x0d, 0xfd, 0x0e, 0x15, 0x13, 0xd6, 0x15, 0xef, 0xf6, 0x29, 0xf2,
  0xe5, 0x2c, 0xd3, 0x0f, 0x04, 0xf2, 0x0c, 0xe3, 0xdb, 0xe3, 0xf9, 0xf0,
  0xe6, 0xdb, 0xf4, 0xef, 0x22, 0x0b, 0xfc, 0xe0, 0x02, 0xdf, 0xe6, 0xe4,
  0x26, 0xdc, 0xde, 0xfc, 0xe0, 0x0b, 0xe5, 0xfa, 0xde, 0x31, 0x02, 0xe8,
  0x08, 0x16, 0xdc, 0x3e, 0xf5, 0x2d, 0x05, 0x43, 0xf8, 0x03, 0xf8, 0x11,
  0xfd, 0x17, 0xea, 0x04, 0xeb, 0x25, 0xd9, 0x05, 0xf7, 0xef, 0xf8, 0x22,
  0xf1, 0x06, 0xe0, 0x37, 0xfc, 0xf6, 0xff, 0x23, 0xef, 0x16, 0x0b, 0x03,
  0x26, 0x0f, 0xf3, 0xd9, 0x08, 0x22, 0x0e, 0x11, 0xef, 0xf1, 0x0f, 0xdc,
  0x08, 0x0e, 0x04, 0x0a, 0xe5, 0xdf, 0x07, 0x08, 0xf3, 0xf9, 0x04, 0xe1,
  0x27, 0x0b, 0xd8, 0x3c, 0xf3, 0x1a, 0xf4, 0x3b, 0x01, 0x11, 0x16, 0xe6,
  0x22, 0x2e, 0xff, 0x08, 0x1c, 0xf4, 0xef, 0x27, 0x02, 0x10, 0xfc, 0x18,
  0x05, 0x0f, 0xe5, 0x1a, 0x27, 0x00, 0xd8, 0x24, 0x15, 0x09, 0x06, 0xf6,
  0xdd, 0x0a, 0xe8, 0xf5, 0xf8, 0x01, 0xf3, 0xf7, 0x0c, 0x27, 0x29, 0x14,
  0xf5, 0xde, 0xe7, 0xf3, 0xf4, 0x0a, 0x0a, 0x02, 0xf8, 0x01, 0x11, 0xee,
  0xf4, 0xff, 0xe9, 0x07, 0x1b, 0xe4, 0xc0, 0x03, 0xdd, 0xd6, 0x27, 0x14,
  0xe0, 0x0e, 0x21, 0x22, 0x11, 0xcf, 0xd6, 0xe0, 0xf5, 0xda, 0x18, 0xeb,
  0x20, 0x29, 0xd8, 0xea, 0xfd, 0xed, 0xf0, 0x16, 0x17, 0x04, 0x10, 0xf2,
  0x19, 0x01, 0xf9, 0x39, 0x28, 0xf3, 0x0b, 0xf3, 0x0b, 0x0b, 0x1a, 0xea,
  0xf6, 0x0e, 0xea, 0xf0, 0xee, 0x0f, 0x07, 0x09, 0x01, 0x23, 0x06, 0x03,
  0x13, 0x0a, 0x24, 0x5c, 0xf2, 0x00, 0x00, 0x07, 0xe6, 0x01, 0x10, 0xf0,
  0xf0, 0x3c, 0x09, 0x0b, 0x28, 0xdc, 0xfa, 0xef, 0x07, 0xf4, 0x0a, 0x1e,
  0x10, 0xd4, 0x06, 0x19, 0xe9, 0x17, 0x1d, 0xf0, 0xf0, 0x04, 0xf0, 0x04,
  0x2b, 0xf1, 0x0f, 0x00, 0xfe, 0x0b, 0xe5, 0x0f, 0xf7, 0x03, 0x17, 0xf1,
  0xf1, 0x00, 0xf9, 0x10, 0xde, 0xf6, 0xcd, 0x0c, 0xda, 0xf0, 0xf0, 0xf5,
  0x09, 0x28, 0xfd, 0xeb, 0x09, 0xd9, 0xea, 0x19, 0x02, 0x03, 0x05, 0x05,
  0xe3, 0x06, 0x1d, 0x18, 0xf5, 0x0c, 0xd7, 0xf8, 0x06, 0xcd, 0x22, 0x09,
  0x28, 0x01, 0x00, 0x15, 0xfa, 0x08, 0xf8, 0x08, 0x00, 0x0e, 0x00, 0x02,
  0x18, 0xf2, 0xc7, 0xd5, 0x16, 0xe8, 0xfa, 0xf2, 0xc7, 0xfe, 0xdf, 0x0c,
  0x13, 0xfd, 0x00, 0x0b, 0x06, 0x4e, 0xf0, 0xef, 0x16, 0xe1, 0x15, 0x18,
  0xdb, 0x02, 0xf4, 0x10, 0xeb, 0xe6, 0x09, 0x11, 0x04, 0x0a, 0x0a, 0x22,
  0x1e, 0x17, 0x0c, 0x09, 0x0d, 0x2d, 0x0e, 0xfe, 0x16, 0xf1, 0x1b, 0x01,
  0xfe, 0x0d, 0xf2, 0xde, 0x08, 0xf9, 0xfd, 0xfd, 0x1b, 0xf4, 0x04, 0x02,
  0xf6, 0xf5, 0x12, 0x21, 0xfb, 0x03, 0xff, 0x08, 0x0d, 0xf5, 0x15, 0xfe,
  0x1e, 0x0d, 0x13, 0xe8, 0x1a, 0xdb, 0x15, 0x00, 0x0b, 0x07, 0x04, 0xfa,
  0x26, 0x06, 0x15, 0xf3, 0x10, 0x24, 0x11, 0xea, 0x05, 0x01, 0xfd, 0xab,
  0xe8, 0xfd, 0xfe, 0xe9, 0xfe, 0xbc, 0x15, 0x09, 0x0b, 0x12, 0xf6, 0x18,
  0xf7, 0x0e, 0x04, 0x19, 0xff, 0x0f, 0x31, 0xfc, 0xf5, 0x0e, 0x0f, 0x17,
  0xf4, 0xef, 0xe9, 0x07, 0x11, 0xfc, 0x08, 0xf1, 0xe0, 0xf1, 0xf9, 0x01,
  0x2a, 0x00, 0x0f, 0x02, 0x19, 0xf6, 0x1e, 0xfd, 0xec, 0x03, 0xba, 0x06,
  0x19, 0x02, 0xf9, 0xf2, 0xea, 0xff, 0xed, 0x11, 0x00, 0xfe, 0xea, 0xfa,
  0x2a, 0x0a, 0xf1, 0xf9, 0x2a, 0x02, 0xf7, 0x31, 0x10, 0x18, 0xf2, 0x19,
  0xe1, 0x19, 0xdb, 0xf6, 0xff, 0xc6, 0x44, 0xe9, 0xf8, 0xfb, 0xe9, 0x08,
  0x08, 0xde, 0xe0, 0x04, 0x7d, 0x0c, 0xd1, 0x0a, 0x12, 0x02, 0xe5, 0x0b,
  0x18, 0xfa, 0x06, 0x0c, 0xf5, 0x12, 0xf2, 0xf5, 0x23, 0xee, 0xff, 0xf0,
  0xfd, 0x0c, 0xd4, 0x3a, 0xe8, 0x10, 0x04, 0xf8, 0xe1, 0xef, 0x2a, 0x11,
  0xfb, 0x33, 0xd2, 0x04, 0xff, 0xe6, 0x04, 0x0f, 0x06, 0x0a, 0xc9, 0x05,
  0xe2, 0x16, 0x30, 0x24, 0x0d, 0xef, 0xc8, 0xf0, 0x0e, 0x1b, 0x13, 0x00,
  0xc8, 0x16, 0x1b, 0xe5, 0xef, 0x0a, 0x17, 0x01, 0xf5, 0xeb, 0xf8, 0x16,
  0x04, 0xfe, 0xe9, 0x0e, 0x2a, 0xee, 0x0f, 0xed, 0xdd, 0x02, 0x10, 0x0a,
  0x0c, 0xe0, 0x42, 0x17, 0x29, 0xf0, 0x1b, 0x07, 0x17, 0xec, 0x0e, 0x11,
  0x1f, 0x05, 0x31, 0xdb, 0xfa, 0xfe, 0x23, 0xe7, 0xec, 0x22, 0xf7, 0xe6,
  0x09, 0x1f, 0xff, 0xfa, 0x15, 0x1f, 0x15, 0xcf, 0xf7, 0x2d, 0xe3, 0x1a,
  0xfa, 0x16, 0x00, 0x1a, 0xfa, 0xfc, 0x06, 0xfa, 0xdb, 0xf9, 0xf1, 0x21,
  0x11, 0xf4, 0xf0, 0xed, 0x1d, 0x07, 0xeb, 0xfd, 0x17, 0xe5, 0x05, 0x1d,
  0xf4, 0xf3, 0xf7, 0xf2, 0x00, 0x0a, 0x1d, 0x19, 0x18, 0x27, 0xd8, 0xf3,
  0x0d, 0x04, 0xe2, 0x09, 0x15, 0x0c, 0x0a, 0x14, 0x28, 0x68, 0x0d, 0x04,
  0xf7, 0xf6, 0xe5, 0x09, 0xdf, 0xf7, 0xff, 0x1a, 0xe5, 0xfe, 0xfe, 0xe1,
  0x21, 0xea, 0xf8, 0xec, 0x29, 0x1c, 0xc5, 0xf3, 0x02, 0x08, 0x01, 0xea,
  0x0b, 0xe9, 0xee, 0x1a, 0xde, 0xfa, 0xf6, 0x0e, 0x08, 0x1e, 0x09, 0xfb,
  0xed, 0x0a, 0xe4, 0x24, 0xeb, 0x22, 0xd6, 0x22, 0xd5, 0xde, 0x0f, 0x20,
  0xc2, 0x37, 0x13, 0x10, 0xf8, 0xf9, 0x02, 0xf9, 0xeb, 0xe1, 0xfe, 0xee,
  0xf9, 0xfc, 0xfa, 0x06, 0xfe, 0x16, 0xd6, 0x08, 0xf3, 0xeb, 0xff, 0x04,
  0xe1, 0x27, 0x3f, 0x0e, 0xf6, 0x04, 0xf2, 0x22, 0xf9, 0x5c, 0x01, 0x04,
  0xcb, 0x04, 0xe0, 0xed, 0xe6, 0x15, 0xec, 0xfb, 0x0b, 0xeb, 0x15, 0xe8,
  0xf8, 0x10, 0xf7, 0x09, 0x1f, 0x2e, 0xdf, 0xdb, 0xe9, 0xf9, 0x08, 0xf8,
  0xeb, 0x08, 0x25, 0x15, 0x18, 0x0c, 0x0e, 0xd9, 0x26, 0xe8, 0x06, 0xc6,
  0xe4, 0xe9, 0xee, 0x01, 0x1b, 0xf9, 0xee, 0x09, 0xec, 0x06, 0xfe, 0xf9,
  0xc9, 0xeb, 0x02, 0xe3, 0x0f, 0x2f, 0xdd, 0xef, 0xf6, 0x0c, 0x13, 0x11,
  0xea, 0xd0, 0x18, 0x17, 0xf9, 0xce, 0xf6, 0x06, 0x19, 0x18, 0x01, 0xea,
  0x22, 0xfe, 0xd2, 0x16, 0x23, 0xf2, 0xe3, 0x02, 0xb0, 0xcc, 0x07, 0xfd,
  0xd4, 0x07, 0x06, 0x04, 0xff, 0xfa, 0xfa, 0x0f, 0xff, 0xef, 0x04, 0xeb,
  0xf2, 0x0b, 0xe6, 0xe1, 0x09, 0xf0, 0x2d, 0x1c, 0x20, 0xf5, 0xf0, 0xe8,
  0xff, 0xff, 0x08, 0x1f, 0x04, 0xf2, 0xed, 0xe4, 0x32, 0xfc, 0xeb, 0xec,
  0x0b, 0xfe, 0xde, 0xf9, 0x03, 0xe8, 0x1e, 0xec, 0x0b, 0xf7, 0x0a, 0x09,
  0xf7, 0x13, 0x08, 0xf7, 0xf8, 0x11, 0x06, 0xe4, 0x21, 0x15, 0xfe, 0x1a,
  0x08, 0xf4, 0xed, 0x39, 0xe0, 0xce, 0xe4, 0x17, 0xec, 0x19, 0x1a, 0x1e,
  0x5e, 0xf4, 0xff, 0xff, 0x04, 0x00, 0x00, 0x00, 0x40, 0x01, 0x00, 0x00,
  0x2e, 0x04, 0x00, 0x00, 0x84, 0xf7, 0xff, 0xff, 0xae, 0xfe, 0xff, 0xff,
  0x22, 0x0e, 0x00, 0x00, 0xc9, 0xf7, 0xff, 0xff, 0x9e, 0xfe, 0xff, 0xff,
  0x73, 0x08, 0x00, 0x00, 0x33, 0xf8, 0xff, 0xff, 0xba, 0xfe, 0xff, 0xff,
  0x73, 0x14, 0x00, 0x00, 0x10, 0x05, 0x00, 0x00, 0xc6, 0x0a, 0x00, 0x00,
  0x01, 0xf9, 0xff, 0xff, 0x4b, 0xfe, 0xff, 0xff, 0xd0, 0x01, 0x00, 0x00,
  0x77, 0xf7, 0xff, 0xff, 0x82, 0x03, 0x00, 0x00, 0x10, 0x0e, 0x00, 0x00,
  0x04, 0xff, 0xff, 0xff, 0x53, 0x01, 0x00, 0x00, 0x57, 0xfa, 0xff, 0xff,
  0xbc, 0xfb, 0xff, 0xff, 0xa0, 0x0e, 0x00, 0x00, 0xd6, 0xf4, 0xff, 0xff,
  0x82, 0xf3, 0xff, 0xff, 0x2a, 0x0a, 0x00, 0x00, 0x55, 0xef, 0xff, 0xff,
  0x6f, 0xfe, 0xff, 0xff, 0x68, 0x00, 0x00, 0x00, 0xd8, 0xec, 0xff, 0xff,
  0xb8, 0x10, 0x00, 0x00, 0xbf, 0x0a, 0x00, 0x00, 0x03, 0x04, 0x00, 0x00,
  0xd1, 0xfd, 0xff, 0xff, 0x3e, 0x05, 0x00, 0x00, 0xf4, 0x03, 0x00, 0x00,
  0x6e, 0x08, 0x00, 0x00, 0xb2, 0x0f, 0x00, 0x00, 0x03, 0x0a, 0x00, 0x00,
  0x78, 0x00, 0x00, 0x00, 0x9c, 0xf9, 0xff, 0xff, 0x23, 0xef, 0xff, 0xff,
  0x78, 0xf4, 0xff, 0xff, 0x6d, 0x05, 0x00, 0x00, 0xa2, 0xfb, 0xff, 0xff,
  0x65, 0xfd, 0xff, 0xff, 0x0f, 0xff, 0xff, 0xff, 0x5b, 0x07, 0x00, 0x00,
  0x06, 0x0d, 0x00, 0x00, 0xb3, 0xfc, 0xff, 0xff, 0x94, 0xfb, 0xff, 0xff,
  0xe1, 0x10, 0x00, 0x00, 0x34, 0x17, 0x00, 0x00, 0x2b, 0xf5, 0xff, 0xff,
  0x00, 0xfe, 0xff, 0xff, 0x89, 0xfb, 0xff, 0xff, 0x4b, 0x06, 0x00, 0x00,
  0x47, 0xff, 0xff, 0xff, 0x1f, 0xee, 0xff, 0xff, 0x7a, 0xf8, 0xff, 0xff,
  0xae, 0xf8, 0xff, 0xff, 0x18, 0x0f, 0x00, 0x00, 0x6c, 0x01, 0x00, 0x00,
  0x4f, 0xf8, 0xff, 0xff, 0xbc, 0xea, 0xff, 0xff, 0xbd, 0xfa, 0xff, 0xff,
  0x2a, 0xfa, 0xff, 0xff, 0xc9, 0xf7, 0xff, 0xff, 0xc4, 0x05, 0x00, 0x00,
  0x21, 0xf7, 0xff, 0xff, 0x90, 0xeb, 0xff, 0xff, 0x7d, 0x0a, 0x00, 0x00,
  0x31, 0xf3, 0xff, 0xff, 0x99, 0xfc, 0xff, 0xff, 0xe5, 0xfb, 0xff, 0xff,
  0xbb, 0xf5, 0xff, 0xff, 0x79, 0x06, 0x00, 0x00, 0xa8, 0xfd, 0xff, 0xff,
  0x00, 0x05, 0x00, 0x00, 0xd9, 0x0b, 0x00, 0x00, 0xaa, 0xf5, 0xff, 0xff,
  0x04, 0x00, 0x00, 0x00, 0x60, 0x09, 0x00, 0x00, 0xfb, 0x1b, 0x0a, 0x22,
  0xef, 0x38, 0xf8, 0xfd, 0x21, 0xf2, 0xde, 0x06, 0xe0, 0x10, 0xed, 0x00,
  0x22, 0x11, 0x03, 0x03, 0xfb, 0x08, 0x12, 0xee, 0x04, 0xcc, 0x17, 0x19,
  0xf9, 0xe3, 0xdc, 0xfe, 0xf5, 0x3b, 0xe3, 0x0a, 0x1a, 0xf4, 0xfb, 0x11,
  0x35, 0xb0, 0xf3, 0xd3, 0xf7, 0x13, 0xf1, 0x15, 0x10, 0xf8, 0x02, 0x12,
  0x02, 0xeb, 0x15, 0x06, 0x05, 0xfe, 0x1e, 0xe2, 0x02, 0x43, 0xfd, 0xd8,
  0xff, 0x0a, 0x0b, 0xf8, 0x0c, 0x16, 0x26, 0x0a, 0x07, 0x2c, 0xfe, 0x03,
  0xf7, 0x03, 0xfd, 0xef, 0x0e, 0xe2, 0xc3, 0x12, 0x30, 0xf5, 0x1c, 0x07,
  0x04, 0x1f, 0x0f, 0x23, 0x11, 0xee, 0xf0, 0x2a, 0x18, 0xfc, 0xd2, 0xda,
  0xe4, 0x26, 0x20, 0xe3, 0xe2, 0x1a, 0xed, 0x1f, 0x21, 0x17, 0xfc, 0xf9,
  0xea, 0x0b, 0x23, 0x2c, 0xbb, 0x1f, 0x15, 0x37, 0xe4, 0x2e, 0x08, 0xed,
  0xd8, 0x13, 0x0a, 0x47, 0xe0, 0x16, 0xff, 0xfc, 0x36, 0x17, 0xff, 0x02,
  0x12, 0xd0, 0xd9, 0x13, 0xd7, 0x30, 0x05, 0x12, 0xdc, 0xda, 0x2b, 0xf9,
  0xf8, 0x12, 0x04, 0x04, 0xe3, 0x23, 0xfb, 0xdd, 0xef, 0xbb, 0xfe, 0xff,
  0x2c, 0x03, 0x04, 0x1c, 0x29, 0xe3, 0x40, 0x15, 0x1e, 0x10, 0x05, 0xd5,
  0x09, 0xf6, 0xd9, 0x01, 0x20, 0x01, 0xfa, 0xf7, 0xfa, 0x3a, 0x25, 0xd8,
  0xe9, 0x24, 0xf5, 0x07, 0xc5, 0x19, 0xeb, 0xd0, 0x06, 0xcf, 0x00, 0x03,
  0x30, 0xf9, 0x2a, 0xda, 0x16, 0x07, 0xe9, 0x4b, 0xe0, 0xd2, 0x02, 0xf0,
  0xe8, 0xd0, 0xd5, 0xea, 0xff, 0xd4, 0xf2, 0x19, 0xd8, 0x0a, 0x15, 0x05,
  0xef, 0xa0, 0xb8, 0xd5, 0x08, 0x00, 0x24, 0xfa, 0x0d, 0x17, 0x18, 0x1b,
  0xd8, 0x33, 0xdd, 0x1b, 0x25, 0xfb, 0x02, 0x03, 0x36, 0xf9, 0x18, 0x1c,
  0x25, 0x1d, 0x2b, 0xf0, 0x23, 0x19, 0xde, 0x13, 0xf1, 0x11, 0xe5, 0xeb,
  0x17, 0x1f, 0x0f, 0xff, 0x1f, 0xbe, 0xb6, 0x08, 0x15, 0x19, 0x17, 0xd8,
  0x3c, 0xf4, 0xcc, 0x3a, 0x1a, 0x11, 0xe8, 0xe4, 0x3b, 0xfb, 0xed, 0xcf,
  0x21, 0xe0, 0xdf, 0x03, 0xc3, 0x05, 0xef, 0x3a, 0xe6, 0xf5, 0x2c, 0x0e,
  0x2f, 0xf9, 0x0f, 0x05, 0x0c, 0x38, 0xe0, 0x39, 0x0e, 0x0b, 0xf9, 0x6b,
  0x39, 0x05, 0x0c, 0x14, 0x21, 0xf6, 0x23, 0xf9, 0x0b, 0x3c, 0x40, 0x44,
  0xd8, 0x2d, 0xeb, 0xf1, 0xea, 0xfb, 0xfa, 0x04, 0x3f, 0x31, 0x0e, 0xde,
  0x0f, 0xe5, 0xfd, 0xea, 0x29, 0xdb, 0xc7, 0xe9, 0x19, 0x02, 0x2f, 0x39,
  0xe4, 0x02, 0xe3, 0xdf, 0xe2, 0x17, 0xd0, 0x1d, 0xf9, 0x1b, 0xf3, 0x0e,
  0xe6, 0xf2, 0xf1, 0xf1, 0xec, 0x02, 0x03, 0xfb, 0xfa, 0xf6, 0x14, 0xf4,
  0x03, 0xde, 0x03, 0x20, 0xd7, 0x10, 0xec, 0xcf, 0x0b, 0xe6, 0xe8, 0x2d,
  0x08, 0x05, 0xee, 0x08, 0x04, 0x00, 0xe2, 0x2d, 0xec, 0xfe, 0x20, 0x17,
  0xf5, 0xfa, 0x07, 0xd0, 0xf9, 0x20, 0x11, 0xf4, 0x07, 0xb2, 0xf4, 0xba,
  0x13, 0xdd, 0x0e, 0x01, 0xf7, 0x15, 0x45, 0xfc, 0xf2, 0x21, 0x0f, 0x07,
  0xf3, 0xf0, 0xd4, 0x1c, 0xff, 0xfc, 0xda, 0x08, 0x23, 0xf9, 0xef, 0x11,
  0x07, 0x13, 0x0b, 0x10, 0x43, 0xf1, 0xf8, 0xea, 0xed, 0x11, 0xf8, 0x14,
  0xf6, 0xf3, 0xe7, 0xd9, 0x14, 0xf6, 0x09, 0xfe, 0xfb, 0x08, 0x09, 0x08,
  0x37, 0xe6, 0xca, 0xda, 0xdf, 0xf9, 0x16, 0xfc, 0x26, 0x0d, 0x00, 0xf3,
  0x16, 0x06, 0xff, 0x54, 0xf9, 0xed, 0x30, 0x23, 0xed, 0x01, 0x03, 0x11,
  0x11, 0xd0, 0xf7, 0x23, 0x22, 0xfd, 0xf8, 0x12, 0xf0, 0x15, 0xe8, 0x13,
  0xfe, 0xf2, 0xde, 0xe3, 0xfc, 0x08, 0xe5, 0xe2, 0xeb, 0xee, 0x0e, 0x17,
  0xf1, 0xfc, 0x06, 0x13, 0xf7, 0x0d, 0x07, 0xf6, 0x23, 0x33, 0xe3, 0xdf,
  0xda, 0x21, 0x01, 0xf4, 0xe5, 0xfe, 0xbb, 0xf2, 0xf9, 0xce, 0xfe, 0x15,
  0xed, 0xfa, 0xf7, 0xe8, 0x18, 0x23, 0xd0, 0x18, 0xfd, 0x0e, 0xd7, 0x0a,
  0x13, 0xe6, 0xda, 0xf0, 0x39, 0xf6, 0x1d, 0xdf, 0xf8, 0x18, 0x19, 0x22,
  0xf4, 0x00, 0xc5, 0x24, 0x1e, 0xd5, 0x05, 0x27, 0x06, 0x16, 0xf1, 0xfe,
  0xf1, 0x23, 0x27, 0xec, 0xea, 0xf5, 0x09, 0xf4, 0xec, 0x02, 0x07, 0x0f,
  0xf2, 0x07, 0x2b, 0xec, 0xeb, 0xd7, 0xff, 0xec, 0xd2, 0x1a, 0xf3, 0x10,
  0x0a, 0x40, 0xf8, 0xd5, 0x0b, 0xfb, 0x02, 0xfa, 0x18, 0xf7, 0xf8, 0xd1,
  0x06, 0xd7, 0x9e, 0xe3, 0x0b, 0xd4, 0x0c, 0x17, 0x1f, 0x06, 0x04, 0xeb,
  0xf7, 0x14, 0xfd, 0x17, 0x07, 0xf9, 0x24, 0x24, 0x1e, 0xc4, 0x25, 0x0c,
  0x13, 0x32, 0x1a, 0xf0, 0x19, 0x01, 0x30, 0x24, 0xea, 0x27, 0xeb, 0x01,
  0x0a, 0x0e, 0x04, 0x0c, 0xf2, 0xcc, 0xf4, 0xef, 0x27, 0x1f, 0x0c, 0x09,
  0x0a, 0x23, 0xf5, 0x2f, 0xf4, 0x04, 0xf8, 0x03, 0xfb, 0x20, 0xfc, 0xba,
  0x28, 0x07, 0xf0, 0xfd, 0xfd, 0xfc, 0xfb, 0xf4, 0xce, 0x1a, 0x00, 0xd2,
  0xf9, 0xe6, 0x03, 0x15, 0xed, 0x02, 0xf9, 0x12, 0x16, 0xc5, 0xde, 0x01,
  0x04, 0x16, 0xe9, 0xf0, 0xe6, 0xfa, 0x0f, 0x1f, 0xe1, 0xfa, 0xd1, 0x1d,
  0xc8, 0xe4, 0x0c, 0x1a, 0x20, 0x1e, 0xf1, 0x32, 0xe3, 0xe7, 0x2b, 0xcd,
  0xe2, 0xf8, 0x17, 0x16, 0x27, 0x0c, 0x11, 0x1f, 0xf2, 0x1a, 0x0c, 0xf9,
  0xec, 0x19, 0x06, 0x0a, 0x24, 0xd8, 0x25, 0x19, 0xed, 0xe3, 0xea, 0xfa,
  0xf3, 0xf6, 0xff, 0x2c, 0xd6, 0x32, 0x16, 0x0f, 0xe0, 0xe0, 0x07, 0x05,
  0x07, 0x30, 0xf4, 0x18, 0x05, 0x0b, 0x05, 0xe3, 0x06, 0xe0, 0xec, 0x1a,
  0xf8, 0x08, 0x11, 0x08, 0xde, 0x0f, 0xee, 0xde, 0x20, 0xda, 0x13, 0x2d,
  0xec, 0xf0, 0xfa, 0x57, 0x07, 0x20, 0xd6, 0x1e, 0x35, 0x0b, 0xe5, 0x16,
  0x11, 0xac, 0x0e, 0xf2, 0xe8, 0x0c, 0x1c, 0xfe, 0xee, 0x06, 0x1e, 0x09,
  0xf5, 0xe3, 0x2d, 0x0b, 0x08, 0x18, 0xca, 0xfb, 0xf1, 0xb3, 0xe6, 0xec,
  0x02, 0x23, 0x2f, 0x1b, 0x0e, 0x2c, 0x32, 0x22, 0x0b, 0xf8, 0x12, 0x0b,
  0x15, 0x14, 0x06, 0x01, 0x03, 0xee, 0xe2, 0x14, 0x0c, 0x06, 0xf6, 0x08,
  0x07, 0x24, 0x10, 0x02, 0xfa, 0x1d, 0xde, 0xf4, 0x1c, 0x39, 0x12, 0x0b,
  0x39, 0x01, 0x0a, 0xff, 0x4a, 0xe9, 0x0d, 0x13, 0xf8, 0xff, 0xeb, 0x46,
  0x02, 0x12, 0x0b, 0x1f, 0xdc, 0x07, 0xe2, 0x17, 0x03, 0x0c, 0xeb, 0xd4,
  0x3f, 0x0f, 0x0e, 0xf4, 0x3b, 0x23, 0xee, 0xf0, 0xf8, 0xdf, 0x09, 0x10,
  0x0f, 0x0a, 0x1c, 0x09, 0xf3, 0x06, 0x31, 0xf5, 0xf0, 0xf2, 0xff, 0xc6,
  0x12, 0xea, 0xf0, 0xeb, 0xe7, 0x01, 0x04, 0x06, 0xed, 0xec, 0x0b, 0x10,
  0xea, 0xf4, 0xe1, 0x0b, 0x18, 0x0f, 0x16, 0xaa, 0x0e, 0x08, 0xd0, 0x1f,
  0x08, 0xd3, 0x19, 0xf0, 0xf3, 0xf3, 0x08, 0xf6, 0xe0, 0x19, 0xd1, 0xac,
  0xf8, 0x34, 0x11, 0x4a, 0xdd, 0x31, 0x01, 0xea, 0x13, 0x14, 0xf6, 0x27,
  0xfc, 0xf0, 0x15, 0x27, 0x02, 0x44, 0xce, 0xca, 0xc3, 0x09, 0xf3, 0x3a,
  0x06, 0xed, 0xff, 0xe4, 0x01, 0xfd, 0x21, 0x0d, 0xf8, 0xf8, 0x28, 0x19,
  0xff, 0xec, 0xeb, 0x13, 0xf2, 0xf5, 0x9c, 0x00, 0x24, 0xf8, 0x06, 0x06,
  0xf9, 0x12, 0xf7, 0x42, 0x12, 0x05, 0x0b, 0x31, 0xe7, 0xef, 0xcf, 0xe3,
  0xeb, 0x1b, 0xdf, 0xf4, 0x06, 0x05, 0x33, 0xeb, 0xf9, 0xfb, 0xe4, 0xf5,
  0x1d, 0x07, 0xc6, 0x09, 0x12, 0xff, 0x0a, 0x00, 0xe4, 0x4b, 0x0d, 0xf1,
  0x06, 0x0e, 0xfc, 0x27, 0xe4, 0x14, 0x13, 0xd6, 0x36, 0xd9, 0x03, 0x13,
  0xed, 0x05, 0x1e, 0xec, 0x31, 0xea, 0xfb, 0x0b, 0x2c, 0xcf, 0xed, 0xeb,
  0x0e, 0xf0, 0x33, 0xff, 0x23, 0x1e, 0xec, 0xeb, 0xf3, 0x1c, 0x1c, 0xe3,
  0xc4, 0xe5, 0x04, 0xd2, 0xfd, 0x19, 0x1f, 0xcd, 0x2f, 0xfd, 0x39, 0x1a,
  0x2a, 0xef, 0xfa, 0x1c, 0x0a, 0x0b, 0x10, 0x0f, 0xf9, 0xf6, 0x1e, 0xda,
  0x13, 0x3d, 0x0e, 0x02, 0x09, 0xfd, 0x17, 0xf2, 0x29, 0x45, 0x03, 0xe6,
  0x00, 0xfe, 0x05, 0xeb, 0xda, 0x36, 0xb2, 0xf1, 0x11, 0x1f, 0x09, 0xe6,
  0xf2, 0x0e, 0x08, 0xff, 0xfa, 0xfa, 0xeb, 0xe5, 0xf9, 0xd1, 0xfa, 0x07,
  0xfd, 0x0c, 0x08, 0x35, 0x1d, 0xba, 0xf3, 0x05, 0x06, 0x0c, 0x03, 0xf9,
  0xd2, 0xf9, 0x1c, 0xfc, 0x07, 0x08, 0x16, 0x09, 0xf2, 0xd8, 0xe8, 0xfd,
  0x03, 0xe1, 0xea, 0x0f, 0xdd, 0xc9, 0xf8, 0xdd, 0xf3, 0x1d, 0x07, 0x1d,
  0x16, 0x1b, 0x26, 0xe6, 0xf9, 0x35, 0xfb, 0x13, 0x32, 0xfc, 0xde, 0x13,
  0xed, 0xf4, 0x01, 0x16, 0x15, 0xf5, 0xe0, 0xf0, 0x04, 0x31, 0xd3, 0x0f,
  0xde, 0xf3, 0xff, 0x0b, 0xfb, 0xe0, 0xf4, 0xf2, 0x1b, 0xeb, 0xfa, 0xf3,
  0xdf, 0x16, 0x13, 0x02, 0x19, 0x36, 0xce, 0x0b, 0xeb, 0xfc, 0x08, 0xf2,
  0x05, 0x44, 0x0a, 0xe2, 0xd8, 0x1a, 0xd6, 0xdf, 0x15, 0xc7, 0xe2, 0x29,
  0x02, 0xe9, 0x33, 0x1a, 0xe5, 0xf9, 0xfd, 0x34, 0xf9, 0xcf, 0x09, 0x05,
  0x06, 0xf5, 0xde, 0x36, 0x37, 0xf6, 0xd0, 0x28, 0x1c, 0x11, 0xff, 0xd2,
  0x22, 0xdc, 0xea, 0xfe, 0x12, 0xdb, 0x05, 0x26, 0x18, 0xcd, 0x3c, 0xf6,
  0x01, 0x00, 0xe6, 0xfb, 0x0f, 0x05, 0xf9, 0x19, 0xfe, 0x10, 0xe8, 0xce,
  0xe2, 0xf7, 0xf4, 0x09, 0xf1, 0xf6, 0x7f, 0xe8, 0xff, 0xfe, 0x08, 0xea,
  0xfe, 0x0d, 0xd0, 0x10, 0xff, 0xea, 0x10, 0x12, 0x15, 0xf4, 0xbf, 0xea,
  0x2a, 0x19, 0x2a, 0xe7, 0xd6, 0x1c, 0x18, 0x07, 0xe0, 0x01, 0xda, 0x2b,
  0x07, 0xb0, 0xdb, 0x01, 0x1f, 0x0d, 0xf8, 0x16, 0xf8, 0xce, 0x1f, 0x08,
  0x10, 0xfe, 0xd4, 0xd2, 0xf6, 0xfe, 0xeb, 0x1d, 0xe4, 0xe3, 0xe2, 0xe3,
  0xeb, 0x09, 0x45, 0x0d, 0xfb, 0xf4, 0x17, 0xff, 0xcb, 0xf8, 0xcf, 0xff,
  0x34, 0x0e, 0x39, 0x09, 0x13, 0xdd, 0x0c, 0xe0, 0x09, 0x17, 0x14, 0x0c,
  0x0b, 0x0d, 0x26, 0x0d, 0x15, 0xe8, 0xf8, 0xbf, 0x00, 0xf9, 0xf9, 0x1a,
  0xf3, 0x07, 0x06, 0xfa, 0x10, 0x13, 0xe3, 0xc9, 0x09, 0x04, 0x0c, 0x26,
  0xff, 0xfa, 0xf6, 0x09, 0xe9, 0x10, 0x97, 0x36, 0x01, 0xeb, 0xec, 0x1f,
  0x0b, 0xea, 0x3e, 0x07, 0x02, 0xd4, 0x0e, 0x09, 0x02, 0x21, 0x0b, 0x18,
  0x19, 0x2a, 0x16, 0xf0, 0xda, 0x14, 0xd7, 0xe5, 0xf7, 0xc8, 0xfb, 0x12,
  0xf1, 0x0c, 0x14, 0xe7, 0x21, 0x92, 0xf2, 0xf7, 0x1f, 0x3d, 0x17, 0x15,
  0xdd, 0x03, 0x02, 0x00, 0xf7, 0xfc, 0x01, 0x1a, 0xff, 0xc9, 0x1a, 0x09,
  0x04, 0x01, 0x2e, 0x02, 0x14, 0x55, 0x15, 0xf7, 0xff, 0x11, 0xfb, 0x08,
  0xfc, 0x1e, 0x1f, 0xdc, 0xfd, 0xe1, 0xf3, 0xb7, 0xcf, 0xc3, 0x0c, 0xf4,
  0xf1, 0x08, 0x2a, 0x0b, 0xf8, 0xe6, 0xee, 0x27, 0x2c, 0x00, 0x00, 0x0f,
  0x1a, 0xfd, 0xf7, 0xe0, 0xe2, 0x0a, 0xe4, 0xe9, 0xdb, 0xd9, 0xbf, 0xd5,
  0xe5, 0xda, 0x34, 0x02, 0x0d, 0x2f, 0x1a, 0x11, 0xfc, 0xf5, 0x11, 0xc1,
  0xe3, 0x13, 0x40, 0x04, 0x3b, 0xc4, 0xf4, 0x06, 0x3f, 0x07, 0xee, 0xf4,
  0x09, 0x11, 0x0c, 0xc7, 0x15, 0x36, 0xfc, 0xf5, 0x29, 0x0b, 0xf5, 0x32,
  0x01, 0x06, 0x0f, 0xff, 0x09, 0xfb, 0xf6, 0x11, 0xfc, 0xee, 0xfb, 0xe6,
  0xf1, 0x32, 0x25, 0xec, 0xe7, 0xf8, 0x21, 0xea, 0xe9, 0x20, 0xf4, 0xf3,
  0x04, 0xe9, 0xec, 0xd6, 0xe7, 0x06, 0xea, 0xf3, 0x24, 0xe7, 0xf2, 0x05,
  0xe5, 0x27, 0xfd, 0xeb, 0x0b, 0x35, 0xe9, 0x0b, 0x1b, 0xe9, 0x1e, 0xc1,
  0xcb, 0xe3, 0xf6, 0x08, 0xf6, 0xf1, 0xfb, 0x01, 0x00, 0xee, 0xe5, 0x38,
  0x16, 0xf4, 0xfe, 0x18, 0x61, 0xe5, 0x17, 0xcd, 0xf5, 0x09, 0x00, 0xe8,
  0xcd, 0x0a, 0x11, 0xf8, 0x0a, 0x0e, 0x01, 0xee, 0x23, 0xf2, 0xd2, 0xed,
  0xde, 0x18, 0xdd, 0xff, 0xe0, 0x23, 0xf0, 0xf9, 0xe9, 0xe9, 0xf6, 0x02,
  0x06, 0x16, 0xfd, 0x05, 0xc2, 0xd2, 0x1f, 0xee, 0x16, 0x37, 0x2f, 0xf9,
  0xf4, 0x1b, 0xea, 0xf4, 0x19, 0x33, 0x12, 0x0f, 0x1e, 0xf9, 0xfa, 0x10,
  0x0f, 0xfe, 0xf9, 0x02, 0xeb, 0x00, 0x09, 0x00, 0xe5, 0x1d, 0x0c, 0xf5,
  0x0f, 0xe4, 0x07, 0xe9, 0xf7, 0x0c, 0xee, 0xde, 0x03, 0x08, 0x27, 0x08,
  0x1c, 0xef, 0xfd, 0x08, 0x18, 0xfd, 0x00, 0xf3, 0xfe, 0xd1, 0x2b, 0xf2,
  0xe5, 0xf6, 0x06, 0xfb, 0xe9, 0x2c, 0x08, 0x09, 0x18, 0x1a, 0x19, 0xfa,
  0x17, 0xdc, 0xf6, 0xf5, 0x17, 0x08, 0x19, 0x00, 0xfa, 0x03, 0x17, 0xe9,
  0x04, 0x15, 0xcb, 0x1d, 0xfb, 0xe2, 0xd7, 0xfa, 0x29, 0x13, 0xf5, 0x01,
  0x11, 0x04, 0xea, 0x03, 0x16, 0xfb, 0xf9, 0xde, 0x1f, 0xef, 0x12, 0xe7,
  0xea, 0xef, 0xf9, 0xf8, 0x00, 0xff, 0xf5, 0x07, 0x22, 0x03, 0xe0, 0xf3,
  0xfe, 0xf6, 0x1a, 0x08, 0xe7, 0xf7, 0x09, 0x02, 0x27, 0x10, 0x25, 0xeb,
  0x08, 0x25, 0x25, 0xf7, 0x08, 0xcd, 0x09, 0xe6, 0xff, 0xfb, 0xfb, 0xe6,
  0xeb, 0x2a, 0xe0, 0xee, 0x19, 0x02, 0x01, 0x04, 0x0d, 0x19, 0xf3, 0xd2,
  0xfd, 0xec, 0xcf, 0xe0, 0xf6, 0x1c, 0x37, 0xe7, 0xf7, 0xeb, 0x0b, 0xf8,
  0xee, 0xe8, 0xf0, 0x0c, 0x02, 0xe9, 0xd3, 0x51, 0xd1, 0x1a, 0xdf, 0xf9,
  0xeb, 0x2c, 0x04, 0xfb, 0x17, 0xfd, 0x04, 0x0c, 0xfc, 0xfc, 0x00, 0xee,
  0x17, 0x08, 0xd9, 0xf0, 0xfb, 0x85, 0x29, 0x67, 0x0c, 0x01, 0x1f, 0x23,
  0xea, 0xe1, 0xf9, 0xfb, 0x17, 0xf6, 0x10, 0xfb, 0xe6, 0xeb, 0xf0, 0x06,
  0xf8, 0xe4, 0xff, 0x0f, 0xc3, 0xfe, 0xf6, 0xe7, 0x11, 0xfb, 0xe3, 0x1c,
  0xeb, 0xfa, 0xfc, 0xdd, 0x13, 0x0e, 0x18, 0x00, 0x09, 0x32, 0xfc, 0x31,
  0x16, 0xfa, 0xfd, 0x0e, 0xf9, 0xee, 0x12, 0xd3, 0xff, 0xdf, 0x16, 0x14,
  0xee, 0x43, 0xed, 0x1a, 0xe8, 0x3a, 0x23, 0x05, 0x20, 0x22, 0x0b, 0xe3,
  0x05, 0xe7, 0xe9, 0xed, 0xe4, 0xed, 0xc3, 0x1d, 0x14, 0xea, 0xf8, 0x0f,
  0x1c, 0x13, 0xf7, 0xf7, 0xe5, 0xdc, 0x09, 0xe6, 0x01, 0xf6, 0xf8, 0x04,
  0xe7, 0xcc, 0xd5, 0xbd, 0x18, 0xf0, 0x0f, 0x1c, 0xe8, 0xfb, 0x04, 0xf3,
  0xfc, 0xf5, 0xe7, 0xf0, 0x09, 0xf6, 0x18, 0xd9, 0x02, 0x00, 0xec, 0x15,
  0x1b, 0xfd, 0xf2, 0x08, 0xfa, 0xf5, 0x02, 0x10, 0xdf, 0xe6, 0x4f, 0x24,
  0x0b, 0x22, 0xf8, 0x01, 0x07, 0x08, 0x0d, 0xfd, 0x27, 0xfb, 0x17, 0xd7,
  0xf7, 0xe1, 0x18, 0x1c, 0x09, 0x0c, 0xeb, 0x0f, 0x16, 0xf6, 0xe5, 0xf6,
  0x30, 0x01, 0xe1, 0xed, 0x37, 0xbb, 0x23, 0x28, 0x2a, 0x1b, 0xc4, 0x12,
  0x37, 0x16, 0xd5, 0x0d, 0x2c, 0x28, 0xff, 0xee, 0xe6, 0xc7, 0xf4, 0x1f,
  0x1a, 0x1e, 0xfb, 0x0d, 0xd6, 0xf2, 0xe7, 0x20, 0xde, 0xd3, 0xc1, 0x13,
  0xe7, 0xf1, 0xf3, 0xdc, 0xd9, 0xf5, 0xfc, 0x0c, 0x11, 0xc2, 0x15, 0xdd,
  0xea, 0xd2, 0x0f, 0x1d, 0x02, 0xec, 0x2e, 0x0a, 0xfe, 0x1c, 0x06, 0xe5,
  0x02, 0x1f, 0x05, 0x0e, 0xe3, 0x13, 0xdf, 0xea, 0xf1, 0xec, 0xff, 0x00,
  0xe1, 0xce, 0xf0, 0xdf, 0x07, 0xe9, 0xe1, 0x07, 0x01, 0x10, 0xed, 0x1b,
  0xc1, 0xf1, 0x21, 0xc6, 0xfb, 0x02, 0x01, 0x2f, 0xcd, 0x19, 0x25, 0xfd,
  0xef, 0xb3, 0xf3, 0x09, 0x0e, 0x1c, 0xe6, 0x08, 0xf0, 0xec, 0x09, 0xef,
  0xf0, 0xfb, 0xe9, 0xf6, 0xc5, 0xe8, 0xf7, 0xf4, 0xf2, 0x05, 0x20, 0x2f,
  0xf9, 0xe7, 0x32, 0xd0, 0xef, 0xf5, 0x12, 0x0d, 0x1e, 0x0a, 0x19, 0x23,
  0xfc, 0x21, 0xd2, 0x0a, 0xe2, 0x13, 0x00, 0xc5, 0x15, 0xff, 0x28, 0xe7,
  0xf4, 0x32, 0xce, 0x1b, 0x11, 0x1b, 0x06, 0xc3, 0x14, 0xe0, 0xf3, 0xfd,
  0x40, 0x0d, 0xf6, 0x33, 0x19, 0xfe, 0xfd, 0x02, 0xef, 0xfe, 0x0f, 0x0e,
  0xfa, 0xf5, 0x16, 0x00, 0x05, 0x31, 0x11, 0xf5, 0xf6, 0x12, 0x02, 0xeb,
  0x29, 0x19, 0x03, 0xf3, 0xfb, 0xfe, 0x0b, 0x0c, 0x15, 0xc5, 0x16, 0xff,
  0xd9, 0xea, 0x23, 0x02, 0x00, 0x00, 0xfb, 0x15, 0x28, 0xf9, 0x1e, 0xff,
  0x17, 0xde, 0x11, 0xd7, 0x15, 0x46, 0x00, 0xe0, 0x08, 0x0a, 0x31, 0xf2,
  0xf7, 0xbb, 0x11, 0xe7, 0xf8, 0xf3, 0xee, 0x1f, 0x02, 0xfc, 0x01, 0xdd,
  0xfb, 0x17, 0xfd, 0xfd, 0x03, 0x04, 0xf8, 0xdf, 0x12, 0xea, 0x09, 0xfb,
  0x00, 0xef, 0xf0, 0xe8, 0x02, 0xba, 0x05, 0xf6, 0x3a, 0x18, 0x00, 0x0d,
  0xe6, 0x03, 0xc7, 0x0c, 0x09, 0x1a, 0x1c, 0xfa, 0xcb, 0xc1, 0x12, 0xd6,
  0xeb, 0x30, 0x11, 0xec, 0xff, 0x04, 0xfd, 0xf9, 0xcc, 0x15, 0xe3, 0xe9,
  0xc7, 0x17, 0x1a, 0xf0, 0xfd, 0xef, 0x05, 0x2e, 0x13, 0xc9, 0x03, 0x06,
  0xe5, 0x42, 0x0f, 0xf7, 0xd0, 0x0f, 0x13, 0xd5, 0x18, 0x0e, 0xf6, 0x1f,
  0x17, 0x17, 0xd3, 0x01, 0xfc, 0xf5, 0x10, 0xd7, 0x0f, 0x2b, 0xfa, 0x1a,
  0xf6, 0xef, 0x15, 0xf8, 0x05, 0xfb, 0xfd, 0x10, 0xf1, 0xf0, 0xf3, 0x47,
  0xeb, 0xfe, 0x02, 0xd3, 0x07, 0x07, 0x1b, 0x1f, 0xd3, 0x05, 0xea, 0xef,
  0xfe, 0xf1, 0xd5, 0x0c, 0xf8, 0xf3, 0xff, 0x2f, 0x13, 0x1d, 0xe0, 0x07,
  0x04, 0x09, 0x0a, 0x02, 0x00, 0x08, 0xe7, 0x06, 0x0b, 0x0f, 0x06, 0x0f,
