unsigned char acels_models_63_model_tflite[] = {
  0x1c, 0x00, 0x00, 0x00, 0x54, 0x46, 0x4c, 0x33, 0x14, 0x00, 0x20, 0x00,
  0x1c, 0x00, 0x18, 0x00, 0x14, 0x00, 0x10, 0x00, 0x0c, 0x00, 0x00, 0x00,
  0x08, 0x00, 0x04, 0x00, 0x14, 0x00, 0x00, 0x00, 0x1c, 0x00, 0x00, 0x00,
  0x8c, 0x00, 0x00, 0x00, 0xe4, 0x00, 0x00, 0x00, 0x9c, 0x4f, 0x00, 0x00,
  0xac, 0x4f, 0x00, 0x00, 0x90, 0x65, 0x00, 0x00, 0x03, 0x00, 0x00, 0x00,
  0x01, 0x00, 0x00, 0x00, 0x04, 0x00, 0x00, 0x00, 0xc6, 0xad, 0xff, 0xff,
  0x0c, 0x00, 0x00, 0x00, 0x1c, 0x00, 0x00, 0x00, 0x3c, 0x00, 0x00, 0x00,
  0x0f, 0x00, 0x00, 0x00, 0x73, 0x65, 0x72, 0x76, 0x69, 0x6e, 0x67, 0x5f,
  0x64, 0x65, 0x66, 0x61, 0x75, 0x6c, 0x74, 0x00, 0x01, 0x00, 0x00, 0x00,
  0x04, 0x00, 0x00, 0x00, 0x90, 0xff, 0xff, 0xff, 0x21, 0x00, 0x00, 0x00,
  0x04, 0x00, 0x00, 0x00, 0x09, 0x00, 0x00, 0x00, 0x64, 0x65, 0x6e, 0x73,
  0x65, 0x5f, 0x33, 0x36, 0x35, 0x00, 0x00, 0x00, 0x01, 0x00, 0x00, 0x00,
  0x04, 0x00, 0x00, 0x00, 0xf2, 0xb0, 0xff, 0xff, 0x04, 0x00, 0x00, 0x00,
  0x0f, 0x00, 0x00, 0x00, 0x64, 0x65, 0x6e, 0x73, 0x65, 0x5f, 0x33, 0x36,
  0x30, 0x5f, 0x69, 0x6e, 0x70, 0x75, 0x74, 0x00, 0x02, 0x00, 0x00, 0x00,
  0x34, 0x00, 0x00, 0x00, 0x04, 0x00, 0x00, 0x00, 0xdc, 0xff, 0xff, 0xff,
  0x24, 0x00, 0x00, 0x00, 0x04, 0x00, 0x00, 0x00, 0x13, 0x00, 0x00, 0x00,
  0x43, 0x4f, 0x4e, 0x56, 0x45, 0x52, 0x53, 0x49, 0x4f, 0x4e, 0x5f, 0x4d,
  0x45, 0x54, 0x41, 0x44, 0x41, 0x54, 0x41, 0x00, 0x08, 0x00, 0x0c, 0x00,
  0x08, 0x00, 0x04, 0x00, 0x08, 0x00, 0x00, 0x00, 0x23, 0x00, 0x00, 0x00,
  0x04, 0x00, 0x00, 0x00, 0x13, 0x00, 0x00, 0x00, 0x6d, 0x69, 0x6e, 0x5f,
  0x72, 0x75, 0x6e, 0x74, 0x69, 0x6d, 0x65, 0x5f, 0x76, 0x65, 0x72, 0x73,
  0x69, 0x6f, 0x6e, 0x00, 0x25, 0x00, 0x00, 0x00, 0xb4, 0x4e, 0x00, 0x00,
  0xac, 0x4e, 0x00, 0x00, 0x90, 0x4e, 0x00, 0x00, 0x20, 0x4e, 0x00, 0x00,
  0x98, 0x4d, 0x00, 0x00, 0x80, 0x46, 0x00, 0x00, 0x80, 0x45, 0x00, 0x00,
  0xb0, 0x32, 0x00, 0x00, 0x60, 0x31, 0x00, 0x00, 0x50, 0x18, 0x00, 0x00,
  0x00, 0x17, 0x00, 0x00, 0x30, 0x04, 0x00, 0x00, 0x1c, 0x04, 0x00, 0x00,
  0x14, 0x04, 0x00, 0x00, 0x0c, 0x04, 0x00, 0x00, 0x04, 0x04, 0x00, 0x00,
  0xfc, 0x03, 0x00, 0x00, 0xfc, 0x02, 0x00, 0x00, 0x0c, 0x01, 0x00, 0x00,
  0x04, 0x01, 0x00, 0x00, 0xfc, 0x00, 0x00, 0x00, 0xf4, 0x00, 0x00, 0x00,
  0xec, 0x00, 0x00, 0x00, 0xe4, 0x00, 0x00, 0x00, 0xdc, 0x00, 0x00, 0x00,
  0xd4, 0x00, 0x00, 0x00, 0xcc, 0x00, 0x00, 0x00, 0xc4, 0x00, 0x00, 0x00,
  0xbc, 0x00, 0x00, 0x00, 0xb4, 0x00, 0x00, 0x00, 0xac, 0x00, 0x00, 0x00,
  0xa4, 0x00, 0x00, 0x00, 0x9c, 0x00, 0x00, 0x00, 0x94, 0x00, 0x00, 0x00,
  0x8c, 0x00, 0x00, 0x00, 0x6c, 0x00, 0x00, 0x00, 0x04, 0x00, 0x00, 0x00,
  0x02, 0xb2, 0xff, 0xff, 0x04, 0x00, 0x00, 0x00, 0x58, 0x00, 0x00, 0x00,
  0x0c, 0x00, 0x00, 0x00, 0x08, 0x00, 0x0e, 0x00, 0x08, 0x00, 0x04, 0x00,
  0x08, 0x00, 0x00, 0x00, 0x10, 0x00, 0x00, 0x00, 0x28, 0x00, 0x00, 0x00,
  0x00, 0x00, 0x06, 0x00, 0x08, 0x00, 0x04, 0x00, 0x06, 0x00, 0x00, 0x00,
  0x04, 0x00, 0x00, 0x00, 0x01, 0x00, 0x00, 0x00, 0xeb, 0x03, 0x00, 0x00,
  0x00, 0x00, 0x0a, 0x00, 0x10, 0x00, 0x0c, 0x00, 0x08, 0x00, 0x04, 0x00,
  0x0a, 0x00, 0x00, 0x00, 0x02, 0x00, 0x00, 0x00, 0x02, 0x00, 0x00, 0x00,
  0x04, 0x00, 0x00, 0x00, 0x06, 0x00, 0x00, 0x00, 0x32, 0x2e, 0x31, 0x35,
  0x2e, 0x30, 0x00, 0x00, 0x66, 0xb2, 0xff, 0xff, 0x04, 0x00, 0x00, 0x00,
  0x10, 0x00, 0x00, 0x00, 0x32, 0x2e, 0x31, 0x2e, 0x30, 0x00, 0x00, 0x00,
  0x00, 0x00, 0x00, 0x00, 0x00, 0x00, 0x00, 0x00, 0x54, 0xaf, 0xff, 0xff,
  0x58, 0xaf, 0xff, 0xff, 0x5c, 0xaf, 0xff, 0xff, 0x60, 0xaf, 0xff, 0xff,
  0x64, 0xaf, 0xff, 0xff, 0x68, 0xaf, 0xff, 0xff, 0x6c, 0xaf, 0xff, 0xff,
  0x70, 0xaf, 0xff, 0xff, 0x74, 0xaf, 0xff, 0xff, 0x78, 0xaf, 0xff, 0xff,
  0x7c, 0xaf, 0xff, 0xff, 0x80, 0xaf, 0xff, 0xff, 0x84, 0xaf, 0xff, 0xff,
  0x88, 0xaf, 0xff, 0xff, 0x8c, 0xaf, 0xff, 0xff, 0x90, 0xaf, 0xff, 0xff,
  0xc2, 0xb2, 0xff, 0xff, 0x04, 0x00, 0x00, 0x00, 0xe0, 0x01, 0x00, 0x00,
  0xd6, 0xe9, 0x01, 0xd7, 0x17, 0xd5, 0x1e, 0x11, 0x0d, 0xd8, 0x33, 0xd0,
  0x2a, 0xd9, 0x41, 0xc6, 0x2f, 0x04, 0xdd, 0xec, 0x96, 0xe3, 0x02, 0x6c,
  0xe7, 0x5e, 0xb9, 0x17, 0x0f, 0xb6, 0xe6, 0x0c, 0xd1, 0xfd, 0x09, 0x71,
  0x11, 0x24, 0x47, 0xed, 0xc3, 0xe7, 0x23, 0xde, 0x06, 0x3c, 0xed, 0xbd,
  0xf8, 0x15, 0xe2, 0xd0, 0x18, 0x24, 0x33, 0x40, 0x11, 0xcf, 0xe7, 0x1b,
  0xb2, 0xee, 0xee, 0x04, 0x16, 0xe8, 0xf4, 0x1e, 0x14, 0xe0, 0xed, 0xdc,
  0xea, 0xd9, 0x2b, 0xc7, 0xd8, 0x41, 0xfc, 0x1e, 0xf3, 0xf0, 0xe3, 0xe2,
  0x33, 0xe0, 0x4a, 0xbe, 0x14, 0x0d, 0x0b, 0xe8, 0xf2, 0x87, 0xaf, 0xf3,
  0x13, 0xbc, 0x0b, 0xfc, 0x65, 0x21, 0x45, 0xf9, 0x06, 0xe4, 0x1b, 0x33,
  0x08, 0xed, 0xcc, 0xcb, 0xf9, 0xea, 0x09, 0x14, 0x2d, 0xe4, 0xd2, 0xd4,
  0xf9, 0x05, 0xc4, 0x03, 0x34, 0xd0, 0x14, 0xe3, 0xe5, 0xfb, 0x19, 0x20,
  0x10, 0x2c, 0xa7, 0xc8, 0x23, 0x9b, 0x4a, 0xc2, 0xfb, 0x36, 0xe5, 0x3d,
  0x13, 0xd2, 0x4f, 0x10, 0x08, 0x31, 0xc3, 0xe0, 0xce, 0xfd, 0xc9, 0xe4,
  0x41, 0xf3, 0xfc, 0xd5, 0x14, 0xf1, 0xde, 0xaf, 0x0c, 0x2a, 0xf4, 0x53,
  0x7c, 0xba, 0x54, 0x20, 0xe8, 0x17, 0xdd, 0x21, 0x18, 0xf9, 0xe2, 0xd0,
  0x10, 0x0b, 0x0d, 0x47, 0x30, 0xd5, 0x1d, 0xe4, 0xe4, 0x0d, 0xe7, 0x6b,
  0xfe, 0x44, 0xea, 0xd7, 0xbe, 0x81, 0xf7, 0x34, 0x11, 0x95, 0x43, 0xa7,
  0xe5, 0x59, 0xf2, 0x15, 0x19, 0xc7, 0x13, 0x1c, 0xd5, 0x20, 0xda, 0x8d,
  0xa7, 0x07, 0xfb, 0xe4, 0x96, 0x00, 0x1d, 0x01, 0xe3, 0xe1, 0x0c, 0xb3,
  0x0c, 0x57, 0xfb, 0xff, 0xf9, 0xf1, 0xe7, 0x09, 0x46, 0xee, 0xd9, 0xb9,
  0x59, 0xea, 0x24, 0x1f, 0xf0, 0x1a, 0x0e, 0x1d, 0xa9, 0xc9, 0x3c, 0xee,
  0x35, 0x27, 0xf0, 0x93, 0xf3, 0xfc, 0x1c, 0xd2, 0xe7, 0xd0, 0x3e, 0x4d,
  0x42, 0xdf, 0x4d, 0xf2, 0xc1, 0x12, 0xd0, 0x2b, 0xc5, 0xec, 0x50, 0x0b,
  0xd4, 0x2a, 0xcc, 0xea, 0x19, 0xd6, 0x04, 0xd1, 0xe4, 0x27, 0xf3, 0x32,
  0xfb, 0xe2, 0x18, 0xdb, 0x1e, 0xdc, 0x03, 0xec, 0xda, 0x0a, 0xd6, 0xcd,
  0x10, 0x31, 0xbf, 0x18, 0x29, 0xf5, 0xf9, 0x04, 0xb4, 0xde, 0xf1, 0x5f,
  0x09, 0x03, 0xf0, 0x0c, 0x46, 0xfc, 0x1b, 0x08, 0x5c, 0xc6, 0x1d, 0x1d,
  0x1b, 0x14, 0xb4, 0xc3, 0xeb, 0xd9, 0xdf, 0xcf, 0x17, 0x16, 0xd0, 0x1e,
  0x16, 0x15, 0xb2, 0x09, 0x8c, 0xa9, 0xf5, 0x2e, 0x43, 0xfc, 0x3f, 0x2a,
  0x33, 0xc4, 0xfe, 0xf7, 0x4a, 0x96, 0x35, 0xba, 0xc4, 0xc5, 0x1f, 0x2e,
  0xdb, 0x07, 0xe3, 0x22, 0x3e, 0x04, 0xcd, 0x8f, 0x40, 0xf1, 0xfb, 0xd6,
  0xfa, 0xfb, 0x31, 0x15, 0xf0, 0xf9, 0xee, 0xbd, 0xf1, 0x40, 0xfe, 0x58,
  0x26, 0xe1, 0xfa, 0xc2, 0xe8, 0x0a, 0x20, 0xee, 0x1a, 0xf2, 0xdd, 0xdf,
  0x05, 0x13, 0xd6, 0x3b, 0x2d, 0xef, 0xe1, 0x09, 0x0e, 0xc8, 0x04, 0x0c,
  0x44, 0xdd, 0xd1, 0xea, 0xef, 0x18, 0x1d, 0x12, 0x09, 0xfc, 0xf8, 0xfb,
  0xd5, 0x1f, 0xd1, 0x56, 0x16, 0x04, 0x01, 0xfa, 0xa8, 0xec, 0xe5, 0x42,
  0x30, 0x9c, 0x41, 0xbb, 0x01, 0x2b, 0x08, 0x17, 0xd4, 0x24, 0x03, 0x33,
  0x0e, 0xfa, 0xd5, 0x8e, 0x2b, 0xde, 0x1b, 0xaf, 0x39, 0x3c, 0x2f, 0x23,
  0x2c, 0xfc, 0x22, 0x20, 0x3d, 0xf6, 0xda, 0xf9, 0xec, 0xb5, 0x30, 0xd8,
  0x37, 0x08, 0x29, 0xaf, 0x11, 0xf5, 0xe0, 0x29, 0x23, 0xb7, 0xe8, 0x17,
  0xae, 0xb4, 0xff, 0xff, 0x04, 0x00, 0x00, 0x00, 0xf0, 0x00, 0x00, 0x00,
  0x8d, 0x0f, 0x00, 0x00, 0xff, 0x10, 0x00, 0x00, 0x5f, 0x15, 0x00, 0x00,
  0x00, 0x13, 0x00, 0x00, 0x62, 0x13, 0x00, 0x00, 0xf2, 0x1b, 0x00, 0x00,
  0xce, 0x19, 0x00, 0x00, 0xb1, 0x24, 0x00, 0x00, 0x22, 0x11, 0x00, 0x00,
  0x4c, 0x11, 0x00, 0x00, 0x55, 0x07, 0x00, 0x00, 0xfb, 0x26, 0x00, 0x00,
  0xcb, 0x12, 0x00, 0x00, 0xd5, 0x18, 0x00, 0x00, 0xe6, 0x1c, 0x00, 0x00,
  0x39, 0x04, 0x00, 0x00, 0x7b, 0x13, 0x00, 0x00, 0x9b, 0x1d, 0x00, 0x00,
  0x19, 0x12, 0x00, 0x00, 0xe5, 0x12, 0x00, 0x00, 0xf4, 0x12, 0x00, 0x00,
  0xbb, 0x20, 0x00, 0x00, 0xcb, 0x21, 0x00, 0x00, 0x5d, 0x13, 0x00, 0x00,
  0x44, 0x15, 0x00, 0x00, 0x4a, 0x20, 0x00, 0x00, 0x0a, 0x2a, 0x00, 0x00,
  0x4a, 0x1d, 0x00, 0x00, 0x64, 0x14, 0x00, 0x00, 0x51, 0x14, 0x00, 0x00,
  0x72, 0x10, 0x00, 0x00, 0xd9, 0x19, 0x00, 0x00, 0x09, 0x19, 0x00, 0x00,
  0x32, 0x21, 0x00, 0x00, 0x59, 0x13, 0x00, 0x00, 0xf5, 0x0d, 0x00, 0x00,
  0x78, 0x18, 0x00, 0x00, 0x9a, 0x17, 0x00, 0x00, 0xd4, 0x10, 0x00, 0x00,
  0xac, 0x1a, 0x00, 0x00, 0xeb, 0x1b, 0x00, 0x00, 0xe2, 0x1b, 0x00, 0x00,
  0x86, 0x29, 0x00, 0x00, 0x84, 0x1b, 0x00, 0x00, 0x02, 0x1a, 0x00, 0x00,
  0xe3, 0x19, 0x00, 0x00, 0x42, 0x16, 0x00, 0x00, 0xec, 0x17, 0x00, 0x00,
  0x21, 0x16, 0x00, 0x00, 0x89, 0x08, 0x00, 0x00, 0x35, 0x09, 0x00, 0x00,
  0xc0, 0x0d, 0x00, 0x00, 0xbe, 0x0a, 0x00, 0x00, 0xf1, 0x15, 0x00, 0x00,
  0x50, 0x19, 0x00, 0x00, 0x72, 0x19, 0x00, 0x00, 0x3e, 0x11, 0x00, 0x00,
  0x4a, 0x20, 0x00, 0x00, 0xf8, 0x0c, 0x00, 0x00, 0xae, 0x07, 0x00, 0x00,
  0x7c, 0xb2, 0xff, 0xff, 0x80, 0xb2, 0xff, 0xff, 0x84, 0xb2, 0xff, 0xff,
  0x88, 0xb2, 0xff, 0xff, 0xba, 0xb5, 0xff, 0xff, 0x04, 0x00, 0x00, 0x00,
  0x01, 0x00, 0x00, 0x00, 0x7f, 0x00, 0x00, 0x00, 0xca, 0xb5, 0xff, 0xff,
  0x04, 0x00, 0x00, 0x00, 0xc0, 0x12, 0x00, 0x00, 0xf9, 0xf0, 0x07, 0xf4,
  0xfb, 0x05, 0xfa, 0x0f, 0xfc, 0x08, 0xef, 0xf1, 0xf8, 0x01, 0xfc, 0xf6,
  0x02, 0x06, 0x03, 0xf6, 0xf9, 0x08, 0x00, 0x04, 0xeb, 0x10, 0x05, 0x11,
  0xfc, 0xfd, 0x03, 0xff, 0x00, 0x02, 0x04, 0x01, 0xef, 0xff, 0x09, 0xfd,
  0xfb, 0x01, 0x0e, 0xfb, 0x0a, 0xff, 0x00, 0xfb, 0x05, 0xf7, 0xf6, 0x06,
  0x04, 0x0a, 0x00, 0xfd, 0xf0, 0xfc, 0xf8, 0xf9, 0xe6, 0xf7, 0xf6, 0x0c,
  0xfa, 0x0c, 0xfd, 0xf1, 0xf6, 0x09, 0x07, 0x03, 0xfd, 0xf6, 0xfb, 0x03,
  0xfc, 0xf2, 0xf5, 0x10, 0x08, 0xff, 0x01, 0xf8, 0x02, 0xfb, 0xfe, 0x06,
  0x0b, 0xf9, 0x06, 0x0a, 0xf0, 0xf9, 0xf9, 0xff, 0x03, 0x0d, 0xf9, 0x02,
  0xff, 0x0a, 0xff, 0xf9, 0xf4, 0xfe, 0x03, 0x0b, 0xfd, 0x04, 0xf2, 0xfa,
  0x0c, 0xfc, 0xf6, 0x03, 0xfe, 0xfe, 0xff, 0xfc, 0x04, 0x06, 0xfa, 0x00,
  0x0b, 0x04, 0xfa, 0xe2, 0x03, 0xfb, 0x10, 0xf3, 0x15, 0x02, 0x04, 0x04,
  0x01, 0xdf, 0xff, 0x09, 0xef, 0x05, 0xf6, 0xcb, 0xf6, 0xf6, 0xff, 0x05,
  0xff, 0x05, 0x05, 0x13, 0xda, 0x03, 0xe0, 0xfc, 0x0b, 0xfb, 0xf7, 0x16,
  0x00, 0xf7, 0xe9, 0x01, 0x84, 0x09, 0x05, 0xfc, 0xfb, 0xfc, 0xfe, 0x06,
  0xfa, 0xf5, 0xe9, 0x12, 0xfc, 0x05, 0x0f, 0x03, 0xf8, 0xfe, 0xfd, 0x03,
  0x05, 0xff, 0xfc, 0xf6, 0x03, 0x00, 0x0f, 0xff, 0xfd, 0x00, 0xfd, 0x07,
  0x05, 0xf6, 0xfa, 0x13, 0x08, 0xfa, 0xfe, 0xfe, 0x0b, 0xf7, 0xfb, 0xf8,
  0xff, 0x05, 0xfc, 0x01, 0x02, 0xf5, 0xf6, 0x06, 0xfc, 0x0b, 0xfe, 0x01,
  0xfc, 0x00, 0x04, 0xfc, 0xe1, 0x08, 0xfc, 0x03, 0xfa, 0x04, 0x05, 0xfe,
  0x0a, 0x01, 0xfa, 0x06, 0xfe, 0xfc, 0x08, 0x08, 0x04, 0xfc, 0xf2, 0xfe,
  0xfa, 0x08, 0x08, 0xe0, 0xf9, 0x08, 0x04, 0x07, 0x03, 0xfc, 0xfe, 0xf7,
  0x0b, 0xf8, 0xfc, 0x0a, 0xfe, 0xfc, 0x05, 0xfa, 0xfb, 0xff, 0xff, 0xf2,
  0x0b, 0x01, 0x00, 0x06, 0xf5, 0xfc, 0xff, 0xfb, 0x00, 0x04, 0xf5, 0x06,
  0xfa, 0x05, 0xf9, 0xfd, 0xf8, 0x03, 0xfb, 0x05, 0xef, 0x08, 0xf2, 0xfa,
  0x02, 0xfa, 0xfd, 0x02, 0x06, 0x00, 0x03, 0xf4, 0xf3, 0xf9, 0xfd, 0x05,
  0x06, 0x05, 0x05, 0xfe, 0xf8, 0x01, 0x01, 0xf6, 0x03, 0xfa, 0xfb, 0xf9,
  0xfb, 0xfd, 0xfa, 0xf9, 0x04, 0x00, 0x04, 0x05, 0xee, 0xfd, 0xf4, 0x23,
  0x02, 0xfc, 0x06, 0xf2, 0x05, 0xfd, 0xf7, 0xfe, 0xff, 0x01, 0x05, 0x02,
  0xf5, 0x06, 0xf9, 0xf8, 0x05, 0xfb, 0x03, 0x03, 0x01, 0xfd, 0xf8, 0x06,
  0x06, 0xff, 0x01, 0xff, 0x03, 0xf8, 0xfc, 0xfc, 0xfc, 0xfa, 0x09, 0x01,
  0x00, 0xfc, 0xfc, 0xfe, 0xf5, 0x00, 0x04, 0x06, 0xfe, 0xf8, 0xf7, 0xf6,
  0xf3, 0xf3, 0xf2, 0xfe, 0x03, 0xff, 0xfe, 0xf9, 0x22, 0x01, 0xfc, 0x00,
  0xfc, 0xf6, 0x07, 0xfe, 0x02, 0xfd, 0xfe, 0x02, 0xfa, 0x04, 0x06, 0x06,
  0xf0, 0xf8, 0x06, 0xfa, 0xfa, 0xfc, 0x05, 0x04, 0x01, 0xfd, 0xf8, 0x06,
  0x0b, 0x0d, 0xf5, 0x00, 0x02, 0xfa, 0xfd, 0xf9, 0x04, 0x01, 0xf6, 0xfc,
  0xfe, 0x00, 0x05, 0xf6, 0xfb, 0x02, 0xfd, 0x0d, 0x01, 0xfe, 0xff, 0xf9,
  0x00, 0x06, 0x00, 0xfd, 0x02, 0xfb, 0x05, 0x05, 0x02, 0xf6, 0xf6, 0xf9,
  0x02, 0xfd, 0xfd, 0x03, 0x0b, 0xfd, 0x07, 0xfc, 0x04, 0xfc, 0xf9, 0x02,
  0xf5, 0xff, 0x12, 0xfc, 0x0c, 0xfc, 0xfa, 0x03, 0xf3, 0x02, 0xf6, 0xf3,
  0xff, 0xf7, 0x06, 0xfc, 0x06, 0xfc, 0xff, 0x00, 0x05, 0x10, 0xff, 0xf3,
  0xf4, 0xfd, 0xf9, 0xf3, 0xfe, 0x06, 0x01, 0x15, 0x07, 0x02, 0xfe, 0xfa,
  0x02, 0x08, 0x02, 0x01, 0x02, 0x02, 0x01, 0x08, 0x23, 0x05, 0xfe, 0xf4,
  0xfe, 0xff, 0xfc, 0x09, 0x07, 0xfe, 0x02, 0xfe, 0x0e, 0xfc, 0xfa, 0x03,
  0xff, 0xfb, 0xef, 0x03, 0x09, 0xff, 0xfe, 0xff, 0x01, 0x04, 0x01, 0xfa,
  0xfe, 0xfc, 0x07, 0x00, 0xfd, 0x03, 0x05, 0xfa, 0xfb, 0x0a, 0xfe, 0xfd,
  0xfa, 0xf1, 0xf8, 0x09, 0x04, 0x00, 0xfc, 0xf3, 0xf9, 0x06, 0xff, 0x02,
  0x11, 0x06, 0x13, 0xfd, 0x02, 0x00, 0xf9, 0x04, 0xf8, 0x09, 0x07, 0xf7,
  0xfb, 0x08, 0xf7, 0xfe, 0x01, 0x00, 0x10, 0x07, 0x06, 0x08, 0xff, 0xf7,
  0x0e, 0xfe, 0xed, 0x04, 0xec, 0x05, 0xfb, 0xfa, 0x04, 0x02, 0x08, 0xf9,
  0xfb, 0x07, 0x03, 0x02, 0xfc, 0x03, 0x06, 0x03, 0x03, 0xd9, 0x0a, 0xfc,
  0xfa, 0x09, 0xf0, 0xf8, 0xf5, 0x08, 0x0d, 0xe9, 0xf7, 0xf5, 0xfc, 0xf1,
  0xf4, 0x03, 0xf7, 0x02, 0x05, 0x0c, 0xf8, 0x00, 0xf1, 0x05, 0x07, 0x06,
  0x07, 0xf4, 0x08, 0xf9, 0xfe, 0xfc, 0xf8, 0x04, 0xf7, 0x03, 0x09, 0xf5,
  0x08, 0x03, 0xeb, 0xfe, 0x05, 0xf9, 0x0a, 0x0b, 0x02, 0xfd, 0xec, 0x0b,
  0x0b, 0x05, 0x02, 0xfb, 0xec, 0xfe, 0x05, 0xec, 0x01, 0xf2, 0x00, 0x0d,
  0x08, 0x00, 0xfb, 0xfb, 0x07, 0x05, 0xf8, 0xf2, 0xf4, 0x05, 0x03, 0x0e,
  0x08, 0xfe, 0x03, 0x01, 0x05, 0xfd, 0x00, 0x08, 0xfb, 0xfe, 0xf3, 0xff,
  0x05, 0x05, 0xfd, 0xff, 0x03, 0xfe, 0x02, 0xfe, 0xfa, 0x04, 0xfc, 0xf4,
  0xf4, 0x05, 0x01, 0xf8, 0xf8, 0x07, 0xfb, 0x09, 0xf6, 0x03, 0x05, 0xfa,
  0x04, 0x00, 0xfd, 0xff, 0xff, 0xff, 0xf2, 0x0d, 0xf8, 0xfe, 0xf9, 0x00,
  0xf5, 0x05, 0x04, 0xfe, 0xf6, 0xfc, 0x0b, 0x08, 0x02, 0xf9, 0xff, 0xfc,
  0xfe, 0xf2, 0xf9, 0x1f, 0x03, 0xf9, 0x05, 0xf1, 0x0a, 0xf5, 0x08, 0xf0,
  0x00, 0xfe, 0xfc, 0x0f, 0xf5, 0xfd, 0xf1, 0xf6, 0xff, 0x04, 0xf8, 0x03,
  0x06, 0xfc, 0xf2, 0xfe, 0x05, 0x02, 0xfe, 0x01, 0x01, 0xfe, 0xf2, 0xfd,
  0xfe, 0xfa, 0xfb, 0x01, 0xfd, 0xff, 0x08, 0xf3, 0xf3, 0xfa, 0x0d, 0x0a,
  0xfb, 0xfc, 0xf9, 0x09, 0x05, 0xfd, 0xfb, 0xed, 0xf6, 0x03, 0x09, 0x01,
  0x02, 0x01, 0x01, 0x02, 0xfc, 0x02, 0xfb, 0x01, 0xe8, 0x04, 0x06, 0xfa,
  0xfd, 0x03, 0xfb, 0xf9, 0xfa, 0x03, 0x00, 0x01, 0xf9, 0x01, 0x0c, 0xf7,
  0x0b, 0x01, 0xfe, 0xff, 0xf9, 0x06, 0x03, 0xfb, 0x05, 0xfd, 0x09, 0x08,
  0x06, 0x05, 0x00, 0x02, 0xf4, 0x00, 0xfc, 0x09, 0x07, 0x01, 0x04, 0xf8,
  0xff, 0xef, 0x04, 0x13, 0x0c, 0xf5, 0xea, 0xfd, 0xf9, 0x09, 0x02, 0x07,
  0x08, 0x03, 0x0e, 0xf9, 0xfb, 0xfd, 0x04, 0x05, 0xfe, 0x01, 0xff, 0x02,
  0xfb, 0x06, 0xf2, 0xf5, 0x08, 0x03, 0x08, 0xff, 0xfb, 0xfe, 0xff, 0xf9,
  0x01, 0x02, 0x0e, 0x00, 0xfe, 0x04, 0xf8, 0xff, 0xff, 0x00, 0x14, 0xfa,
  0xf9, 0x09, 0xfb, 0xfb, 0xfb, 0x01, 0xed, 0x0e, 0x02, 0x01, 0x0b, 0xfd,
  0x17, 0x07, 0xec, 0xfb, 0xfb, 0x09, 0x1c, 0x0b, 0x07, 0xfa, 0xf3, 0xfc,
  0xff, 0xf2, 0xfd, 0xff, 0xfc, 0xff, 0xca, 0xee, 0x1b, 0x0b, 0xff, 0x14,
  0xf4, 0xf7, 0x06, 0xfa, 0x0f, 0xf1, 0x02, 0x09, 0xfa, 0x04, 0x10, 0x04,
  0xff, 0xdd, 0xf0, 0xf5, 0x10, 0xff, 0x0e, 0xf7, 0x0c, 0xfd, 0xfe, 0x0a,
  0x14, 0x0a, 0xfa, 0x0b, 0xf0, 0xe5, 0x03, 0xf8, 0xfb, 0xf4, 0xf8, 0xff,
  0xfa, 0x0a, 0xf9, 0x03, 0x05, 0x03, 0x08, 0x04, 0xfe, 0xfa, 0xfd, 0x07,
  0xfc, 0x03, 0xfa, 0x08, 0x05, 0xfe, 0xfc, 0xff, 0x07, 0x07, 0xfe, 0x07,
  0x0a, 0x06, 0x08, 0x0b, 0xf7, 0xf0, 0xff, 0x07, 0xee, 0x07, 0xff, 0xf6,
  0xf4, 0x03, 0xf4, 0xf4, 0x10, 0x03, 0x01, 0xfe, 0x07, 0x02, 0x08, 0x0c,
  0x01, 0xfb, 0x07, 0xf9, 0x00, 0xf2, 0x07, 0x04, 0x02, 0xf5, 0x0a, 0x03,
  0xf6, 0xfe, 0x01, 0x13, 0x01, 0xfc, 0xf8, 0x00, 0xf4, 0x00, 0xf9, 0xff,
  0xff, 0x05, 0x00, 0xfe, 0xfe, 0x00, 0x01, 0xfb, 0xf9, 0x03, 0x01, 0xfe,
  0xff, 0x01, 0x01, 0xfc, 0xfe, 0x01, 0xfc, 0x07, 0xed, 0x04, 0x08, 0xf3,
  0x03, 0x03, 0x05, 0xfd, 0x02, 0x01, 0x07, 0x01, 0x0f, 0xfc, 0x02, 0x08,
  0x04, 0x0d, 0x04, 0xff, 0xff, 0xfa, 0x00, 0xfd, 0xf4, 0xee, 0x21, 0xfa,
  0xfc, 0xf7, 0x04, 0x21, 0xf3, 0x19, 0xeb, 0xfe, 0xec, 0xf8, 0xf2, 0xf0,
  0xfd, 0x12, 0xff, 0xf8, 0x09, 0x05, 0x03, 0x0c, 0xf6, 0x17, 0x08, 0x1b,
  0x0a, 0xf9, 0xff, 0xf2, 0x08, 0x00, 0x1d, 0x20, 0xf1, 0x1e, 0x18, 0xec,
  0x09, 0x03, 0x0f, 0xf5, 0x1a, 0xfc, 0x04, 0x0c, 0x19, 0x06, 0xec, 0x00,
  0x21, 0x20, 0x0c, 0x08, 0xfc, 0xf6, 0xf3, 0xee, 0xfe, 0xfe, 0xf9, 0xee,
  0xfc, 0x08, 0xf5, 0xfd, 0xfd, 0x09, 0x0a, 0xfc, 0x06, 0xff, 0xf6, 0xf7,
  0x0c, 0xff, 0x09, 0x09, 0xfc, 0xf8, 0xee, 0xfa, 0xf5, 0x0a, 0x08, 0x05,
  0x03, 0x01, 0xff, 0x12, 0xf6, 0xf2, 0x09, 0x06, 0x03, 0x0c, 0xfc, 0xfe,
  0x06, 0xfb, 0xef, 0xef, 0xff, 0x08, 0x01, 0xf7, 0x06, 0x02, 0xf6, 0x06,
  0x04, 0x01, 0x01, 0x0c, 0x00, 0xef, 0x11, 0xef, 0x02, 0x06, 0xff, 0xfe,
  0xfc, 0xf1, 0x07, 0xe4, 0x03, 0xf6, 0xef, 0x20, 0xff, 0x01, 0xfb, 0xfb,
  0x04, 0x01, 0x07, 0xf4, 0x01, 0xf7, 0x05, 0x09, 0x1b, 0xee, 0xf2, 0x12,
  0xfc, 0xff, 0xfe, 0xf1, 0x02, 0xfb, 0x05, 0x00, 0x02, 0xf2, 0x00, 0x00,
  0xf8, 0xfd, 0x1f, 0x00, 0x15, 0xf5, 0xf8, 0x03, 0xef, 0x08, 0x08, 0xfb,
  0xff, 0x02, 0x02, 0xf6, 0x06, 0xfc, 0xf5, 0x02, 0xf0, 0xf8, 0x04, 0x07,
  0x07, 0x0c, 0x03, 0xf5, 0xf7, 0x00, 0x02, 0xfd, 0x06, 0xf6, 0xf9, 0xfb,
  0xfb, 0xfb, 0xf8, 0x03, 0x02, 0x06, 0x01, 0xfa, 0xff, 0x00, 0x01, 0x03,
  0x08, 0xfb, 0x09, 0xfa, 0xf4, 0xfe, 0xf9, 0x07, 0x03, 0x09, 0x06, 0x08,
  0x02, 0x05, 0xfa, 0xfb, 0xf1, 0xfc, 0x0b, 0x04, 0x06, 0xff, 0xf8, 0x09,
  0x09, 0x04, 0xff, 0x05, 0x04, 0xfa, 0xf9, 0xf7, 0xf9, 0xfd, 0x02, 0x07,
  0x03, 0xfd, 0xfd, 0x09, 0x0a, 0xfe, 0xf4, 0xe3, 0xf7, 0x09, 0x03, 0x09,
  0x02, 0x04, 0x06, 0x06, 0xfe, 0xfc, 0xff, 0x09, 0xdc, 0x02, 0x05, 0xfa,
  0xff, 0x07, 0xfc, 0x01, 0xfe, 0x02, 0x0a, 0xff, 0xfd, 0xfe, 0x01, 0xf7,
  0x05, 0x03, 0x06, 0x00, 0xf6, 0x00, 0xfb, 0xfe, 0xfe, 0x03, 0x12, 0xfb,
  0xfc, 0xfe, 0x03, 0xfe, 0xf9, 0xff, 0x01, 0x0c, 0xe4, 0x02, 0xf6, 0x03,
  0xf6, 0xf4, 0xfa, 0xf9, 0x08, 0xf5, 0xf4, 0xef, 0xf9, 0x0b, 0x08, 0x02,
  0x10, 0x05, 0x0f, 0xfd, 0xfc, 0x01, 0xfa, 0x02, 0xf0, 0x01, 0x08, 0xf2,
  0xf5, 0x0f, 0xf7, 0xfd, 0xfb, 0x02, 0x08, 0xfe, 0x03, 0x06, 0xfa, 0xfd,
  0x18, 0xfa, 0xf9, 0x00, 0xe6, 0x12, 0xfe, 0xf9, 0xfa, 0xff, 0x0b, 0xf8,
  0xfd, 0xfe, 0xfe, 0x09, 0xf6, 0x02, 0xf7, 0x0a, 0x14, 0x00, 0xfa, 0x04,
  0x05, 0x02, 0x0b, 0xf5, 0xfa, 0x01, 0x02, 0x0a, 0x07, 0xfd, 0xfe, 0x04,
  0xff, 0xff, 0xf8, 0x01, 0x08, 0xfd, 0x06, 0xfd, 0x12, 0xf8, 0xf3, 0xf8,
  0x04, 0xff, 0x02, 0xfc, 0x06, 0xff, 0xfa, 0xff, 0x07, 0x06, 0xfa, 0x07,
  0xf5, 0x04, 0x07, 0xfb, 0x00, 0xfc, 0xfd, 0x0a, 0xf9, 0x02, 0xff, 0xfc,
  0x01, 0xfd, 0x00, 0xfb, 0x0a, 0x00, 0xf7, 0x03, 0x0e, 0xfa, 0x02, 0xfa,
  0x08, 0x02, 0x05, 0x01, 0xf0, 0xfa, 0x05, 0xdf, 0x04, 0xf4, 0xf1, 0xee,
  0xe7, 0xff, 0xe8, 0x01, 0xff, 0x08, 0x04, 0x02, 0xd7, 0xf1, 0x01, 0x0c,
  0x01, 0xef, 0x0d, 0xf3, 0xfe, 0xfa, 0xf6, 0xfb, 0xfa, 0xfe, 0x0b, 0x05,
  0xef, 0x02, 0xfc, 0x02, 0x17, 0xf0, 0x02, 0x04, 0xfa, 0xfb, 0xe8, 0x10,
  0xff, 0xfe, 0xff, 0xf5, 0x08, 0xfd, 0xfd, 0xed, 0xf9, 0xfd, 0x13, 0x01,
  0x00, 0xfb, 0xfb, 0x08, 0x03, 0xfe, 0xfe, 0xee, 0xf9, 0x05, 0xfd, 0x03,
  0x04, 0xfd, 0x0a, 0xfe, 0x00, 0x00, 0xfc, 0xff, 0xf7, 0x07, 0x0c, 0x08,
  0xfb, 0x04, 0xff, 0x00, 0xfb, 0x04, 0x00, 0x05, 0xfa, 0x02, 0x0b, 0xfa,
  0x10, 0xfd, 0xff, 0x00, 0xfb, 0x05, 0x0b, 0x01, 0x09, 0xfe, 0x0a, 0x0b,
  0x05, 0x0d, 0xff, 0x01, 0xf7, 0xfb, 0xfb, 0x00, 0x16, 0x01, 0x02, 0x0b,
  0x0c, 0xfd, 0xfe, 0x10, 0x06, 0xff, 0xfb, 0xf0, 0xec, 0xff, 0x00, 0x09,
  0xfa, 0xfe, 0xfd, 0x06, 0xfc, 0xef, 0x03, 0x0a, 0xfe, 0xf6, 0xfc, 0x07,
  0xfd, 0xff, 0xfb, 0x00, 0x0d, 0xfc, 0x02, 0xf9, 0xfc, 0xff, 0xfe, 0xf4,
  0xf5, 0xfe, 0x17, 0xfe, 0xfd, 0xfb, 0xf7, 0xf8, 0xfe, 0xfa, 0x06, 0xfe,
  0xfe, 0xff, 0xfc, 0xff, 0xf6, 0xff, 0xfb, 0x0c, 0xf1, 0xf9, 0x0a, 0x03,
  0xf7, 0x08, 0xff, 0xfc, 0xf7, 0x0f, 0xfd, 0x04, 0x02, 0xf9, 0xfb, 0xfb,
  0xf8, 0xe6, 0xf8, 0x08, 0x07, 0xfe, 0xff, 0xf2, 0x15, 0xfb, 0x05, 0x09,
  0x0b, 0xf9, 0x01, 0xfd, 0xee, 0xff, 0x00, 0x0a, 0xfe, 0x0f, 0x08, 0x07,
  0x01, 0xff, 0xfc, 0xfc, 0xfa, 0xf9, 0x06, 0x07, 0x07, 0x00, 0xfd, 0x0b,
  0x0d, 0x05, 0xee, 0xfe, 0x01, 0xf8, 0xe9, 0xff, 0x0c, 0x06, 0x09, 0x14,
  0x0a, 0xfc, 0xfc, 0xfa, 0x05, 0xfb, 0x0d, 0xfe, 0xfc, 0xfe, 0xff, 0x0f,
  0xf5, 0xe9, 0xf0, 0x13, 0x05, 0xf2, 0xfd, 0xfa, 0x0a, 0xf3, 0xfb, 0xf3,
  0xf3, 0x03, 0x03, 0x05, 0x09, 0xf4, 0xf9, 0xfc, 0xfe, 0x07, 0x03, 0x02,
  0xf4, 0xff, 0xfd, 0xfe, 0xfb, 0x09, 0x07, 0xf9, 0x0c, 0xff, 0x07, 0x02,
  0x0a, 0x0a, 0xed, 0x0f, 0xfa, 0xf8, 0x06, 0x06, 0x23, 0xfa, 0xf9, 0x0a,
  0x01, 0x00, 0xfd, 0xff, 0x04, 0xf0, 0xfc, 0xfe, 0xfa, 0x08, 0x06, 0x05,
  0x04, 0xea, 0xfd, 0x03, 0xf6, 0xfe, 0xfd, 0x02, 0x04, 0xdc, 0xf9, 0xe9,
  0xf7, 0x04, 0xfe, 0x0e, 0x07, 0xfd, 0x06, 0xe8, 0xf5, 0xf5, 0x01, 0x02,
  0xfc, 0xff, 0x05, 0x06, 0x07, 0x07, 0xf9, 0xfd, 0xea, 0xfa, 0xf9, 0xf1,
  0x01, 0xfd, 0xea, 0x07, 0xfb, 0x06, 0xf8, 0x06, 0x14, 0x07, 0x06, 0xfd,
  0x04, 0xf6, 0x00, 0x0f, 0x06, 0xf4, 0xf2, 0xff, 0xfb, 0x01, 0xff, 0x05,
  0x00, 0x05, 0x05, 0xfa, 0xfb, 0xfb, 0x03, 0x09, 0x07, 0xf9, 0xef, 0x01,
  0xf4, 0x04, 0xf5, 0xf8, 0x0b, 0x04, 0x04, 0xfd, 0x00, 0xf9, 0x03, 0xfb,
  0xf6, 0xfc, 0x11, 0x02, 0x02, 0xfb, 0xfb, 0xf8, 0x01, 0xfc, 0x0e, 0xf8,
  0xf9, 0x03, 0xfd, 0xfb, 0xfe, 0x04, 0xf7, 0x0c, 0x0d, 0xf9, 0x0a, 0xe7,
  0x03, 0xff, 0xfa, 0x04, 0xfc, 0x07, 0x01, 0x08, 0xfe, 0xfe, 0xef, 0xf4,
  0x06, 0x00, 0x08, 0xfc, 0xfb, 0xfd, 0xf2, 0xf9, 0x08, 0x04, 0x13, 0x0c,
  0xfd, 0xfb, 0xfe, 0xf8, 0x0b, 0xf0, 0x02, 0x03, 0xf2, 0x04, 0x0d, 0xfd,
  0x0b, 0xf8, 0xfa, 0xed, 0x10, 0xfe, 0x00, 0xfa, 0x05, 0xfa, 0xf6, 0x0f,
  0x06, 0x09, 0x01, 0x02, 0x01, 0xe8, 0x00, 0xf1, 0x00, 0xfd, 0x08, 0xf6,
  0x03, 0xf7, 0xfe, 0xfa, 0xfb, 0x04, 0xe7, 0x00, 0xff, 0x01, 0xff, 0xee,
  0x03, 0x0d, 0x0c, 0xe7, 0xfc, 0x0c, 0x02, 0x12, 0xfd, 0x01, 0xf7, 0xfa,
  0xfe, 0xf1, 0x05, 0xe8, 0x01, 0x0e, 0x0f, 0x02, 0x00, 0xf6, 0x09, 0xfb,
  0xf7, 0xfe, 0x00, 0xff, 0x00, 0xee, 0xfb, 0x04, 0xf4, 0xfe, 0xfe, 0xfe,
  0x02, 0x06, 0x06, 0xed, 0xff, 0x04, 0xee, 0xfc, 0xf8, 0xfc, 0x0c, 0x0f,
  0xf6, 0xf2, 0xff, 0xfd, 0x04, 0xed, 0xfb, 0x04, 0xf9, 0xfb, 0xff, 0x09,
  0xee, 0xf7, 0xef, 0xfd, 0x05, 0xff, 0x04, 0xff, 0x08, 0xf2, 0xfc, 0xf1,
  0xf9, 0xfc, 0xfc, 0xec, 0x02, 0xff, 0xef, 0xfe, 0xfb, 0xfb, 0x0d, 0x01,
  0xfb, 0x02, 0x15, 0x03, 0x14, 0xf7, 0x09, 0x01, 0xff, 0x03, 0x10, 0x02,
  0x0b, 0x09, 0xf7, 0xfb, 0xff, 0x00, 0xea, 0x0e, 0xff, 0xf5, 0x01, 0x10,
  0x0d, 0x04, 0xf6, 0xff, 0x05, 0x08, 0x01, 0xf0, 0xef, 0x03, 0x03, 0x08,
  0x0d, 0xfe, 0x01, 0x03, 0x04, 0xfc, 0xf9, 0x08, 0x06, 0xfe, 0xf2, 0x04,
  0x0b, 0x01, 0xff, 0xfe, 0x02, 0x02, 0x06, 0x01, 0xfc, 0x02, 0xff, 0xf2,
  0xec, 0x05, 0x00, 0xfc, 0xed, 0x05, 0xf4, 0x0c, 0xf1, 0x06, 0x03, 0xfd,
  0x04, 0xfd, 0xfd, 0x00, 0xfb, 0x03, 0xf9, 0x0c, 0xf1, 0xf1, 0x05, 0x00,
  0xf4, 0x0b, 0x0e, 0x07, 0xfa, 0x0a, 0xf7, 0xff, 0xfc, 0xfb, 0xfa, 0xfd,
  0x01, 0xfa, 0xff, 0xfd, 0x05, 0xff, 0x0b, 0xf3, 0xf6, 0x00, 0xfe, 0x06,
  0x14, 0xfd, 0xfe, 0xfe, 0xfa, 0x00, 0x02, 0x03, 0xf2, 0x09, 0x04, 0xf9,
  0xff, 0x07, 0x07, 0xf8, 0xfe, 0xfe, 0x07, 0x11, 0x02, 0xfe, 0xf9, 0x03,
  0x05, 0x05, 0xfa, 0xfe, 0x03, 0xf8, 0xf1, 0xf9, 0x12, 0x04, 0x02, 0x02,
  0x02, 0xf2, 0x03, 0xf9, 0x07, 0xf8, 0xeb, 0x06, 0xfc, 0x03, 0xfe, 0x02,
  0x01, 0xff, 0x06, 0xf8, 0xfd, 0xf8, 0x02, 0x09, 0x06, 0xfc, 0xee, 0x0d,
  0xf5, 0x01, 0xf8, 0xf8, 0x0b, 0xfe, 0x0b, 0xff, 0xff, 0xfa, 0x04, 0xfd,
  0xf4, 0xfe, 0x1a, 0x02, 0x02, 0xfe, 0xf6, 0xff, 0xf6, 0x01, 0x0f, 0xf5,
  0xfe, 0x09, 0xfd, 0xf6, 0x01, 0x00, 0xf7, 0x0d, 0xe1, 0x01, 0x05, 0x07,
  0x06, 0xff, 0xf7, 0xf6, 0x02, 0x01, 0xfd, 0xf0, 0x04, 0x03, 0x03, 0xfe,
  0xfc, 0xfe, 0xfb, 0x08, 0xfa, 0x06, 0xfe, 0xfb, 0xe0, 0xfb, 0x04, 0xfa,
  0xfa, 0x01, 0x01, 0xf6, 0xf6, 0x02, 0xf7, 0xfd, 0x08, 0x04, 0x09, 0x0d,
  0x09, 0xff, 0xf4, 0x08, 0xd9, 0x00, 0x01, 0xfe, 0xfa, 0x02, 0x06, 0xfe,
  0x08, 0x02, 0xf9, 0x06, 0xf4, 0x08, 0x04, 0x05, 0x05, 0x01, 0x03, 0x07,
  0x07, 0xfc, 0xfa, 0x11, 0x01, 0x02, 0xf5, 0xf3, 0xed, 0x05, 0x00, 0x01,
  0x08, 0x08, 0x06, 0xfd, 0xfe, 0xf5, 0xf9, 0x0d, 0x00, 0xff, 0xf3, 0x0d,
  0xfb, 0xfd, 0xfb, 0x03, 0x0e, 0xff, 0x0c, 0x01, 0xfd, 0x00, 0xfd, 0xed,
  0xf4, 0xfc, 0x10, 0xfa, 0x01, 0x06, 0xf8, 0xfc, 0x00, 0xfb, 0xfa, 0xfb,
  0x01, 0x05, 0x00, 0x05, 0xf9, 0xfb, 0xff, 0xff, 0x01, 0x0b, 0xf9, 0x0d,
  0xff, 0xf9, 0xf8, 0xe8, 0x0a, 0xfd, 0x07, 0x01, 0x02, 0x09, 0x06, 0x0d,
  0xfc, 0xf8, 0xfb, 0x11, 0xfb, 0xfa, 0xfc, 0x01, 0x09, 0xf8, 0x02, 0x05,
  0xf5, 0x07, 0x03, 0x0c, 0xff, 0xff, 0x01, 0xfa, 0x0e, 0xff, 0xf8, 0x09,
  0xfa, 0xfd, 0xf8, 0x05, 0xfe, 0x05, 0xfd, 0xf3, 0xf7, 0x03, 0x15, 0xfc,
  0xff, 0xf7, 0xf8, 0x07, 0xf5, 0x05, 0x04, 0x18, 0x04, 0x00, 0x07, 0xfc,
  0xea, 0xf6, 0x03, 0x07, 0x02, 0x04, 0xff, 0x16, 0xfa, 0xff, 0xf5, 0x02,
  0x06, 0x00, 0x05, 0xfe, 0x06, 0xf2, 0xfd, 0x01, 0x13, 0x02, 0x03, 0x04,
  0xfa, 0xfd, 0xf6, 0x01, 0x06, 0xf7, 0x06, 0x04, 0xf8, 0xfe, 0x07, 0xf0,
  0x06, 0xfe, 0xff, 0xf9, 0x0c, 0xfb, 0xfc, 0x04, 0x06, 0x08, 0x07, 0x09,
  0x03, 0x02, 0xff, 0xfd, 0x00, 0xf3, 0x01, 0x01, 0xf4, 0xef, 0x18, 0x0a,
  0xf8, 0xff, 0xfc, 0x04, 0xec, 0x06, 0xfe, 0xff, 0xf8, 0xef, 0xfa, 0xe4,
  0xe1, 0x05, 0xe7, 0xf9, 0x02, 0x09, 0x00, 0x0d, 0xfb, 0xf9, 0x05, 0x13,
  0x01, 0xd8, 0x03, 0xea, 0x00, 0x02, 0x0b, 0x02, 0xfd, 0xfd, 0x12, 0xf9,
  0xfd, 0x00, 0xfb, 0xfe, 0x12, 0xdf, 0x07, 0x06, 0xfe, 0x03, 0xf7, 0x0f,
  0x0e, 0x0d, 0x02, 0xf8, 0xf1, 0xfd, 0xf9, 0xf8, 0x13, 0x06, 0x00, 0xf0,
  0xee, 0xf9, 0xfd, 0x05, 0x01, 0x09, 0x08, 0x0e, 0xfb, 0x02, 0xfe, 0xfe,
  0x07, 0x0b, 0x06, 0x00, 0x03, 0xf4, 0xfe, 0x05, 0x0f, 0x0c, 0xfb, 0x10,
  0x02, 0xff, 0xea, 0x0b, 0x0b, 0xf9, 0x0c, 0x06, 0x01, 0xfd, 0xfb, 0xf3,
  0xfd, 0xfd, 0xff, 0xfb, 0x12, 0xfe, 0xfa, 0x02, 0x02, 0x02, 0xfe, 0xf9,
  0x01, 0xfd, 0x04, 0xfc, 0x08, 0xfb, 0x09, 0xff, 0xe8, 0xce, 0x07, 0xfc,
  0xfd, 0x13, 0xf4, 0x15, 0xf2, 0xff, 0xf1, 0xce, 0xf4, 0xf9, 0xfa, 0xe5,
  0x02, 0xf5, 0x01, 0xf7, 0xec, 0x10, 0xf8, 0xe0, 0xc6, 0xfe, 0x17, 0x03,
  0x05, 0xf7, 0x10, 0xfa, 0xf6, 0x04, 0x01, 0x03, 0xea, 0x0c, 0x08, 0x04,
  0x0e, 0xf8, 0x0a, 0x02, 0xed, 0x08, 0x0e, 0xf8, 0x06, 0xec, 0xd8, 0x05,
  0x07, 0x09, 0xff, 0x13, 0xe0, 0x03, 0xf2, 0xdf, 0xfe, 0xf8, 0xfa, 0xfa,
  0x09, 0x07, 0x02, 0xf3, 0x00, 0xfb, 0xf9, 0xfd, 0x05, 0x02, 0x01, 0xf6,
  0x02, 0x01, 0xff, 0xfc, 0xfe, 0x04, 0x03, 0x05, 0x00, 0xff, 0x03, 0xf3,
  0x00, 0x02, 0x05, 0xf9, 0x00, 0x0a, 0xfc, 0xfb, 0x00, 0x00, 0xfe, 0x0b,
  0x07, 0x04, 0xfb, 0x02, 0xf7, 0xfc, 0xfc, 0xff, 0xf8, 0x01, 0x00, 0xfc,
  0xfe, 0xfd, 0x01, 0xfa, 0x00, 0x09, 0xf6, 0x00, 0x11, 0xff, 0xf8, 0x0d,
  0x00, 0xff, 0xff, 0x12, 0x06, 0x00, 0xfa, 0xf3, 0xf2, 0x04, 0x03, 0x09,
  0x01, 0xfa, 0xfe, 0x00, 0x00, 0xf7, 0x01, 0x02, 0xf9, 0xf8, 0xfc, 0x09,
  0x02, 0x03, 0xf6, 0x00, 0x04, 0xfc, 0x02, 0xfa, 0xfa, 0xfe, 0xfd, 0xf9,
  0xf1, 0x02, 0x15, 0x04, 0xfa, 0x01, 0xf2, 0x01, 0xf9, 0xfc, 0x08, 0xf8,
  0xff, 0xfc, 0xfa, 0xfb, 0x00, 0x02, 0xfd, 0x0d, 0x05, 0xf6, 0x04, 0xf8,
  0xf6, 0x04, 0x01, 0x0a, 0x00, 0x00, 0x09, 0x07, 0xfc, 0xff, 0xf7, 0x00,
  0x04, 0x08, 0x03, 0x01, 0x07, 0xfb, 0x02, 0x01, 0x00, 0x02, 0xf9, 0x0d,
  0x03, 0x04, 0x03, 0x06, 0x02, 0xf3, 0x06, 0x08, 0xf6, 0x05, 0x05, 0xf0,
  0xf5, 0x03, 0x03, 0xf6, 0x0b, 0x01, 0x07, 0x02, 0x06, 0x00, 0xfc, 0x06,
  0x03, 0x00, 0x09, 0xfb, 0x01, 0xf1, 0x04, 0xfa, 0xf8, 0x06, 0xfc, 0xfa,
  0x01, 0xf9, 0xfc, 0x0b, 0x04, 0xfe, 0xf4, 0xf0, 0xfb, 0x03, 0xff, 0xfe,
  0x06, 0x03, 0x08, 0x02, 0xfa, 0x01, 0xfb, 0x07, 0xe6, 0x06, 0x09, 0x05,
  0xf5, 0x07, 0xff, 0x04, 0x03, 0x05, 0x0b, 0xfe, 0x01, 0xfe, 0xfc, 0xfd,
  0x08, 0xfc, 0xf6, 0x00, 0xf2, 0x04, 0xfc, 0xf6, 0x03, 0x01, 0x06, 0xf9,
  0xfa, 0x03, 0xff, 0x00, 0xf6, 0xfe, 0x02, 0x01, 0xf1, 0xfe, 0xed, 0xff,
  0x02, 0x02, 0x03, 0x07, 0xfa, 0xf6, 0x11, 0x07, 0x04, 0xfb, 0xfa, 0x06,
  0xfc, 0xed, 0xf5, 0x1b, 0xfd, 0xf7, 0xff, 0xec, 0x15, 0xfb, 0x0a, 0xef,
  0xff, 0x07, 0x01, 0x1f, 0xfa, 0xf3, 0xf7, 0xfb, 0xf6, 0x07, 0xef, 0x05,
  0xff, 0xfc, 0x0e, 0xfa, 0xfd, 0x0c, 0x00, 0x00, 0x04, 0xf6, 0xf0, 0x01,
  0xf6, 0xf2, 0xf9, 0x04, 0x04, 0xfd, 0x07, 0xf4, 0x04, 0x04, 0x00, 0xfa,
  0xf5, 0xfb, 0x05, 0x01, 0xf7, 0xfa, 0xfa, 0x0d, 0x01, 0xf9, 0xf6, 0xf5,
  0xfb, 0xf9, 0xfd, 0xfc, 0xf4, 0x02, 0xfd, 0xf7, 0x00, 0x01, 0x07, 0x0a,
  0xf9, 0xf8, 0xfa, 0xfe, 0xfa, 0xfd, 0x04, 0x02, 0xfd, 0x04, 0x03, 0x0c,
  0x0a, 0xfc, 0xf6, 0x01, 0x0b, 0xfb, 0xff, 0xf7, 0x05, 0xf7, 0xfb, 0xfc,
  0x02, 0x01, 0xf9, 0xfe, 0xfe, 0xfd, 0x02, 0xfe, 0xdb, 0x0a, 0x08, 0xf8,
  0x01, 0xf0, 0xfb, 0xff, 0x01, 0xfc, 0xfa, 0xf1, 0xfb, 0x03, 0xf8, 0xfc,
  0x03, 0x03, 0x0a, 0xfa, 0x00, 0x04, 0xfc, 0x03, 0xf4, 0x0f, 0xfb, 0x0a,
  0xf3, 0x01, 0xfd, 0xf3, 0xfc, 0x02, 0x08, 0x07, 0xff, 0x05, 0x05, 0xfa,
  0x05, 0xf8, 0xea, 0xff, 0xf4, 0xfe, 0x00, 0xf7, 0x0e, 0xfc, 0x0a, 0x04,
  0x02, 0x0c, 0x00, 0xfc, 0xfb, 0x01, 0xf6, 0xfe, 0x0e, 0xfc, 0xf0, 0x09,
  0x02, 0xf9, 0x00, 0x01, 0x05, 0x00, 0xf9, 0x09, 0xf6, 0x01, 0x04, 0x07,
  0xfd, 0x03, 0xfd, 0x08, 0x03, 0xfa, 0x06, 0x0a, 0x03, 0xf5, 0xf4, 0xfc,
  0xfb, 0x02, 0x01, 0x08, 0x01, 0xfd, 0x04, 0xfa, 0xfc, 0x02, 0xf5, 0xfc,
  0xfa, 0x05, 0x1a, 0x01, 0x00, 0xfc, 0xf2, 0x01, 0xf2, 0x06, 0x09, 0xf1,
  0x01, 0xfb, 0xfc, 0xf4, 0xfb, 0x02, 0xfe, 0x0d, 0x03, 0xfb, 0xfd, 0x07,
  0x08, 0x00, 0xfa, 0xf9, 0x05, 0x05, 0x00, 0xed, 0xf7, 0x09, 0xff, 0x01,
  0x0d, 0xff, 0x07, 0x00, 0x00, 0x02, 0xfb, 0x08, 0xfc, 0xfe, 0xf4, 0x01,
  0xfe, 0x00, 0xfe, 0xff, 0x04, 0x01, 0x0b, 0x08, 0x01, 0xfe, 0xfe, 0xf8,
  0xf4, 0x01, 0xf7, 0xf6, 0xf8, 0x07, 0x00, 0x01, 0xfc, 0x03, 0xfd, 0xfc,
  0x03, 0x03, 0x00, 0x0a, 0xf7, 0xfa, 0x01, 0x04, 0xf3, 0xf3, 0x0d, 0x04,
  0xf9, 0x08, 0x06, 0xf9, 0xf9, 0x02, 0xff, 0xfc, 0x00, 0xfa, 0xfa, 0xf6,
  0xf6, 0x01, 0xfc, 0xfe, 0x08, 0x09, 0x05, 0xfd, 0xf9, 0xff, 0x03, 0x09,
  0x08, 0xf8, 0x01, 0xf7, 0xf8, 0x05, 0xf6, 0x08, 0xfb, 0x03, 0x0b, 0xfe,
  0x02, 0x07, 0xf3, 0xf6, 0x08, 0xf7, 0x09, 0x10, 0x01, 0x06, 0xf8, 0x0c,
  0x0c, 0x03, 0x02, 0xf8, 0x02, 0xfd, 0xf3, 0xf7, 0xf0, 0xf8, 0xf8, 0xfd,
  0xfe, 0x04, 0xf8, 0xf4, 0x07, 0x02, 0x0e, 0xf8, 0x00, 0x06, 0x02, 0x05,
  0x0a, 0xfb, 0x06, 0x18, 0x01, 0xfb, 0xfb, 0xee, 0x01, 0xfe, 0x05, 0xe3,
  0x02, 0x0f, 0xfe, 0x14, 0x00, 0xf8, 0xe3, 0xfe, 0xfc, 0x05, 0xf6, 0x02,
  0x08, 0x00, 0xfb, 0xfa, 0xea, 0x1a, 0x05, 0xfe, 0x04, 0x01, 0xff, 0x08,
  0xff, 0xf5, 0x00, 0x14, 0xfb, 0xfd, 0x10, 0xff, 0xe9, 0xeb, 0x0d, 0x01,
  0xf4, 0x07, 0x0e, 0x07, 0xf8, 0x07, 0xef, 0xfe, 0xf9, 0xf8, 0xfc, 0xfd,
  0x00, 0xf2, 0xfb, 0x09, 0x0d, 0xfd, 0x0c, 0xf4, 0x03, 0xf3, 0x0b, 0x0c,
  0x0e, 0xfc, 0xfd, 0xf5, 0x05, 0xfc, 0xff, 0xfe, 0xef, 0x0a, 0x0b, 0xfe,
  0x03, 0x0e, 0x02, 0xf8, 0x03, 0xfd, 0x05, 0x13, 0x00, 0xfa, 0xf2, 0x09,
  0x12, 0x01, 0xf4, 0xff, 0xfe, 0xfb, 0xe5, 0xfa, 0xf7, 0xf1, 0x10, 0xfa,
  0xff, 0xfb, 0xfb, 0xfd, 0xfa, 0x05, 0xfb, 0xe0, 0xfb, 0xf7, 0xfc, 0xf5,
  0xf8, 0x0a, 0xfc, 0xf4, 0xff, 0x09, 0xfc, 0x05, 0xe9, 0x06, 0x02, 0x15,
  0xfd, 0xf4, 0x07, 0xe7, 0xfa, 0x05, 0xff, 0x03, 0xf6, 0xff, 0x14, 0xfb,
  0x07, 0x02, 0xf4, 0x00, 0x0e, 0xf1, 0x06, 0x03, 0xff, 0xfd, 0xfa, 0x0b,
  0x0f, 0x0a, 0x01, 0xf5, 0xf7, 0xfd, 0xf5, 0xf8, 0xf2, 0x02, 0x11, 0x06,
  0xfd, 0xfc, 0xfb, 0xfc, 0x05, 0xfe, 0xf9, 0xf7, 0xff, 0x07, 0x05, 0x03,
  0x06, 0xfe, 0x0c, 0xfa, 0xfe, 0x06, 0xfc, 0x00, 0xf1, 0x01, 0x0c, 0x04,
  0xf6, 0x03, 0x01, 0x03, 0xf7, 0x05, 0x04, 0x04, 0x00, 0xff, 0x0e, 0x01,
  0x13, 0xfc, 0xed, 0x03, 0xfb, 0x04, 0x09, 0xfa, 0x05, 0x03, 0x09, 0x04,
  0x02, 0x0e, 0xfb, 0x05, 0xf1, 0xff, 0xfd, 0x05, 0x03, 0xe7, 0x0c, 0x0d,
  0xff, 0x1a, 0xfb, 0x0a, 0xf7, 0x09, 0xff, 0xfb, 0xf2, 0xf7, 0xff, 0xf7,
  0xf5, 0xfe, 0xf2, 0x00, 0x00, 0x09, 0xfa, 0xf7, 0xea, 0x0d, 0xf1, 0x11,
  0x05, 0xfb, 0xff, 0x08, 0xfe, 0x07, 0x03, 0x0b, 0xe5, 0x12, 0x0b, 0xf4,
  0xdc, 0x01, 0x04, 0xfd, 0x00, 0xfd, 0x09, 0x02, 0x11, 0xf8, 0xe5, 0x0f,
  0x0c, 0x04, 0x00, 0xf6, 0x05, 0xff, 0xfa, 0xf0, 0xf3, 0x0b, 0xf8, 0xf5,
  0x01, 0xfc, 0xf4, 0xf8, 0x05, 0x00, 0x10, 0xfc, 0x0b, 0xfc, 0xf9, 0x0d,
  0xf8, 0xfa, 0xf5, 0x16, 0xfd, 0xfc, 0xf7, 0xf5, 0xfc, 0x05, 0x0b, 0x00,
  0xf9, 0x06, 0x00, 0x0e, 0xfd, 0xf4, 0xf4, 0x03, 0x01, 0x00, 0xfa, 0x0a,
  0x07, 0xfa, 0xf1, 0xfb, 0xfa, 0x04, 0x05, 0xf3, 0x0c, 0x01, 0x0d, 0x07,
  0xfb, 0xf9, 0xff, 0x05, 0xfa, 0xf9, 0x1a, 0x00, 0x11, 0x04, 0x04, 0x03,
  0x06, 0xf2, 0x01, 0x0c, 0x09, 0xf2, 0xfb, 0x00, 0xf9, 0x04, 0xfe, 0x07,
  0x03, 0x01, 0x03, 0xf9, 0xfc, 0xf7, 0x01, 0x07, 0x02, 0xf7, 0xf4, 0x09,
  0xf5, 0x00, 0xf9, 0xf5, 0x0f, 0x03, 0x0a, 0xfd, 0xff, 0xf8, 0x06, 0xfb,
  0xef, 0xfd, 0x0f, 0x05, 0x07, 0xfc, 0xfa, 0xff, 0xff, 0xfb, 0x10, 0xf7,
  0xfe, 0x0a, 0xfa, 0xf7, 0x00, 0xff, 0xf3, 0x0c, 0xfd, 0x01, 0x00, 0xf5,
  0x03, 0x00, 0xfc, 0xfa, 0xfc, 0xfc, 0x0c, 0xf6, 0x05, 0xff, 0xfc, 0x07,
  0xf3, 0xf8, 0xfb, 0x0c, 0xfe, 0xff, 0xfa, 0xf6, 0x03, 0x09, 0x0c, 0x00,
  0xf9, 0x03, 0xfe, 0x05, 0xfa, 0xfc, 0xf5, 0xff, 0x03, 0xfe, 0xfe, 0x0a,
  0x05, 0xfb, 0x01, 0xfb, 0xf9, 0xff, 0x07, 0xf8, 0x08, 0xfe, 0x0b, 0x07,
  0xf9, 0xfd, 0xfd, 0x00, 0xfb, 0xf8, 0x10, 0x00, 0xf1, 0xf3, 0xfc, 0x09,
  0x03, 0x0a, 0xfe, 0xed, 0xf8, 0x05, 0xfa, 0x08, 0xfd, 0xfd, 0xfc, 0xfa,
  0xfd, 0xf9, 0xfb, 0x05, 0x06, 0x01, 0x00, 0xfc, 0x06, 0xf9, 0xfd, 0x06,
  0x06, 0xfb, 0x0b, 0xff, 0xf3, 0xfd, 0x02, 0x08, 0x02, 0x0c, 0x04, 0x01,
  0xf8, 0x05, 0xfe, 0xf6, 0xfa, 0xfc, 0x03, 0x06, 0x01, 0x05, 0xfa, 0xfb,
  0x10, 0x05, 0xf9, 0x01, 0xf9, 0xfb, 0xfc, 0xfe, 0x01, 0x03, 0xf0, 0xfa,
  0x02, 0x0a, 0x04, 0xf8, 0xf3, 0x0b, 0x08, 0x03, 0x02, 0xf5, 0xff, 0xfc,
  0xf6, 0x00, 0xf5, 0x0a, 0x03, 0xf9, 0xfe, 0xff, 0x04, 0xf6, 0xf4, 0xfc,
  0x09, 0xf4, 0xff, 0x0e, 0x02, 0xfa, 0x05, 0xfa, 0x00, 0xff, 0xf2, 0xff,
  0xee, 0xfd, 0x13, 0xfd, 0xfd, 0xfa, 0xfc, 0x01, 0xfa, 0xff, 0xec, 0xf8,
  0x02, 0xf3, 0x04, 0xfc, 0x07, 0x00, 0x06, 0xfa, 0xef, 0x0a, 0xf4, 0x03,
  0xfc, 0x01, 0xf8, 0xf1, 0x04, 0xfc, 0x0c, 0xff, 0xff, 0xfc, 0x03, 0x0c,
  0xf9, 0x05, 0xfb, 0x0d, 0x03, 0xfb, 0xfa, 0x08, 0x07, 0x02, 0x0d, 0xf9,
  0xfc, 0x07, 0xfc, 0x04, 0xfa, 0xf8, 0xed, 0xfd, 0x06, 0x00, 0xf3, 0x03,
  0x18, 0x06, 0xd7, 0xfa, 0x05, 0x00, 0x04, 0xf9, 0x08, 0x05, 0x11, 0xfe,
  0xfd, 0xf7, 0x02, 0xfc, 0xf2, 0xf9, 0x0c, 0x0c, 0xf5, 0x10, 0xf5, 0x0a,
  0xec, 0xf9, 0xf5, 0xf3, 0x0a, 0xf9, 0xfc, 0x0f, 0x03, 0x08, 0x09, 0x08,
  0x07, 0xf5, 0x02, 0x04, 0xf8, 0xfb, 0xfb, 0xfe, 0x09, 0xf6, 0x04, 0xf3,
  0xf5, 0x0a, 0xf6, 0x07, 0xfb, 0x02, 0x02, 0xf9, 0x13, 0xff, 0xf1, 0x08,
  0x07, 0xfb, 0xfc, 0x0d, 0xf0, 0x09, 0xf8, 0xf4, 0xf5, 0x02, 0x0b, 0xf1,
  0xf8, 0xfb, 0xf6, 0x07, 0xed, 0x0e, 0xfe, 0x0c, 0x08, 0xe1, 0x0d, 0x0c,
  0xfb, 0x0b, 0x02, 0xfd, 0xfc, 0x02, 0xfc, 0xf5, 0xf4, 0xfe, 0x02, 0xfd,
  0xfd, 0xfc, 0xfb, 0xf1, 0xff, 0x09, 0x06, 0x01, 0xe8, 0xec, 0x01, 0x10,
  0x08, 0xf8, 0x06, 0xef, 0xfb, 0x06, 0xfc, 0xf3, 0xf2, 0xf4, 0x0a, 0xf3,
  0xfe, 0x04, 0x02, 0xf5, 0xf6, 0xfd, 0x07, 0x0d, 0xf2, 0x00, 0xec, 0x14,
  0xff, 0x00, 0xfd, 0xfe, 0xf7, 0xfb, 0xf4, 0xf6, 0x04, 0xe8, 0x01, 0x12,
  0xfa, 0x09, 0xfe, 0x0b, 0x04, 0x04, 0x08, 0xf1, 0xf3, 0xff, 0x06, 0x0a,
  0x05, 0xfb, 0xf8, 0x0b, 0x08, 0xfb, 0x02, 0xff, 0xe7, 0xee, 0x02, 0xed,
  0x09, 0x04, 0xfe, 0x0b, 0x03, 0xfd, 0xfe, 0xf5, 0xf5, 0x06, 0xfb, 0xf9,
  0xf4, 0x04, 0x07, 0xf5, 0xdc, 0x10, 0xff, 0x09, 0xf9, 0xfa, 0xee, 0x07,
  0xfe, 0xfa, 0xfd, 0x0c, 0xfc, 0x00, 0x05, 0xf9, 0xf9, 0x05, 0x02, 0xfc,
  0xf0, 0xf6, 0xf6, 0x07, 0x02, 0x01, 0xfd, 0x05, 0xf6, 0x01, 0xff, 0x00,
  0x0c, 0x05, 0x0b, 0xfc, 0xfc, 0xfe, 0xf4, 0x02, 0x04, 0x07, 0x06, 0x0e,
  0xf8, 0x04, 0xf3, 0x03, 0x01, 0xfc, 0x0a, 0x04, 0x01, 0x03, 0x02, 0xf4,
  0x07, 0xfb, 0x00, 0xfc, 0x08, 0x0a, 0x04, 0xf8, 0x04, 0x00, 0xfe, 0xff,
  0x05, 0x0b, 0x01, 0x08, 0xf6, 0xfe, 0x02, 0xfc, 0x00, 0x01, 0xfd, 0xf7,
  0xf9, 0x04, 0xfd, 0x09, 0xff, 0x02, 0x02, 0x0a, 0xfc, 0xf9, 0xfa, 0x04,
  0xf6, 0x05, 0xfc, 0xfd, 0x01, 0x03, 0x01, 0x08, 0x05, 0x08, 0xfc, 0x0d,
  0xff, 0xf9, 0x02, 0xfd, 0x00, 0xfa, 0x01, 0x00, 0xfc, 0xfd, 0x05, 0xf5,
  0xea, 0xfd, 0x01, 0xfd, 0x13, 0xee, 0x03, 0xfe, 0x03, 0x03, 0x0c, 0x0b,
  0xfe, 0x01, 0x06, 0xea, 0x02, 0xfa, 0x07, 0x07, 0x0b, 0x04, 0x03, 0xf7,
  0x06, 0xf3, 0xfd, 0x08, 0xff, 0xff, 0xfb, 0xf0, 0xfd, 0x02, 0xfe, 0x02,
  0x0b, 0x02, 0x0d, 0xfa, 0x00, 0xf9, 0xfc, 0x07, 0x03, 0x06, 0xff, 0x02,
  0xf7, 0x02, 0xf7, 0xf7, 0x03, 0xfc, 0x10, 0x03, 0x03, 0x05, 0xfd, 0xf7,
  0xff, 0xf9, 0xf2, 0xff, 0xf6, 0x05, 0xfb, 0xfc, 0x04, 0x00, 0x03, 0x00,
  0xf9, 0x04, 0xfd, 0x00, 0xff, 0xfe, 0xfd, 0xff, 0xb4, 0x01, 0x1a, 0x0c,
  0x02, 0xf9, 0xf9, 0x02, 0xfd, 0xf1, 0x02, 0xf9, 0x04, 0xfc, 0x01, 0x05,
  0xef, 0xe4, 0xf1, 0x01, 0xf9, 0x00, 0xfa, 0xf6, 0xff, 0xfc, 0x08, 0x0b,
  0xec, 0xfa, 0x05, 0xd6, 0xfc, 0x05, 0xf6, 0x00, 0x07, 0x00, 0x18, 0x08,
  0x08, 0xf4, 0xfc, 0x08, 0xe8, 0xfb, 0x0a, 0xf8, 0x05, 0xfe, 0x08, 0x0d,
  0x0d, 0x0b, 0xe8, 0x08, 0xf0, 0x04, 0xe3, 0x05, 0xfd, 0xff, 0x07, 0x02,
  0xfd, 0x04, 0xfa, 0x06, 0x06, 0xfe, 0x03, 0xf4, 0xf7, 0x06, 0x00, 0x04,
  0x05, 0xf9, 0x08, 0x09, 0xfe, 0xff, 0xf9, 0xf9, 0xfe, 0x08, 0x0b, 0xff,
  0x00, 0x07, 0xff, 0x0c, 0xfe, 0xfd, 0xff, 0x01, 0xfa, 0x00, 0xfd, 0xfa,
  0x0d, 0xfd, 0x02, 0xfd, 0xf3, 0x0c, 0x00, 0xfe, 0x08, 0xf9, 0xfb, 0xfe,
  0xff, 0x07, 0xfe, 0x11, 0xf9, 0xfd, 0x05, 0xf9, 0x09, 0xfa, 0xfc, 0x0a,
  0x07, 0xf8, 0x00, 0xfe, 0x02, 0xfd, 0xea, 0xf6, 0xf5, 0x00, 0x00, 0x02,
  0x03, 0x01, 0xff, 0xfb, 0x01, 0xfc, 0x08, 0x0e, 0xfc, 0xfb, 0xf7, 0x08,
  0xfd, 0x01, 0xfd, 0xfc, 0x05, 0x05, 0x04, 0x01, 0xfd, 0xff, 0xfe, 0xfa,
  0xfd, 0x09, 0x19, 0xfc, 0xf8, 0xf9, 0xf5, 0x02, 0xf0, 0x02, 0x08, 0xeb,
  0x05, 0xff, 0xf9, 0xf5, 0xfe, 0x01, 0xf5, 0x10, 0xe3, 0xf8, 0x11, 0x11,
  0x02, 0xfd, 0xff, 0x02, 0x0c, 0xf5, 0xf2, 0xd5, 0xf9, 0x05, 0x04, 0x05,
  0xfc, 0x01, 0xfe, 0x0a, 0x07, 0x04, 0x04, 0x0a, 0xcc, 0xfe, 0x04, 0x03,
  0xff, 0x05, 0x00, 0xf1, 0xfa, 0x08, 0x0a, 0xff, 0xfc, 0x00, 0x12, 0xf8,
  0x10, 0x08, 0xfa, 0xfd, 0xdd, 0x07, 0x04, 0x02, 0x02, 0x06, 0x0c, 0x04,
  0x05, 0x0a, 0xfc, 0x03, 0xf7, 0xff, 0xed, 0x08, 0x00, 0x09, 0xf4, 0x0f,
  0x02, 0xf5, 0xfc, 0xe7, 0x05, 0xfe, 0x0a, 0x0a, 0x04, 0x01, 0x06, 0x0f,
  0xf8, 0xf6, 0xf6, 0x12, 0xff, 0xf7, 0xfc, 0x01, 0x1c, 0xf9, 0x04, 0xfc,
  0xf5, 0x05, 0x03, 0x07, 0xfb, 0xfd, 0xf6, 0xfe, 0x0a, 0xfc, 0xfa, 0x0b,
  0x04, 0xfe, 0xfb, 0x08, 0x03, 0x02, 0xf9, 0xf5, 0xf8, 0x06, 0x1d, 0x07,
  0xfc, 0xf6, 0xfb, 0x03, 0xf5, 0x02, 0x03, 0x18, 0xfb, 0xfd, 0xfc, 0x05,
  0x00, 0xf8, 0xf8, 0xf6, 0x07, 0xfd, 0x0b, 0xfe, 0x03, 0xff, 0xfc, 0x10,
  0xf5, 0xfd, 0xf5, 0x14, 0x02, 0xfd, 0xfc, 0x00, 0xfe, 0x03, 0x03, 0xf9,
  0xf7, 0x0b, 0xfd, 0x03, 0xfb, 0xf4, 0xef, 0xfe, 0xff, 0x07, 0x01, 0x09,
  0x07, 0x01, 0xfa, 0xff, 0xff, 0xff, 0xff, 0xfc, 0x00, 0x04, 0x18, 0x09,
  0x06, 0xfe, 0xff, 0xfa, 0xfb, 0xfa, 0x09, 0x10, 0x1d, 0x07, 0x08, 0x03,
  0x0a, 0xfa, 0xf3, 0xf9, 0x08, 0xed, 0xef, 0xf6, 0xf9, 0x0a, 0x03, 0x0d,
  0x05, 0xeb, 0x09, 0xf8, 0xee, 0xfa, 0xf2, 0xf7, 0x0c, 0xfc, 0x01, 0x06,
  0xea, 0x06, 0xfa, 0xfe, 0xed, 0xfd, 0x09, 0x02, 0xff, 0xfc, 0x03, 0xf6,
  0x03, 0xf1, 0x00, 0x05, 0x0c, 0x0a, 0xfd, 0xe7, 0x04, 0xf5, 0x05, 0x07,
  0x01, 0x04, 0xe2, 0x07, 0xf1, 0xfe, 0xf1, 0x0b, 0x81, 0xf8, 0x13, 0x08,
  0x05, 0xfe, 0xf6, 0x0d, 0x05, 0xed, 0x07, 0xef, 0xfe, 0x00, 0xff, 0x05,
  0xf8, 0xf2, 0xfc, 0xf0, 0xfe, 0xff, 0xf2, 0xf4, 0xf3, 0xf8, 0x06, 0x0c,
  0xf8, 0x00, 0x08, 0xdc, 0x04, 0xff, 0xf7, 0x03, 0xf9, 0xf8, 0x0f, 0xff,
  0x04, 0xf3, 0x02, 0x02, 0xee, 0x00, 0x0b, 0xf8, 0x02, 0xfd, 0x06, 0x10,
  0x00, 0x06, 0xf9, 0x04, 0xf4, 0xfd, 0xd9, 0x02, 0x96, 0xc8, 0xff, 0xff,
  0x04, 0x00, 0x00, 0x00, 0x40, 0x01, 0x00, 0x00, 0x1c, 0x22, 0x00, 0x00,
  0xce, 0x23, 0x00, 0x00, 0xf3, 0x22, 0x00, 0x00, 0x67, 0x1d, 0x00, 0x00,
  0x31, 0x20, 0x00, 0x00, 0x50, 0x20, 0x00, 0x00, 0x8c, 0x1e, 0x00, 0x00,
  0xe1, 0x1e, 0x00, 0x00, 0x44, 0x21, 0x00, 0x00, 0x68, 0x1d, 0x00, 0x00,
  0x11, 0x27, 0x00, 0x00, 0xac, 0x21, 0x00, 0x00, 0xcf, 0x21, 0x00, 0x00,
  0xd0, 0x21, 0x00, 0x00, 0x5d, 0x1a, 0x00, 0x00, 0xc8, 0x1b, 0x00, 0x00,
  0x4b, 0x1f, 0x00, 0x00, 0x53, 0x20, 0x00, 0x00, 0x3d, 0x1f, 0x00, 0x00,
  0x9e, 0x1a, 0x00, 0x00, 0x1a, 0x1a, 0x00, 0x00, 0x24, 0x24, 0x00, 0x00,
  0xc9, 0x1f, 0x00, 0x00, 0x3c, 0x25, 0x00, 0x00, 0xf4, 0x1f, 0x00, 0x00,
  0x42, 0x1b, 0x00, 0x00, 0x9f, 0x20, 0x00, 0x00, 0x40, 0x1b, 0x00, 0x00,
  0x49, 0x22, 0x00, 0x00, 0x6e, 0x1f, 0x00, 0x00, 0x7a, 0x1f, 0x00, 0x00,
  0x30, 0x19, 0x00, 0x00, 0xbd, 0x18, 0x00, 0x00, 0x3d, 0x1d, 0x00, 0x00,
  0x8a, 0x20, 0x00, 0x00, 0x8f, 0x20, 0x00, 0x00, 0xe7, 0x23, 0x00, 0x00,
  0x23, 0x19, 0x00, 0x00, 0x19, 0x23, 0x00, 0x00, 0x5b, 0x1b, 0x00, 0x00,
  0xdc, 0x20, 0x00, 0x00, 0xfe, 0x17, 0x00, 0x00, 0x35, 0x25, 0x00, 0x00,
  0xe7, 0x17, 0x00, 0x00, 0x45, 0x2f, 0x00, 0x00, 0xfe, 0x22, 0x00, 0x00,
  0xd9, 0x1b, 0x00, 0x00, 0x88, 0x1e, 0x00, 0x00, 0xd1, 0x1f, 0x00, 0x00,
  0x5f, 0x1f, 0x00, 0x00, 0x3b, 0x1c, 0x00, 0x00, 0xa3, 0x1a, 0x00, 0x00,
  0x48, 0x1e, 0x00, 0x00, 0x8c, 0x20, 0x00, 0x00, 0xa5, 0x26, 0x00, 0x00,
  0x08, 0x23, 0x00, 0x00, 0xec, 0x20, 0x00, 0x00, 0x13, 0x1f, 0x00, 0x00,
  0xde, 0x20, 0x00, 0x00, 0x9b, 0x29, 0x00, 0x00, 0x50, 0x1d, 0x00, 0x00,
  0x4d, 0x18, 0x00, 0x00, 0x07, 0x1c, 0x00, 0x00, 0xb8, 0x21, 0x00, 0x00,
  0x64, 0x1f, 0x00, 0x00, 0x51, 0x22, 0x00, 0x00, 0x97, 0x23, 0x00, 0x00,
  0x16, 0x2b, 0x00, 0x00, 0x63, 0x2b, 0x00, 0x00, 0xad, 0x1f, 0x00, 0x00,
  0x28, 0x1c, 0x00, 0x00, 0x0e, 0x1a, 0x00, 0x00, 0x91, 0x20, 0x00, 0x00,
  0xc2, 0x22, 0x00, 0x00, 0x96, 0x1d, 0x00, 0x00, 0xa3, 0x27, 0x00, 0x00,
  0xfa, 0x1e, 0x00, 0x00, 0x76, 0x1b, 0x00, 0x00, 0x70, 0x1b, 0x00, 0x00,
  0x5b, 0x20, 0x00, 0x00, 0xe2, 0xc9, 0xff, 0xff, 0x04, 0x00, 0x00, 0x00,
  0x00, 0x19, 0x00, 0x00, 0xfe, 0x03, 0xfc, 0xfb, 0x06, 0x06, 0xfc, 0xfc,
  0xfe, 0xff, 0x04, 0xff, 0x01, 0xfc, 0x00, 0xfc, 0x05, 0xff, 0xfe, 0x01,
  0xff, 0xfe, 0xfa, 0xff, 0x01, 0x15, 0xfe, 0xf6, 0x01, 0xf6, 0x03, 0xfc,
  0x02, 0xfb, 0xff, 0xfc, 0x03, 0xfd, 0x04, 0xfc, 0x01, 0x00, 0x07, 0x03,
  0xfe, 0xff, 0xfa, 0x00, 0xfe, 0xff, 0xfe, 0xff, 0xfe, 0xfe, 0x02, 0x00,
  0x02, 0x05, 0xff, 0x03, 0x02, 0xfb, 0x00, 0x01, 0x00, 0x02, 0x0a, 0x03,
  0xf9, 0x00, 0x00, 0xfd, 0x09, 0xff, 0xf8, 0xfd, 0x01, 0x02, 0xf9, 0xfc,
  0x03, 0xfb, 0xfe, 0x01, 0x01, 0xff, 0x00, 0xfb, 0xfe, 0x02, 0xfe, 0x02,
  0xf2, 0x03, 0x05, 0xfe, 0xff, 0x03, 0xff, 0xf8, 0xfb, 0xfe, 0x04, 0xfe,
  0x01, 0xfa, 0x02, 0xf1, 0xff, 0x02, 0xfd, 0x03, 0xfa, 0xfe, 0xfe, 0x03,
  0xfe, 0xff, 0x03, 0x04, 0xfd, 0xfc, 0xf9, 0x03, 0xf8, 0x02, 0x00, 0xfe,
  0x04, 0xf6, 0x01, 0xfc, 0x05, 0x04, 0xff, 0x04, 0xff, 0xfc, 0x01, 0x00,
  0xff, 0x01, 0x00, 0xfe, 0xf1, 0xfd, 0xfd, 0xfb, 0xfe, 0x05, 0xf5, 0x01,
  0xfe, 0x02, 0x02, 0x02, 0xfe, 0xff, 0x01, 0x00, 0x02, 0x06, 0xf9, 0xf9,
  0xfd, 0xf9, 0xff, 0x02, 0xfc, 0x03, 0xfe, 0xff, 0xff, 0x01, 0x04, 0xf9,
  0xfe, 0x04, 0x02, 0x03, 0x02, 0xff, 0x01, 0xff, 0xff, 0xf9, 0x00, 0x06,
  0xfe, 0xfb, 0xf3, 0x04, 0x00, 0x01, 0xfe, 0xfa, 0xfe, 0x03, 0x03, 0x07,
  0x00, 0x06, 0x01, 0x00, 0xfd, 0x01, 0x03, 0xff, 0x03, 0xfd, 0x01, 0x00,
  0x02, 0xfd, 0xfe, 0xfc, 0xff, 0xfe, 0x01, 0xfd, 0x00, 0x03, 0x00, 0x01,
  0x01, 0xff, 0xff, 0xfc, 0x01, 0xff, 0x02, 0x02, 0xfb, 0x04, 0x04, 0x06,
  0xff, 0xfe, 0xfb, 0xfe, 0x01, 0xfe, 0x06, 0xfa, 0xfc, 0x02, 0xfe, 0xff,
  0xf9, 0xff, 0xfb, 0x00, 0xfb, 0x02, 0x01, 0xe0, 0xfd, 0x07, 0x03, 0xf9,
  0xfe, 0x02, 0x04, 0x00, 0x02, 0xfb, 0xfe, 0x04, 0x00, 0xf5, 0x09, 0xff,
  0xf5, 0x01, 0x03, 0xfa, 0x02, 0xff, 0xfc, 0x04, 0xfc, 0x03, 0x00, 0xfd,
  0x05, 0x01, 0x00, 0x05, 0xfe, 0xf8, 0xfb, 0x00, 0xfe, 0xff, 0x00, 0x01,
  0x03, 0xf9, 0xfd, 0x03, 0x00, 0xff, 0x02, 0x00, 0xfd, 0xf8, 0x02, 0x00,
  0x03, 0x00, 0x00, 0xfe, 0xea, 0x00, 0xfe, 0x03, 0xf9, 0x00, 0x01, 0xf6,
  0xfc, 0xfd, 0xfa, 0xf8, 0xf9, 0x00, 0x00, 0xfe, 0x01, 0x04, 0xfa, 0x00,
  0x01, 0x02, 0x04, 0x07, 0xfe, 0xfe, 0x00, 0x10, 0x01, 0xfa, 0xff, 0x03,
  0xfe, 0x04, 0x00, 0x02, 0xfd, 0xfe, 0xf9, 0x04, 0xff, 0x02, 0xfe, 0x03,
  0xff, 0x03, 0x08, 0x04, 0xfb, 0x07, 0x07, 0x01, 0xef, 0xff, 0xfe, 0x00,
  0x02, 0xea, 0xff, 0x04, 0xfd, 0x02, 0xff, 0xfb, 0xff, 0x04, 0xff, 0xff,
  0xf5, 0x04, 0xf6, 0xff, 0xfb, 0xfd, 0xfd, 0x02, 0x01, 0x01, 0x01, 0x04,
  0x06, 0x00, 0x01, 0x02, 0xfa, 0xf2, 0x02, 0x09, 0x04, 0xf9, 0x07, 0xfe,
  0xfe, 0x00, 0xf4, 0xff, 0xff, 0x01, 0xff, 0x00, 0xeb, 0x03, 0x03, 0x05,
  0x02, 0x00, 0xfe, 0xed, 0xfd, 0xff, 0xfd, 0x05, 0x02, 0xeb, 0xfd, 0x05,
  0xff, 0xfa, 0x0a, 0x01, 0xfc, 0x04, 0xfe, 0x02, 0xff, 0x03, 0xfb, 0x03,
  0xf8, 0xfd, 0x03, 0xff, 0x01, 0x03, 0x08, 0x01, 0xfe, 0xf1, 0x00, 0x07,
  0x01, 0x02, 0x03, 0xfd, 0x00, 0xf4, 0xfc, 0xff, 0xfb, 0x00, 0xfb, 0xff,
  0xfd, 0xfe, 0x09, 0xfc, 0xfe, 0xfd, 0x01, 0x01, 0x00, 0xfe, 0xff, 0x02,
  0xfa, 0x01, 0x04, 0xff, 0x00, 0x01, 0xfe, 0x05, 0xfe, 0x01, 0xfa, 0x01,
  0xfd, 0xfe, 0x04, 0x03, 0x01, 0x02, 0x00, 0xf1, 0xfe, 0x01, 0xfc, 0xfd,
  0xff, 0x01, 0x03, 0xff, 0x01, 0xfd, 0xff, 0x09, 0xfe, 0x03, 0x0a, 0x00,
  0x00, 0xf9, 0x03, 0x08, 0x00, 0x02, 0xfc, 0x03, 0xfd, 0x00, 0xfb, 0xfe,
  0x02, 0x00, 0x05, 0x00, 0xff, 0xff, 0xf9, 0xfa, 0x03, 0x03, 0x00, 0x03,
  0xff, 0xf6, 0xff, 0x01, 0x01, 0x01, 0x00, 0xff, 0xff, 0x03, 0xf9, 0xf7,
  0x08, 0xff, 0xfc, 0xfe, 0xeb, 0x00, 0x02, 0x08, 0xfd, 0x06, 0x01, 0xf6,
  0xfb, 0xfe, 0x01, 0xfd, 0x00, 0x01, 0xfd, 0xf7, 0xfe, 0xff, 0xfe, 0x01,
  0xff, 0x01, 0x00, 0xf5, 0xfe, 0xff, 0x00, 0x04, 0xf7, 0x00, 0x00, 0x04,
  0xfe, 0x01, 0x05, 0x00, 0x08, 0xef, 0xfc, 0xfe, 0xf5, 0xfe, 0xfd, 0x0a,
  0x02, 0xff, 0xfd, 0x05, 0x02, 0xfc, 0x01, 0xfb, 0xfd, 0xff, 0x08, 0xfd,
  0xfe, 0xff, 0x02, 0xff, 0xfc, 0x01, 0x01, 0x02, 0x04, 0x03, 0x07, 0x03,
  0xff, 0xfd, 0x01, 0x01, 0xfd, 0x00, 0x04, 0xfe, 0x00, 0x00, 0xf7, 0xfe,
  0x08, 0xfe, 0x05, 0x06, 0x00, 0x00, 0x02, 0xfb, 0x03, 0x00, 0x03, 0x02,
  0x00, 0x05, 0x02, 0xfe, 0xff, 0xfc, 0x00, 0x01, 0x06, 0xfc, 0xfd, 0xed,
  0xff, 0x01, 0xfa, 0xf7, 0x02, 0x02, 0xfb, 0xfe, 0x03, 0x0e, 0x00, 0x00,
  0x00, 0x05, 0xfb, 0x02, 0xff, 0xfe, 0x06, 0xff, 0x00, 0x01, 0x01, 0xfe,
  0x03, 0x02, 0x00, 0xfd, 0x01, 0x00, 0x02, 0xfe, 0xfb, 0x12, 0xfd, 0xf4,
  0x02, 0x00, 0x01, 0x02, 0x01, 0x01, 0xfc, 0xfe, 0x04, 0x00, 0x04, 0x00,
  0xff, 0xf9, 0x00, 0xff, 0x08, 0xff, 0xfd, 0xfa, 0x00, 0xfe, 0x06, 0xfe,
  0x02, 0x05, 0xfd, 0xf8, 0x03, 0xfd, 0xf6, 0xf6, 0x01, 0xfc, 0xfd, 0xff,
  0xf9, 0xfd, 0x0b, 0xff, 0x00, 0x05, 0x01, 0xfa, 0x04, 0x04, 0x04, 0x08,
  0xfe, 0xfe, 0x02, 0x03, 0xff, 0x0a, 0xfe, 0x03, 0xfe, 0xf4, 0xfa, 0x01,
  0x01, 0x02, 0x0a, 0x01, 0x02, 0xfe, 0x03, 0xff, 0xfe, 0x03, 0x0f, 0xfb,
  0x01, 0xff, 0x04, 0xfd, 0x00, 0xfb, 0xfe, 0x00, 0xfe, 0x01, 0x00, 0xff,
  0x00, 0x09, 0xfd, 0x04, 0x01, 0x02, 0x02, 0xfe, 0xfe, 0xf9, 0x03, 0x06,
  0x01, 0x00, 0x00, 0xfb, 0xfb, 0xfd, 0xff, 0x05, 0xfd, 0xfd, 0xf2, 0xf2,
  0x01, 0x03, 0xff, 0xf9, 0x00, 0x00, 0xff, 0xff, 0x01, 0x0a, 0xfd, 0x00,
  0xf4, 0x04, 0x06, 0x03, 0x04, 0xff, 0xfc, 0x00, 0xf9, 0xfe, 0xff, 0x0a,
  0xfa, 0x08, 0x00, 0x09, 0x00, 0xf2, 0xf6, 0xfe, 0x02, 0x02, 0x01, 0xfa,
  0x00, 0x00, 0x06, 0x02, 0xf6, 0x04, 0x00, 0xfe, 0xf8, 0xfa, 0x07, 0x03,
  0x01, 0xf5, 0x02, 0x00, 0x01, 0xfa, 0xfe, 0xfb, 0x00, 0x02, 0x03, 0x00,
  0xfe, 0xfe, 0xfd, 0x02, 0x02, 0x0c, 0x04, 0x01, 0xfe, 0x09, 0x02, 0x02,
  0x04, 0x02, 0x00, 0x01, 0xf5, 0x02, 0xf9, 0x06, 0x02, 0xfe, 0xfe, 0xf8,
  0x04, 0xfe, 0xfc, 0xfe, 0xfd, 0x04, 0x04, 0xfe, 0xfb, 0x01, 0x02, 0x0e,
  0x04, 0x02, 0xff, 0x08, 0xf8, 0x01, 0x01, 0x05, 0xfb, 0x05, 0x01, 0x03,
  0xfc, 0xf4, 0xfc, 0xfa, 0x05, 0x03, 0x00, 0x00, 0x00, 0xfc, 0x01, 0x06,
  0xfc, 0x09, 0x00, 0xfc, 0x01, 0xfe, 0x02, 0xfb, 0x00, 0xf8, 0x04, 0x08,
  0xff, 0xfe, 0x01, 0xfe, 0xfe, 0x02, 0x00, 0xff, 0x02, 0xfb, 0x00, 0x02,
  0x01, 0xff, 0xfe, 0xfe, 0xfa, 0x05, 0xff, 0x03, 0xfa, 0x00, 0xf7, 0x00,
  0xfb, 0x06, 0x02, 0xfc, 0xff, 0xfe, 0x2d, 0xfe, 0xff, 0xff, 0xff, 0x00,
  0xfd, 0xfc, 0x03, 0xff, 0xf9, 0xff, 0xfd, 0xfa, 0xfd, 0x00, 0x01, 0xe7,
  0x00, 0x02, 0x04, 0xfc, 0x04, 0xfa, 0x01, 0xff, 0x00, 0x00, 0x0c, 0xfe,
  0xf9, 0xff, 0x01, 0x04, 0x02, 0xfe, 0x00, 0xff, 0x01, 0xf7, 0xfb, 0xfe,
  0xfe, 0x02, 0x01, 0x00, 0x00, 0x02, 0xfe, 0xff, 0xfe, 0xfe, 0x02, 0x02,
  0x03, 0x04, 0x02, 0x01, 0x08, 0xfe, 0x06, 0x00, 0x01, 0xf6, 0x03, 0x00,
  0x04, 0xfc, 0xfe, 0xfd, 0xfd, 0x00, 0xfc, 0x01, 0x00, 0x01, 0x07, 0xfe,
  0x02, 0xff, 0x04, 0xfc, 0x01, 0x02, 0x02, 0xff, 0xfc, 0xff, 0x01, 0xfd,
  0x03, 0xfe, 0xfe, 0x00, 0xfd, 0xff, 0xfc, 0x0a, 0x00, 0x02, 0x01, 0xfb,
  0x03, 0x06, 0x00, 0xfd, 0xff, 0x02, 0x0c, 0xfd, 0x0c, 0xfd, 0xfc, 0x00,
  0xfb, 0xff, 0x03, 0x00, 0x07, 0x05, 0x00, 0xfa, 0x05, 0x04, 0xfb, 0xfc,
  0x01, 0x06, 0x04, 0x00, 0xff, 0x00, 0xff, 0x02, 0xfc, 0x02, 0x00, 0xfc,
  0x06, 0xfc, 0x05, 0x00, 0x01, 0x19, 0x14, 0xf9, 0xfc, 0x01, 0xfe, 0xff,
  0xfc, 0x01, 0xfe, 0x00, 0x07, 0x07, 0xf1, 0xfa, 0x02, 0x06, 0x00, 0x02,
  0x00, 0x03, 0xfa, 0xfa, 0xfd, 0x01, 0xff, 0x03, 0xf4, 0x00, 0x01, 0xf5,
  0xfc, 0x00, 0xfb, 0x0b, 0xff, 0xfd, 0x02, 0xfe, 0xfe, 0xfb, 0x02, 0x03,
  0xfe, 0x02, 0xff, 0x01, 0x02, 0x03, 0x03, 0x0c, 0x00, 0x00, 0x02, 0x08,
  0xff, 0x05, 0xf9, 0x03, 0xfd, 0x01, 0x08, 0xff, 0x01, 0xfc, 0x02, 0xfd,
  0x01, 0xfe, 0xff, 0x01, 0xff, 0x02, 0xff, 0x02, 0xff, 0x01, 0x01, 0xff,
  0xd6, 0xfe, 0x00, 0x01, 0x03, 0x00, 0xfc, 0xfe, 0xff, 0x00, 0x04, 0x02,
  0xfe, 0x02, 0x02, 0x00, 0x00, 0xfc, 0x02, 0x02, 0xfb, 0x06, 0xfd, 0xe7,
  0x02, 0x06, 0x01, 0x00, 0xf0, 0x01, 0xfd, 0x08, 0xfe, 0xff, 0xfb, 0x08,
  0xd5, 0xff, 0x01, 0x02, 0xfc, 0x0b, 0x03, 0xf6, 0xff, 0x03, 0xf7, 0x02,
  0xfd, 0xfc, 0x01, 0x03, 0xfd, 0xd6, 0x01, 0x00, 0xff, 0xfd, 0x08, 0xf8,
  0x03, 0xfc, 0xff, 0xfb, 0x02, 0xf1, 0x03, 0x05, 0xed, 0x00, 0xfe, 0x01,
  0xfc, 0x03, 0x02, 0x00, 0x06, 0x03, 0x02, 0xfe, 0xe7, 0x0d, 0xfb, 0xf7,
  0xf9, 0x07, 0x0f, 0x03, 0x06, 0x01, 0xf1, 0xfd, 0x02, 0x02, 0x05, 0xfd,
  0x05, 0x00, 0x0e, 0xfc, 0xfe, 0x00, 0x07, 0xfe, 0x01, 0xfb, 0xfa, 0xfb,
  0x00, 0x00, 0xfd, 0x04, 0x00, 0x02, 0xfd, 0x02, 0xfe, 0x02, 0x03, 0xf4,
  0x01, 0xf6, 0x02, 0xf8, 0xfe, 0x02, 0xff, 0x02, 0x05, 0xfb, 0xfe, 0xf4,
  0xfb, 0x02, 0xfb, 0xff, 0x01, 0xf8, 0xfd, 0xfd, 0x06, 0x01, 0x03, 0x00,
  0x07, 0x09, 0x09, 0xfb, 0x00, 0xfc, 0x03, 0x01, 0xfc, 0xfd, 0xff, 0xfe,
  0x04, 0x01, 0x03, 0xfe, 0xfa, 0x01, 0xfb, 0xfd, 0xfd, 0xfc, 0xff, 0x00,
  0xf7, 0x06, 0xfe, 0xfd, 0x03, 0xfe, 0x06, 0x00, 0xfd, 0x03, 0x04, 0x00,
  0x03, 0xf9, 0xfe, 0xfd, 0x01, 0xfd, 0xff, 0x00, 0xfb, 0x02, 0xfc, 0xfa,
  0x04, 0xfd, 0x00, 0x05, 0xfd, 0x01, 0xff, 0x02, 0xfa, 0xfb, 0xff, 0x04,
  0xff, 0xfd, 0xce, 0x00, 0xfe, 0x00, 0xff, 0x09, 0x00, 0xfc, 0xfe, 0xfc,
  0xfd, 0xfa, 0x00, 0x06, 0x07, 0xfd, 0x01, 0x01, 0x01, 0x04, 0xfd, 0xfb,
  0xfe, 0x02, 0x03, 0x06, 0x00, 0xfd, 0x01, 0x00, 0x04, 0xfd, 0xff, 0x00,
  0x00, 0x07, 0x94, 0x01, 0x03, 0xfb, 0x02, 0xfd, 0x06, 0xff, 0xfd, 0x04,
  0x02, 0x01, 0x28, 0x09, 0x00, 0x02, 0x07, 0x02, 0x01, 0x02, 0xff, 0xfe,
  0xfd, 0xfe, 0x08, 0x01, 0xfe, 0x00, 0x00, 0x19, 0xf7, 0x00, 0xfe, 0xf9,
  0xfc, 0xfd, 0xfd, 0xfe, 0xfc, 0x04, 0xff, 0xf6, 0x00, 0xf6, 0xfc, 0xfe,
  0x0a, 0xff, 0xf5, 0x03, 0x01, 0x00, 0x06, 0xff, 0x03, 0x03, 0x02, 0xfe,
  0x3a, 0xff, 0x07, 0xfe, 0xfd, 0xfb, 0x00, 0xfa, 0x02, 0x03, 0xfc, 0xff,
  0x01, 0x04, 0xff, 0x00, 0xf4, 0xfe, 0xfa, 0x00, 0x04, 0xfe, 0x03, 0x03,
  0x07, 0x05, 0xfc, 0xfe, 0x04, 0x00, 0x03, 0x04, 0x03, 0xfa, 0x02, 0x2d,
  0x0d, 0xfe, 0xff, 0xfa, 0xfd, 0xfc, 0xfb, 0xfe, 0x00, 0xfc, 0xfe, 0xfe,
  0x03, 0x00, 0x01, 0x14, 0x03, 0x08, 0xfe, 0xfe, 0xfe, 0xfc, 0x00, 0xfc,
  0xff, 0xf7, 0x01, 0x06, 0x02, 0xfa, 0xfc, 0x00, 0x15, 0xfd, 0xff, 0xfc,
  0x03, 0xff, 0x03, 0x04, 0x00, 0x08, 0x00, 0xff, 0xff, 0x01, 0x03, 0xfd,
  0xff, 0x0a, 0xfc, 0x01, 0x00, 0xfc, 0x01, 0x04, 0x04, 0x00, 0x00, 0x01,
  0xff, 0xff, 0xfb, 0xfc, 0xfe, 0x02, 0x00, 0xfd, 0xfe, 0xfd, 0xfd, 0xfe,
  0xf4, 0x02, 0x00, 0x05, 0x00, 0xfe, 0xfc, 0x04, 0xfe, 0xf9, 0xfd, 0xfd,
  0xfd, 0xfd, 0x00, 0x01, 0xfe, 0x00, 0x00, 0xff, 0xf8, 0xff, 0xff, 0xf7,
  0x03, 0x00, 0xfe, 0xfa, 0x00, 0xfe, 0xff, 0xfe, 0x00, 0xfa, 0x00, 0xf5,
  0xfd, 0xfb, 0xfb, 0xff, 0xfb, 0xff, 0xfb, 0xfb, 0x00, 0xff, 0x04, 0x01,
  0xfc, 0xff, 0x08, 0xff, 0x04, 0x00, 0x00, 0xff, 0xfd, 0xff, 0xff, 0x03,
  0x02, 0x03, 0x00, 0xfd, 0xff, 0x06, 0x00, 0xfe, 0xfe, 0xff, 0x00, 0xfc,
  0xfe, 0x02, 0x02, 0x07, 0x02, 0x01, 0x01, 0xff, 0x0e, 0xff, 0xfe, 0x04,
  0xfc, 0xfb, 0x01, 0x4f, 0x0e, 0x02, 0xfa, 0x00, 0x01, 0xff, 0x04, 0xff,
  0x00, 0xfe, 0x00, 0xff, 0x00, 0x0c, 0x02, 0x0d, 0x03, 0x02, 0x01, 0xf3,
  0xfe, 0x00, 0x08, 0xfa, 0xfd, 0xf9, 0x02, 0xf9, 0xfe, 0x06, 0x02, 0x02,
  0xfd, 0xfd, 0xfe, 0x01, 0x01, 0x01, 0xfd, 0x08, 0xfd, 0x03, 0xfe, 0x00,
  0xfe, 0x00, 0xff, 0x02, 0x08, 0x0a, 0x02, 0xfb, 0x00, 0xff, 0x03, 0x02,
  0xfc, 0xff, 0x00, 0x00, 0x02, 0x02, 0xff, 0x01, 0xfc, 0xfd, 0xfd, 0xfc,
  0x02, 0xfc, 0x02, 0xfd, 0x04, 0x03, 0xfe, 0x03, 0xfd, 0x00, 0xfd, 0x07,
  0xfe, 0xfd, 0xfc, 0xfa, 0xfa, 0xff, 0xfa, 0xff, 0x01, 0xff, 0x00, 0x01,
  0xfb, 0xff, 0xfc, 0x0a, 0x01, 0xfb, 0x01, 0x04, 0xfc, 0x00, 0xff, 0x00,
  0xfe, 0x05, 0x01, 0xf5, 0x01, 0x00, 0xfb, 0xff, 0x01, 0xfe, 0xff, 0x01,
  0x02, 0xf9, 0x03, 0xfd, 0x00, 0xfb, 0x06, 0x00, 0x04, 0xfe, 0xfd, 0x00,
  0x00, 0x00, 0xfe, 0x06, 0xfd, 0x01, 0x03, 0x01, 0x01, 0x05, 0x00, 0x03,
  0x02, 0xfd, 0x00, 0xff, 0xfd, 0x03, 0x03, 0x03, 0x00, 0xfc, 0x00, 0x02,
  0x0b, 0xff, 0xfa, 0x02, 0xfe, 0x05, 0xfd, 0x0d, 0x02, 0xfd, 0x08, 0xfb,
  0xfe, 0xfa, 0x07, 0xfd, 0xfe, 0xfe, 0xfb, 0xff, 0xfe, 0xff, 0xfe, 0x0c,
  0xf1, 0x01, 0xff, 0xf9, 0x01, 0xfd, 0x00, 0xfa, 0xff, 0x0c, 0x02, 0xff,
  0xfe, 0x00, 0xfb, 0x01, 0x03, 0xf5, 0xfc, 0xfd, 0xfc, 0x00, 0x08, 0xf8,
  0x03, 0xf2, 0x01, 0x00, 0x04, 0xff, 0x00, 0x01, 0x01, 0x03, 0x01, 0xfe,
  0x01, 0x00, 0xff, 0xfe, 0xfd, 0x04, 0x01, 0xf8, 0x06, 0x01, 0x03, 0xfc,
  0x00, 0xfe, 0x02, 0xfc, 0xfe, 0x00, 0xf8, 0xfe, 0x00, 0x02, 0xff, 0x00,
  0x02, 0x03, 0xfa, 0x09, 0x01, 0xfe, 0x05, 0xfc, 0xfd, 0xfb, 0xfe, 0x04,
  0xfe, 0xff, 0x01, 0xfd, 0x02, 0x00, 0xfe, 0xfa, 0xfe, 0x03, 0xfd, 0xfc,
  0xfe, 0x02, 0x02, 0xff, 0x00, 0xf8, 0x00, 0x02, 0x06, 0xf7, 0xff, 0xfd,
  0xfd, 0xf4, 0xfc, 0xfb, 0x04, 0xfd, 0xff, 0xfd, 0xff, 0xf8, 0x08, 0xfc,
  0xfc, 0x05, 0xf8, 0xfa, 0x00, 0x01, 0x04, 0xfe, 0x03, 0xf5, 0x04, 0x01,
  0x04, 0x01, 0xfe, 0x02, 0x09, 0xf9, 0x09, 0xfd, 0x04, 0xfd, 0x05, 0xff,
  0xfe, 0xfe, 0xfc, 0xff, 0x06, 0x03, 0xfa, 0x00, 0xff, 0x09, 0xfd, 0xfa,
  0xf5, 0x01, 0x04, 0x01, 0x00, 0xff, 0x01, 0x01, 0x00, 0x00, 0xf7, 0xff,
  0xff, 0xfc, 0xfe, 0xea, 0x02, 0xf9, 0xff, 0xfa, 0x01, 0x03, 0xfc, 0x02,
  0x03, 0x02, 0x00, 0xf7, 0x01, 0x09, 0xff, 0xfe, 0xe6, 0xfd, 0x00, 0x01,
  0x01, 0x01, 0x0b, 0xfd, 0x01, 0x00, 0x05, 0xfd, 0x02, 0x01, 0x01, 0xff,
  0xfd, 0xf7, 0xfe, 0xfe, 0x00, 0x00, 0x00, 0x01, 0x00, 0xfa, 0x02, 0xfc,
  0x02, 0x00, 0x03, 0x02, 0x00, 0x01, 0xfe, 0xfd, 0x01, 0x02, 0x02, 0x00,
  0x0b, 0xff, 0x01, 0xfd, 0x02, 0x01, 0x01, 0xfb, 0x1f, 0x00, 0xf1, 0xfa,
  0x00, 0x02, 0xfc, 0x01, 0xff, 0xfd, 0x05, 0xfd, 0x00, 0x07, 0xfd, 0x1b,
  0xfe, 0x04, 0x06, 0xf4, 0xfe, 0x02, 0x05, 0x00, 0xfe, 0xf9, 0x01, 0xff,
  0xfd, 0x00, 0x02, 0xfd, 0xf7, 0x03, 0xfd, 0xfd, 0x02, 0xfe, 0xfb, 0xfc,
  0xfe, 0xf9, 0x01, 0x00, 0x01, 0x00, 0xfc, 0x01, 0x06, 0x02, 0x01, 0xf7,
  0xff, 0xfb, 0x00, 0x01, 0xff, 0x03, 0x02, 0x03, 0xff, 0xfe, 0xff, 0x01,
  0x01, 0xfd, 0x01, 0x01, 0x02, 0xfa, 0xfe, 0x00, 0xfa, 0x00, 0xfd, 0x06,
  0xfd, 0xfc, 0x03, 0x0a, 0x03, 0xf8, 0xf7, 0xfa, 0x02, 0x00, 0xf7, 0x01,
  0xf8, 0xfa, 0x00, 0x01, 0x03, 0x03, 0x00, 0x02, 0x00, 0x02, 0x04, 0x08,
  0x06, 0xfe, 0x03, 0x00, 0xfd, 0x0a, 0xff, 0x08, 0xfe, 0xe9, 0xfb, 0xff,
  0xfe, 0xfa, 0x00, 0x00, 0x01, 0x00, 0xff, 0xfe, 0xfd, 0xf8, 0x05, 0x00,
  0x03, 0xfc, 0x03, 0xff, 0xfd, 0xfd, 0xfe, 0x00, 0xfe, 0x02, 0x01, 0x01,
  0x00, 0x04, 0xfb, 0x02, 0x02, 0x02, 0x00, 0xfb, 0x00, 0xfe, 0xfd, 0xff,
  0xff, 0xfe, 0x02, 0xfd, 0x08, 0x00, 0x04, 0xff, 0xfd, 0x04, 0x01, 0x0b,
  0xff, 0x01, 0xff, 0x02, 0xfd, 0xfd, 0x03, 0xff, 0x00, 0x00, 0x00, 0x03,
  0xff, 0xfe, 0x02, 0x0a, 0xfb, 0x02, 0x03, 0x02, 0xff, 0xfe, 0x03, 0xfd,
  0x00, 0xf8, 0x03, 0x0c, 0xfe, 0x01, 0xfc, 0x02, 0xfc, 0xff, 0x00, 0x01,
  0x00, 0x04, 0xfb, 0x0b, 0xfd, 0x00, 0xf9, 0x04, 0xfc, 0x01, 0x02, 0x02,
  0x02, 0x06, 0xfe, 0x01, 0x03, 0x04, 0xff, 0xff, 0xff, 0xff, 0xff, 0xfe,
  0xfc, 0x02, 0xff, 0x00, 0x00, 0xf8, 0xf9, 0x01, 0x05, 0x02, 0xfd, 0x03,
  0xfb, 0x01, 0x02, 0x02, 0xfc, 0x00, 0x00, 0x01, 0x03, 0xfc, 0x10, 0xff,
  0xfd, 0x03, 0x03, 0xfe, 0x00, 0x00, 0xed, 0x00, 0x00, 0xfc, 0xfe, 0x15,
  0x00, 0x02, 0xfa, 0xfa, 0xfe, 0x00, 0x01, 0xfd, 0x03, 0xf5, 0x03, 0xf7,
  0xff, 0xf9, 0xfd, 0x03, 0x08, 0xff, 0xfe, 0xfe, 0xfc, 0x03, 0x09, 0x01,
  0xfd, 0xfd, 0xf8, 0xfe, 0xf4, 0x04, 0x02, 0xff, 0x04, 0xfe, 0x03, 0xfc,
  0x03, 0x00, 0x02, 0x01, 0xff, 0x03, 0xff, 0xfc, 0xff, 0x03, 0x04, 0xfe,
  0xfc, 0x06, 0xff, 0xf5, 0xf9, 0x01, 0x04, 0xfe, 0x05, 0x02, 0x04, 0xfd,
  0x01, 0xfb, 0x07, 0xf9, 0x01, 0xfa, 0x0a, 0xfa, 0x00, 0xfc, 0xfe, 0x03,
  0x01, 0xf9, 0xff, 0xf9, 0x06, 0xfe, 0xfe, 0x0d, 0x09, 0xff, 0xfa, 0x04,
  0x06, 0x01, 0xf8, 0x02, 0xfb, 0x01, 0xf9, 0x02, 0x01, 0x02, 0x02, 0xfb,
  0x09, 0x04, 0x01, 0xf9, 0xff, 0x00, 0x03, 0x04, 0xfa, 0x09, 0xff, 0xfc,
  0x08, 0xfb, 0xfc, 0x02, 0xfd, 0x0a, 0x00, 0x00, 0x00, 0xfc, 0xfe, 0xfd,
  0xfd, 0x02, 0xfa, 0x01, 0x00, 0xf9, 0xff, 0xff, 0x05, 0x03, 0x02, 0x05,
  0xfe, 0x02, 0x06, 0x02, 0x0c, 0xfe, 0xf8, 0xfd, 0xfd, 0xff, 0xfc, 0x08,
  0x00, 0x07, 0xef, 0x03, 0x03, 0xfd, 0xfe, 0xfd, 0x04, 0xff, 0x03, 0x06,
  0xfa, 0xfd, 0xfe, 0xf9, 0xff, 0xfb, 0x04, 0xfd, 0xfc, 0x03, 0x01, 0xff,
  0xfc, 0x01, 0x00, 0xfd, 0xff, 0x07, 0x1d, 0xff, 0x00, 0x03, 0xfc, 0x0b,
  0x04, 0xf9, 0xfd, 0xfe, 0xf9, 0xff, 0x00, 0x03, 0xf3, 0xfd, 0x02, 0x02,
  0xfd, 0xfe, 0xfb, 0xfe, 0xfb, 0x06, 0x02, 0x02, 0x02, 0x00, 0x00, 0x02,
  0xfc, 0xff, 0xfe, 0x05, 0x00, 0x03, 0xd1, 0x07, 0x0b, 0xfc, 0x00, 0x01,
  0x06, 0xfc, 0xfd, 0x00, 0xf9, 0xff, 0x1d, 0x09, 0x05, 0xfa, 0xfd, 0xff,
  0xff, 0x01, 0xfb, 0x07, 0xff, 0x00, 0x01, 0x01, 0xff, 0x02, 0x03, 0xfb,
  0x05, 0x01, 0x01, 0xfe, 0x07, 0xfa, 0x00, 0x00, 0x00, 0xfc, 0xfe, 0x00,
  0xff, 0xfb, 0x03, 0x03, 0x00, 0x01, 0xff, 0xff, 0x01, 0x00, 0x03, 0xf6,
  0x02, 0x12, 0xfd, 0x04, 0xfd, 0xfa, 0x03, 0x04, 0x00, 0xfc, 0xff, 0xfc,
  0x01, 0xff, 0xfe, 0xfe, 0x01, 0x01, 0xfc, 0x03, 0xfd, 0x02, 0xfa, 0xfb,
  0x02, 0x0b, 0x08, 0x05, 0x03, 0x02, 0x01, 0xff, 0xf9, 0xfe, 0xfd, 0x05,
  0xff, 0xf8, 0x04, 0xfd, 0xf9, 0x09, 0xfd, 0x00, 0x01, 0xff, 0x03, 0x00,
  0x01, 0xff, 0xfd, 0xfd, 0x11, 0xf7, 0xfb, 0x0a, 0x05, 0xff, 0xff, 0x15,
  0xfe, 0x03, 0xf9, 0xff, 0x00, 0x05, 0x00, 0x02, 0x05, 0xfd, 0xf9, 0xfb,
  0x03, 0xfd, 0x04, 0x04, 0x01, 0xfa, 0xf9, 0xfe, 0x00, 0x03, 0x0a, 0xfb,
  0x06, 0x01, 0xfd, 0xfe, 0xfc, 0x02, 0x01, 0xfb, 0xfc, 0xff, 0x01, 0xff,
  0x00, 0x01, 0x03, 0x03, 0x04, 0xfd, 0x02, 0x01, 0x01, 0x05, 0x06, 0x01,
  0x02, 0xff, 0x04, 0xfd, 0xff, 0x00, 0xfc, 0x01, 0x02, 0xfe, 0x02, 0xf6,
  0x05, 0x04, 0xf3, 0x04, 0xfd, 0xf2, 0x01, 0x04, 0x05, 0x01, 0xf8, 0x02,
  0x05, 0xff, 0x01, 0xfd, 0xfd, 0x03, 0x03, 0xf7, 0xfe, 0x0a, 0x02, 0x01,
  0x05, 0xdf, 0x04, 0x04, 0x00, 0x08, 0xee, 0xfe, 0x00, 0xfa, 0x00, 0xfc,
  0x02, 0x02, 0xfe, 0xfa, 0xf7, 0xf6, 0xf1, 0xfb, 0xf7, 0x06, 0x01, 0x02,
  0x05, 0x03, 0xfe, 0xff, 0xff, 0x00, 0x02, 0x04, 0xfe, 0xf7, 0xff, 0xfa,
  0x07, 0xfe, 0x05, 0x04, 0xfb, 0x02, 0xf6, 0xf1, 0xfd, 0xfa, 0x00, 0x02,
  0x08, 0x05, 0xff, 0x05, 0xf8, 0x04, 0xfc, 0xfe, 0x08, 0xfc, 0x01, 0x04,
  0xfc, 0x02, 0x06, 0xfb, 0x00, 0xfe, 0x01, 0x02, 0xfd, 0xfd, 0xfc, 0x01,
  0x06, 0xfd, 0xfa, 0x0a, 0xfb, 0xfc, 0x00, 0xfe, 0xff, 0x0a, 0xff, 0xee,
  0x00, 0x0d, 0x03, 0xfd, 0x07, 0xfd, 0x01, 0x02, 0xfb, 0xf9, 0x01, 0xf9,
  0x01, 0x00, 0x03, 0x03, 0x02, 0xfb, 0xf6, 0x06, 0x04, 0x03, 0x01, 0xfa,
  0xfa, 0x03, 0x00, 0xff, 0xff, 0x00, 0xfc, 0x02, 0x01, 0x01, 0x00, 0xfd,
  0x01, 0x04, 0x04, 0xf7, 0x03, 0x04, 0x04, 0x00, 0xfa, 0x00, 0xf4, 0x00,
  0x02, 0x05, 0x08, 0x03, 0x07, 0xfc, 0xfc, 0xfd, 0xfd, 0x02, 0x05, 0xfd,
  0xfc, 0x01, 0x02, 0xff, 0xfc, 0x00, 0x00, 0xf6, 0x06, 0x02, 0xfe, 0xfe,
  0x00, 0xfd, 0xfd, 0x00, 0xfe, 0x0e, 0xff, 0xe9, 0x06, 0xfd, 0xff, 0xfe,
  0x06, 0x02, 0xfd, 0xfc, 0xfe, 0xfe, 0x01, 0xf8, 0x01, 0x02, 0x07, 0x01,
  0x04, 0xfe, 0xf8, 0x04, 0x01, 0xfa, 0x05, 0x02, 0xfb, 0x00, 0xfd, 0xfc,
  0x03, 0x02, 0xfe, 0x00, 0xff, 0xfe, 0xfd, 0x02, 0xfe, 0x05, 0x04, 0xfa,
  0xfb, 0x01, 0x02, 0xfd, 0x02, 0x00, 0xff, 0xfc, 0xff, 0x02, 0xfb, 0x02,
  0x01, 0x0b, 0xff, 0xfe, 0x03, 0x04, 0x05, 0x04, 0x00, 0xfe, 0xfc, 0x04,
  0x0b, 0x03, 0xfb, 0xef, 0x02, 0xff, 0x04, 0xfd, 0x0a, 0x03, 0x03, 0x03,
  0xfe, 0xfb, 0xff, 0x0a, 0xfe, 0xfe, 0x01, 0xfd, 0xfb, 0xfc, 0x02, 0x05,
  0xff, 0x04, 0xf9, 0x00, 0x02, 0xfd, 0x00, 0xfb, 0x03, 0x06, 0xff, 0xfc,
  0x03, 0x0b, 0xfb, 0xfb, 0x05, 0x03, 0x03, 0x01, 0xfd, 0xfd, 0xfe, 0xfd,
  0x00, 0xff, 0x01, 0x05, 0x06, 0xfc, 0xf9, 0xfc, 0x04, 0xfd, 0x01, 0xfe,
  0xf8, 0xff, 0xff, 0x01, 0x02, 0xff, 0x02, 0xfc, 0xfd, 0x02, 0x09, 0xff,
  0x01, 0x01, 0x02, 0x01, 0x03, 0xf6, 0x03, 0xff, 0x01, 0xfb, 0xf4, 0x02,
  0x03, 0x01, 0xfd, 0x05, 0x01, 0x00, 0xf5, 0x01, 0x02, 0xfe, 0xfc, 0x07,
  0x04, 0x03, 0x10, 0xfd, 0x0b, 0xfe, 0xff, 0x03, 0x00, 0x00, 0xff, 0xfd,
  0x00, 0xfb, 0xfb, 0x01, 0xf6, 0x00, 0x01, 0xfe, 0xf5, 0x1a, 0xfc, 0x00,
  0x02, 0x00, 0x00, 0x03, 0x00, 0xfb, 0xff, 0x01, 0xfc, 0xfd, 0xfd, 0x02,
  0x05, 0xfe, 0xfd, 0x05, 0x05, 0xf5, 0x01, 0xf6, 0x03, 0xf6, 0x01, 0xee,
  0x01, 0xfd, 0x19, 0xe9, 0x03, 0xf9, 0x03, 0xf8, 0xfd, 0xfc, 0x02, 0xff,
  0xfe, 0x03, 0xfb, 0xff, 0xeb, 0x00, 0x04, 0x0c, 0xfd, 0x02, 0x01, 0x09,
  0x00, 0xfe, 0xff, 0xff, 0xfc, 0x05, 0x01, 0x05, 0xfa, 0xf8, 0xfc, 0x04,
  0x05, 0x09, 0x04, 0x03, 0xff, 0x05, 0xff, 0x08, 0xfe, 0x00, 0x03, 0x04,
  0xfd, 0x00, 0x03, 0x00, 0x03, 0xf9, 0x03, 0x06, 0x01, 0xfe, 0xff, 0xfb,
  0xfe, 0x02, 0xfe, 0xfe, 0xf7, 0x03, 0xfc, 0xfd, 0xfe, 0xf6, 0x01, 0x03,
  0xf8, 0x09, 0x00, 0x03, 0x07, 0x04, 0x05, 0xfb, 0xfe, 0xfa, 0x01, 0x0d,
  0x02, 0x00, 0xfa, 0xfc, 0x03, 0x02, 0xff, 0x02, 0x03, 0xff, 0xfe, 0x07,
  0xfb, 0xfe, 0x02, 0xea, 0xff, 0xff, 0x04, 0xf8, 0xfe, 0xff, 0x01, 0x04,
  0x01, 0x00, 0x00, 0xf4, 0xff, 0xff, 0x3b, 0x01, 0xfb, 0xff, 0xf8, 0xfd,
  0x01, 0xff, 0xfa, 0xfd, 0x05, 0xfc, 0x02, 0x03, 0xfe, 0x01, 0xff, 0x01,
  0xfc, 0xf1, 0xfe, 0xfe, 0xfe, 0x05, 0xff, 0xfd, 0x00, 0xff, 0x00, 0x00,
  0xf7, 0x02, 0xfa, 0x00, 0x02, 0xf8, 0x32, 0x04, 0x08, 0xfb, 0xff, 0x00,
  0xf4, 0xff, 0x01, 0x06, 0xfe, 0xf3, 0x06, 0xf8, 0x01, 0xfe, 0x00, 0x00,
  0xf8, 0x00, 0x06, 0x00, 0x01, 0x00, 0x01, 0x01, 0xfb, 0x03, 0x02, 0x04,
  0xfe, 0x03, 0x05, 0xff, 0x05, 0xfc, 0xff, 0x00, 0x01, 0xf9, 0xfd, 0x00,
  0xfc, 0xf9, 0xf9, 0x05, 0xfe, 0x02, 0xfe, 0x00, 0xff, 0x07, 0xfd, 0x04,
  0x01, 0x02, 0xfd, 0xfc, 0x04, 0xfb, 0x04, 0x00, 0xff, 0xff, 0xfd, 0xfb,
  0x01, 0x02, 0xfe, 0x02, 0xfe, 0xf6, 0xfe, 0xfd, 0xf6, 0x03, 0xf5, 0xff,
  0xfe, 0xfb, 0x02, 0x03, 0x06, 0x04, 0xff, 0xff, 0xf2, 0xfe, 0xfe, 0x04,
  0xff, 0xf0, 0x01, 0x09, 0xff, 0x01, 0x00, 0x06, 0x00, 0x03, 0x00, 0xfe,
  0xfc, 0x00, 0xfd, 0xff, 0x0d, 0xfb, 0x01, 0xca, 0x03, 0x01, 0xfb, 0xf9,
  0x03, 0x00, 0xfb, 0x00, 0x00, 0xfc, 0xff, 0x11, 0x02, 0x07, 0x1a, 0x00,
  0x05, 0xf7, 0x03, 0xfe, 0x00, 0x04, 0xfd, 0xff, 0x03, 0x04, 0xfb, 0xf8,
  0x0a, 0x02, 0x01, 0xff, 0xfe, 0x0c, 0xfe, 0xf5, 0x05, 0xf9, 0xff, 0x02,
  0x03, 0xf5, 0xfe, 0x00, 0x02, 0xff, 0x00, 0xfd, 0x01, 0x05, 0x08, 0xf7,
  0x05, 0xf9, 0x02, 0xfb, 0xfe, 0x01, 0x00, 0x00, 0x01, 0x01, 0x0a, 0xf6,
  0x00, 0x04, 0xf9, 0x02, 0x03, 0x05, 0x01, 0xff, 0xfe, 0xfc, 0x06, 0x02,
  0x06, 0xfe, 0xfe, 0xf3, 0xff, 0x00, 0x02, 0x12, 0xfc, 0x02, 0xfd, 0xed,
  0xff, 0x0b, 0x00, 0xf4, 0x01, 0x06, 0x0e, 0xfe, 0xfe, 0xfe, 0x02, 0x00,
  0x04, 0xfc, 0xf0, 0xfc, 0x06, 0xfe, 0x04, 0x01, 0x08, 0xfe, 0xfe, 0xff,
  0xfc, 0x0a, 0x00, 0xeb, 0xfd, 0x03, 0x01, 0xfc, 0x03, 0xfa, 0x02, 0x00,
  0x06, 0xfd, 0xfe, 0x02, 0xfd, 0x02, 0xf3, 0x00, 0x05, 0xfb, 0xfd, 0xfd,
  0x01, 0xff, 0xff, 0x01, 0x05, 0x03, 0x07, 0x05, 0x01, 0xf5, 0xf9, 0x04,
  0xfe, 0xfe, 0xfd, 0x00, 0x01, 0xf9, 0x01, 0x00, 0x01, 0x03, 0xfa, 0x07,
  0xff, 0xff, 0x02, 0xfa, 0xff, 0xfe, 0x00, 0xff, 0x00, 0xf7, 0xff, 0x01,
  0xfe, 0x0a, 0xf9, 0x02, 0x02, 0x02, 0x01, 0xff, 0xff, 0x01, 0x08, 0x03,
  0x01, 0x05, 0xff, 0xfd, 0x02, 0xfe, 0xfe, 0x01, 0xff, 0x0c, 0xfe, 0xfe,
  0xfc, 0x06, 0x01, 0x09, 0xfd, 0xf7, 0xfe, 0xfe, 0xf9, 0x02, 0xf6, 0xfd,
  0xfd, 0xf7, 0xfb, 0xfc, 0x07, 0xff, 0x02, 0xfa, 0x07, 0xf9, 0xfc, 0x04,
  0x01, 0xfd, 0x06, 0x13, 0x00, 0x00, 0xff, 0x04, 0xfe, 0x00, 0xff, 0x00,
  0x01, 0x00, 0xfc, 0x00, 0xfa, 0xfe, 0xfc, 0xfb, 0x00, 0xff, 0x03, 0xfc,
  0xfe, 0x02, 0xfe, 0xfd, 0x03, 0x00, 0x00, 0xfc, 0xff, 0xff, 0x00, 0xfe,
  0xf1, 0x00, 0x02, 0x01, 0x01, 0xfd, 0x02, 0xff, 0xfd, 0xfa, 0xfb, 0xfe,
  0x00, 0x03, 0xfd, 0xff, 0x00, 0x03, 0xfc, 0xfb, 0x00, 0x00, 0x02, 0x01,
  0x00, 0xfc, 0xff, 0x01, 0xfe, 0xfe, 0x01, 0x01, 0x00, 0x00, 0xff, 0xf9,
  0x03, 0xfc, 0x02, 0x01, 0x00, 0x02, 0xfd, 0x01, 0xfd, 0xfd, 0x01, 0x03,
  0x00, 0xfd, 0xfb, 0x00, 0xfb, 0x01, 0xfe, 0xf5, 0x00, 0xff, 0x06, 0xff,
  0x09, 0x01, 0x00, 0xf4, 0xfb, 0x01, 0x00, 0x07, 0xf7, 0xff, 0x00, 0x03,
  0xfc, 0x07, 0x04, 0x12, 0x02, 0x00, 0xfb, 0x00, 0xfe, 0xfc, 0x04, 0x01,
  0x00, 0x00, 0xfd, 0x01, 0x00, 0x00, 0x02, 0xfa, 0x00, 0xfd, 0x06, 0xfb,
  0x00, 0x02, 0x06, 0xff, 0xff, 0xfe, 0xfe, 0x03, 0x01, 0x04, 0x05, 0xff,
  0x03, 0xfe, 0x00, 0x01, 0xf9, 0xfd, 0x01, 0xfe, 0xff, 0x00, 0xf9, 0xfe,
  0x00, 0x00, 0x08, 0x04, 0x01, 0x00, 0x0b, 0xfc, 0x01, 0x00, 0x08, 0xff,
  0x01, 0x02, 0xfc, 0xfc, 0xfd, 0x01, 0x04, 0x04, 0x08, 0xff, 0xfe, 0x01,
  0xff, 0xfe, 0xfe, 0xf0, 0x00, 0x03, 0x03, 0x06, 0xfd, 0xfe, 0x00, 0xfd,
  0xff, 0xf9, 0xfe, 0x02, 0xff, 0x06, 0xfc, 0x0b, 0x00, 0x01, 0x0b, 0x01,
  0xff, 0xf9, 0xfd, 0xff, 0x12, 0xff, 0x02, 0x00, 0x03, 0xf9, 0xfe, 0x08,
  0x00, 0x03, 0x01, 0x04, 0xff, 0x02, 0x01, 0xff, 0xfc, 0x01, 0xfd, 0x01,
  0x00, 0xfc, 0xfd, 0x01, 0x04, 0x04, 0xfe, 0x01, 0xf1, 0xff, 0x01, 0x05,
  0xff, 0x00, 0x07, 0x03, 0xfe, 0x05, 0xfc, 0xfd, 0xfa, 0xfc, 0xfe, 0x00,
  0xfd, 0x01, 0xff, 0x02, 0x02, 0xfd, 0x03, 0x03, 0xfe, 0x04, 0xff, 0x03,
  0x01, 0xfd, 0x00, 0x01, 0x00, 0xf7, 0x02, 0x0a, 0xff, 0x01, 0x00, 0x02,
  0x01, 0xfd, 0xfe, 0x03, 0x02, 0x04, 0xfc, 0x05, 0x02, 0x01, 0x00, 0x01,
  0xfb, 0x05, 0x04, 0xff, 0x00, 0x00, 0xff, 0x01, 0x01, 0x00, 0xff, 0xff,
  0x01, 0xfd, 0x02, 0x01, 0xff, 0x04, 0xff, 0x00, 0x01, 0x01, 0xfc, 0x00,
  0x02, 0x02, 0xfd, 0x02, 0xfe, 0x03, 0x05, 0xff, 0x01, 0xfa, 0xfe, 0xfe,
  0x00, 0xff, 0xfe, 0xfe, 0xfd, 0x04, 0xff, 0x00, 0xff, 0x01, 0x03, 0xfe,
  0x11, 0xfe, 0xfe, 0x08, 0x00, 0xfe, 0x03, 0x1a, 0xfe, 0x01, 0xff, 0x04,
  0x03, 0x0a, 0xfe, 0xf2, 0x01, 0x00, 0xe0, 0xff, 0x07, 0x01, 0x04, 0xf9,
  0xfe, 0xfd, 0x00, 0xfd, 0x00, 0x00, 0x06, 0xff, 0xff, 0x04, 0xfb, 0xff,
  0x01, 0xfc, 0x03, 0x00, 0xfc, 0x04, 0x00, 0xf9, 0xff, 0x00, 0xff, 0xfe,
  0x03, 0x01, 0x02, 0x00, 0x02, 0xfd, 0x81, 0xfd, 0xfc, 0xff, 0x04, 0x00,
  0x05, 0xfe, 0xfe, 0xfd, 0xfd, 0x01, 0xdd, 0x0b, 0xff, 0xff, 0xf4, 0x02,
  0xfc, 0x03, 0xff, 0xff, 0x01, 0x04, 0x05, 0x01, 0x0e, 0xfb, 0xff, 0x02,
  0x01, 0x01, 0xfe, 0xf8, 0x01, 0x01, 0xfc, 0x04, 0x03, 0x00, 0xff, 0x00,
  0xfe, 0xfe, 0xf4, 0x00, 0x02, 0xfb, 0x05, 0xf3, 0xff, 0xfe, 0x03, 0xfd,
  0xfe, 0xfd, 0x06, 0xfd, 0x06, 0xfc, 0x02, 0x01, 0xfe, 0xf7, 0xfe, 0xfd,
  0x02, 0xfd, 0xff, 0xff, 0xff, 0x03, 0xfe, 0xfd, 0x01, 0x00, 0x01, 0xff,
  0x00, 0xf4, 0x03, 0xff, 0x02, 0xfe, 0xfe, 0x00, 0x07, 0x01, 0xfe, 0xff,
  0xfe, 0x05, 0x06, 0xf8, 0x00, 0xfd, 0x02, 0x00, 0x00, 0xdc, 0x06, 0x01,
  0x02, 0xfe, 0xfe, 0x01, 0x00, 0x01, 0xfe, 0x1b, 0xf6, 0xfe, 0xfe, 0x0f,
  0x03, 0x00, 0xff, 0x01, 0xfe, 0xd9, 0xff, 0xff, 0xbe, 0xfd, 0x01, 0x01,
  0xf4, 0x01, 0x03, 0x06, 0xe1, 0x02, 0x02, 0x04, 0x02, 0xfe, 0xfd, 0xfe,
  0x03, 0x01, 0xff, 0xf8, 0x01, 0xff, 0xfa, 0x01, 0x01, 0x02, 0xf9, 0x00,
  0xb2, 0xf2, 0x00, 0xba, 0x00, 0x00, 0x02, 0xff, 0x02, 0x00, 0x02, 0xfd,
  0x00, 0x02, 0xfc, 0x00, 0x02, 0xfd, 0x00, 0xfc, 0x04, 0x04, 0x03, 0x03,
  0x02, 0xfd, 0xfe, 0x02, 0x02, 0xfe, 0x04, 0xfe, 0xfe, 0x00, 0x02, 0x00,
  0x07, 0xff, 0xfe, 0xfd, 0xfe, 0xff, 0xff, 0xfb, 0x02, 0xfd, 0xfe, 0xfd,
  0xfe, 0xf3, 0xff, 0xfe, 0x02, 0x09, 0x03, 0x01, 0x07, 0x00, 0xfe, 0x06,
  0xfd, 0x03, 0x03, 0x05, 0x02, 0x05, 0xf8, 0x02, 0x08, 0x04, 0x00, 0xfe,
  0xff, 0x0b, 0x00, 0xff, 0x02, 0x06, 0xff, 0x04, 0x00, 0xf8, 0x00, 0xfd,
  0x01, 0x01, 0x01, 0x00, 0x00, 0xf7, 0xf6, 0x02, 0x04, 0x06, 0xff, 0x02,
  0xfa, 0x01, 0x01, 0xff, 0x01, 0x00, 0x12, 0x00, 0xfe, 0xfe, 0x0b, 0x01,
  0xfa, 0x04, 0xff, 0xfc, 0x03, 0x01, 0x09, 0x02, 0xf9, 0xfb, 0xfb, 0x0a,
  0x06, 0xff, 0xfb, 0x03, 0xff, 0x05, 0xfe, 0x01, 0xfe, 0xfd, 0x03, 0x06,
  0xfe, 0x01, 0x02, 0xfd, 0xf8, 0xfd, 0xfc, 0x04, 0xfd, 0xfe, 0xff, 0x06,
  0x00, 0xfd, 0xfe, 0xfa, 0xfd, 0x00, 0x00, 0x02, 0xfd, 0xf9, 0x00, 0x09,
  0x00, 0x03, 0xff, 0x02, 0xfd, 0x00, 0x00, 0xff, 0x03, 0xfe, 0x03, 0x03,
  0xf9, 0xfe, 0x00, 0xf9, 0xfe, 0x04, 0xfa, 0x04, 0xff, 0x03, 0xff, 0xfc,
  0x00, 0x02, 0x02, 0x03, 0xff, 0x01, 0x00, 0x00, 0x01, 0x00, 0xfe, 0xfd,
  0xfd, 0x00, 0xfe, 0x00, 0xf4, 0x00, 0x01, 0x26, 0xfb, 0xff, 0xff, 0xff,
  0xfd, 0x01, 0x01, 0x00, 0xfe, 0x03, 0x00, 0x03, 0xfd, 0xf8, 0xfc, 0xff,
  0xff, 0x03, 0xfe, 0x04, 0xff, 0xfe, 0x07, 0x05, 0x02, 0x02, 0x04, 0xfd,
  0x29, 0x00, 0x02, 0xfe, 0xfd, 0xe8, 0xfe, 0xff, 0x01, 0x03, 0xff, 0xfb,
  0xff, 0xfa, 0x00, 0xff, 0xf8, 0xfe, 0xff, 0x00, 0x02, 0x04, 0xfe, 0xf8,
  0x03, 0x04, 0xfe, 0xfe, 0x00, 0xfd, 0x03, 0x04, 0x02, 0xff, 0xfd, 0x3c,
  0x00, 0x03, 0x05, 0xfc, 0x00, 0x04, 0x00, 0xfd, 0x00, 0xfe, 0x02, 0x03,
  0x08, 0x07, 0x00, 0xf6, 0x02, 0xff, 0x00, 0xf9, 0xf8, 0x02, 0x07, 0x02,
  0xfd, 0x00, 0x01, 0x05, 0xfc, 0xf5, 0x06, 0x02, 0xf4, 0x01, 0xfc, 0x06,
  0x00, 0x01, 0xfd, 0x03, 0xfb, 0xfc, 0xfb, 0xfb, 0x0f, 0xfd, 0x02, 0xfc,
  0x03, 0xff, 0xfd, 0x04, 0x02, 0x03, 0x00, 0xff, 0xfb, 0xfe, 0x03, 0xfc,
  0xfc, 0x02, 0xfd, 0x01, 0x01, 0xfd, 0xfe, 0xfd, 0xfd, 0x03, 0xfe, 0xfe,
  0xf8, 0x02, 0x04, 0x03, 0xf9, 0xf9, 0xfc, 0x0b, 0x00, 0xfa, 0xf0, 0xf8,
  0xfe, 0x00, 0x02, 0x05, 0x03, 0xfb, 0xfc, 0xfe, 0x01, 0x0d, 0x02, 0xf6,
  0xff, 0x01, 0x01, 0x02, 0xfb, 0xfe, 0x05, 0xf8, 0xff, 0x03, 0xff, 0xfb,
  0xfe, 0xff, 0xfe, 0x01, 0xf9, 0xff, 0x05, 0xfc, 0x00, 0x01, 0x00, 0xff,
  0xfc, 0x00, 0x02, 0xfd, 0x08, 0xfd, 0x00, 0xfc, 0x03, 0x04, 0x05, 0x02,
  0x01, 0x02, 0xff, 0xfc, 0xff, 0x00, 0x00, 0xff, 0xfa, 0x01, 0xfd, 0xfc,
  0x03, 0xf9, 0x01, 0x00, 0x03, 0xfb, 0x03, 0xfe, 0x0b, 0xfd, 0x01, 0x04,
  0xfb, 0xfa, 0xf7, 0x02, 0x00, 0x03, 0xff, 0xff, 0xff, 0x05, 0x00, 0x00,
  0xfd, 0xfe, 0x02, 0x00, 0x01, 0x02, 0xfe, 0xf4, 0x00, 0x00, 0xfe, 0xf1,
  0x01, 0x02, 0x01, 0xfe, 0x02, 0x04, 0xff, 0x02, 0xfd, 0x00, 0x0b, 0xff,
  0xfd, 0xfd, 0x01, 0xfd, 0xfd, 0x00, 0xfe, 0xff, 0x02, 0x03, 0xfb, 0xf8,
  0xfc, 0x04, 0xfd, 0xfe, 0x00, 0xfd, 0xfd, 0xfb, 0x01, 0xfe, 0xff, 0x01,
  0xfe, 0xfd, 0x01, 0xfd, 0x06, 0xfe, 0x05, 0xff, 0x02, 0x04, 0x12, 0x00,
  0x03, 0xfe, 0x01, 0xfc, 0xf5, 0x00, 0xfe, 0x03, 0x01, 0x04, 0x03, 0xfa,
  0x03, 0x01, 0xff, 0xfe, 0xff, 0xfe, 0xfb, 0xfe, 0xff, 0xff, 0x00, 0x02,
  0x04, 0x01, 0xff, 0xff, 0xff, 0x01, 0xfb, 0xf6, 0xff, 0x01, 0x07, 0xfc,
  0xfe, 0xfa, 0x02, 0x04, 0x01, 0x02, 0x0e, 0x01, 0x0a, 0xfd, 0x01, 0xfd,
  0x02, 0x03, 0xfa, 0x02, 0x01, 0xff, 0xf8, 0xf9, 0x06, 0x02, 0x00, 0xfb,
  0x02, 0x06, 0x01, 0xfd, 0x03, 0xff, 0xff, 0x00, 0x00, 0xfc, 0x03, 0xfd,
  0x03, 0x01, 0x01, 0xff, 0x01, 0xfd, 0xf5, 0xfd, 0x09, 0x01, 0xfd, 0x01,
  0xf1, 0x02, 0x01, 0x04, 0x00, 0x01, 0xfd, 0xfc, 0xfb, 0xfe, 0x07, 0x03,
  0xfd, 0x01, 0xff, 0xfc, 0xfe, 0x02, 0x02, 0x00, 0xf7, 0xf9, 0x00, 0x0b,
  0x01, 0x01, 0x02, 0x08, 0xfe, 0xff, 0xfb, 0x02, 0x00, 0xfd, 0x00, 0xfc,
  0xfb, 0xf6, 0x01, 0x01, 0xfb, 0x00, 0xfd, 0x00, 0x00, 0x01, 0x0f, 0x05,
  0xff, 0xfd, 0xfe, 0xfe, 0x1e, 0xfe, 0x02, 0x01, 0xfc, 0x09, 0xfc, 0x09,
  0xfd, 0x04, 0xfc, 0x04, 0xfe, 0x00, 0x00, 0x00, 0x05, 0x02, 0x03, 0xfc,
  0xff, 0xf7, 0x03, 0x02, 0x0a, 0x02, 0xff, 0x02, 0x01, 0xff, 0xff, 0xfd,
  0xff, 0x04, 0xfc, 0xfd, 0x01, 0x02, 0x02, 0x06, 0xfc, 0x03, 0xfe, 0xff,
  0xff, 0xfe, 0xf6, 0x02, 0x00, 0x01, 0x00, 0x03, 0x02, 0x03, 0x05, 0xf9,
  0xfc, 0x00, 0x01, 0xfd, 0xff, 0x16, 0x00, 0x05, 0x00, 0x0a, 0xfe, 0xfd,
  0xf9, 0xfc, 0x03, 0xfb, 0x04, 0xfc, 0xfe, 0xfe, 0xfa, 0x01, 0x04, 0x00,
  0xfa, 0xfb, 0xfd, 0x01, 0xfd, 0xfe, 0x01, 0x02, 0xfc, 0xff, 0x02, 0xfd,
  0x03, 0xfa, 0xfe, 0x01, 0x04, 0xfe, 0x01, 0x00, 0x01, 0xf9, 0x07, 0x06,
  0x05, 0x00, 0x01, 0xfe, 0x08, 0x02, 0x00, 0x01, 0xfb, 0x02, 0xf2, 0x02,
  0xfa, 0xfc, 0xf6, 0xfb, 0xfc, 0x02, 0xff, 0x04, 0x02, 0x02, 0xfe, 0xfd,
  0xf6, 0x05, 0xfc, 0x11, 0x00, 0xff, 0x03, 0x0f, 0x02, 0xfc, 0xfc, 0x02,
  0x01, 0x04, 0xfc, 0x05, 0x00, 0x04, 0xf9, 0xfe, 0x0e, 0xfe, 0x06, 0x06,
  0xff, 0x01, 0x03, 0x09, 0xff, 0x0b, 0x04, 0x02, 0xfc, 0xfc, 0xfd, 0xfd,
  0xfd, 0xe9, 0xff, 0x0c, 0xff, 0xff, 0x00, 0xf2, 0x00, 0x04, 0xfe, 0x01,
  0xf6, 0xff, 0xfc, 0xfb, 0x03, 0xed, 0x03, 0x01, 0xfa, 0xff, 0x00, 0x00,
  0x15, 0xfc, 0xfb, 0x01, 0x00, 0xf9, 0xfc, 0x0c, 0xfa, 0xff, 0x04, 0x02,
  0xff, 0x04, 0xfa, 0x05, 0x04, 0x04, 0xf9, 0xfd, 0x00, 0xff, 0x04, 0xfb,
  0x1e, 0x00, 0x09, 0xfb, 0x10, 0x01, 0xff, 0x00, 0x04, 0xf8, 0x02, 0xf9,
  0x01, 0xf1, 0x04, 0x02, 0x07, 0x03, 0xfd, 0xfd, 0x06, 0x09, 0xf4, 0xfd,
  0xfd, 0x14, 0xff, 0x21, 0xf1, 0xf8, 0xf8, 0x0a, 0x01, 0xfb, 0xfe, 0x05,
  0x00, 0xf8, 0x07, 0xfb, 0x04, 0x05, 0xfc, 0x0d, 0xfa, 0x01, 0xfd, 0x01,
  0x04, 0xfe, 0x04, 0xff, 0xf5, 0x05, 0x12, 0x02, 0xfd, 0xfe, 0xfa, 0xfe,
  0xfd, 0xfc, 0x03, 0xe1, 0x03, 0x05, 0x03, 0xff, 0x04, 0x04, 0x04, 0x01,
  0xfe, 0xff, 0x03, 0xff, 0xfd, 0x01, 0xfc, 0xf5, 0xfd, 0xff, 0xfa, 0xff,
  0xff, 0x04, 0x04, 0xfb, 0x01, 0x02, 0x01, 0x02, 0xfe, 0x04, 0x34, 0xfe,
  0x08, 0x00, 0xf7, 0x00, 0xfc, 0xff, 0xfb, 0x04, 0x05, 0x03, 0xfb, 0xf7,
  0x06, 0x04, 0xfd, 0xfb, 0x04, 0x01, 0x03, 0xfa, 0xfc, 0xfe, 0x01, 0xfd,
  0xfd, 0x00, 0x03, 0xfb, 0x03, 0xff, 0x04, 0x01, 0x00, 0xfe, 0x0b, 0xfe,
  0x01, 0x02, 0xfe, 0xfb, 0xf4, 0x02, 0xfd, 0x01, 0x03, 0x00, 0xf2, 0xf4,
  0xfe, 0xfc, 0xfc, 0x00, 0xfc, 0xf6, 0xfe, 0x01, 0x00, 0x03, 0x04, 0xff,
  0x04, 0x01, 0x01, 0x0d, 0xf9, 0x00, 0x02, 0xe8, 0xfd, 0x01, 0x02, 0xfd,
  0x03, 0xf9, 0x02, 0xfe, 0xff, 0xf7, 0xff, 0x02, 0xfb, 0xf8, 0x04, 0xfc,
  0x01, 0x01, 0xf9, 0xfd, 0x00, 0xfd, 0xff, 0xff, 0xff, 0x04, 0x00, 0xfc,
  0xff, 0x00, 0x05, 0x00, 0x00, 0xfd, 0xff, 0x01, 0xfd, 0xfc, 0x03, 0xf9,
  0x05, 0x01, 0x07, 0xff, 0xfa, 0xfd, 0xf9, 0x03, 0xfe, 0xfb, 0xfa, 0xfe,
  0x02, 0x02, 0x02, 0x08, 0x00, 0x05, 0x02, 0xff, 0x02, 0xf7, 0xff, 0xf9,
  0xfd, 0x03, 0xf9, 0xfd, 0x04, 0x02, 0x01, 0xfd, 0x00, 0xfc, 0xfe, 0x18,
  0xfe, 0x00, 0x02, 0x0e, 0xfe, 0xf7, 0xf8, 0xff, 0xff, 0x09, 0x01, 0xed,
  0x03, 0xf4, 0x00, 0xfc, 0x0e, 0xf3, 0x05, 0xfd, 0x00, 0xfd, 0x02, 0xfd,
  0x00, 0xfb, 0x07, 0x06, 0x02, 0xfd, 0xff, 0xfe, 0xfc, 0xff, 0x0b, 0xfd,
  0xfe, 0xfe, 0xfd, 0xff, 0xff, 0x03, 0x01, 0xfd, 0xfa, 0xfe, 0xfa, 0xfa,
  0xfe, 0x01, 0x09, 0xfc, 0xfe, 0x06, 0xff, 0xff, 0x01, 0x00, 0xf7, 0xf3,
  0x00, 0xf2, 0x08, 0x0c, 0xff, 0xfc, 0xf7, 0x02, 0x02, 0xfe, 0xff, 0xfe,
  0x00, 0x01, 0x05, 0xff, 0xfe, 0xfd, 0x01, 0x06, 0xfd, 0x00, 0x00, 0xfd,
  0x00, 0x02, 0xfd, 0x01, 0x03, 0x03, 0x01, 0xfe, 0xff, 0xfe, 0xfb, 0x01,
  0xfd, 0x04, 0x03, 0xfe, 0x01, 0x01, 0xfe, 0x00, 0xfc, 0x00, 0xfe, 0xff,
  0xf9, 0x03, 0x00, 0x00, 0xfc, 0xf9, 0xff, 0xfd, 0x00, 0xfd, 0x00, 0x03,
  0x00, 0xff, 0x01, 0xff, 0xff, 0x01, 0x00, 0x00, 0xfc, 0x02, 0xf8, 0xff,
  0xf8, 0xff, 0xfe, 0xfd, 0x05, 0x01, 0x02, 0xfe, 0xfc, 0x03, 0xf7, 0x01,
  0xff, 0x01, 0xf2, 0xfd, 0xff, 0xfe, 0xfa, 0xfc, 0x01, 0xfe, 0x11, 0xff,
  0x00, 0xfe, 0xfa, 0x09, 0x01, 0xfd, 0x06, 0x0a, 0xfc, 0x01, 0xfe, 0xfe,
  0xfc, 0xfe, 0x01, 0x07, 0x01, 0x03, 0x02, 0x01, 0x00, 0xfd, 0xef, 0x01,
  0x06, 0xfd, 0xfc, 0xff, 0xff, 0x01, 0x08, 0xfd, 0xfd, 0xfe, 0xf4, 0xfc,
  0xfa, 0x0a, 0x01, 0xf7, 0xfc, 0x04, 0x02, 0x03, 0x02, 0xfd, 0x05, 0x05,
  0x01, 0x00, 0xfd, 0x01, 0xfd, 0xf5, 0xfe, 0x08, 0x08, 0xfc, 0xfb, 0xfc,
  0x03, 0xfe, 0xfb, 0x03, 0xfc, 0x00, 0xff, 0x05, 0xfe, 0xff, 0xf5, 0x01,
  0x01, 0x01, 0x02, 0xfe, 0xfd, 0xfe, 0x03, 0xfd, 0x04, 0xfa, 0xfd, 0xf6,
  0xfe, 0x02, 0x00, 0xfe, 0x01, 0xfe, 0xf6, 0x00, 0xfe, 0x03, 0xfd, 0xef,
  0x01, 0xfd, 0xf8, 0xff, 0x01, 0xfa, 0x00, 0xfd, 0xff, 0xfe, 0x03, 0x00,
  0x02, 0x01, 0x0a, 0x00, 0x19, 0x01, 0xff, 0xfe, 0xf9, 0x04, 0x04, 0xfb,
  0x02, 0xfb, 0xff, 0xff, 0x00, 0x0d, 0xff, 0xfc, 0x05, 0xfe, 0x03, 0xfd,
  0xfd, 0xfd, 0x06, 0x05, 0x00, 0x03, 0xfb, 0xfd, 0x04, 0x01, 0xfd, 0x00,
  0x00, 0x04, 0x03, 0x39, 0x02, 0xff, 0xff, 0xf9, 0x00, 0xff, 0x01, 0x03,
  0xfa, 0x02, 0xfa, 0xfc, 0x15, 0xfd, 0x01, 0xfd, 0x02, 0x01, 0xfa, 0xff,
  0x03, 0xfd, 0xf9, 0x02, 0x01, 0x02, 0xfd, 0x09, 0x05, 0xfd, 0xfb, 0xfc,
  0x00, 0xf8, 0x01, 0x00, 0x02, 0xff, 0x03, 0xff, 0x01, 0x05, 0xfa, 0xfd,
  0x0a, 0xff, 0x00, 0x00, 0x00, 0x03, 0x08, 0x01, 0x03, 0xfd, 0xfb, 0xff,
  0x01, 0x00, 0xf9, 0x00, 0x06, 0xfb, 0x03, 0x00, 0x07, 0x10, 0x07, 0xfc,
  0xfa, 0x00, 0x04, 0x01, 0x09, 0xff, 0xfe, 0xff, 0x02, 0x01, 0xfe, 0x03,
  0x01, 0xfe, 0xfe, 0xfc, 0x06, 0xfe, 0x03, 0xfe, 0xfc, 0xfb, 0xfe, 0xfe,
  0x04, 0x03, 0x01, 0xf6, 0x01, 0x01, 0x01, 0x09, 0xfd, 0xfb, 0xff, 0xfc,
  0xfd, 0x06, 0x01, 0x03, 0xff, 0x02, 0xf6, 0xff, 0x00, 0x01, 0x00, 0x01,
  0x00, 0xfe, 0xfc, 0x06, 0xfe, 0x08, 0x02, 0x03, 0x06, 0xfb, 0x02, 0x01,
  0xfc, 0x05, 0x05, 0xf9, 0x02, 0x01, 0x00, 0x00, 0xff, 0x01, 0x02, 0xfd,
  0x00, 0xff, 0xff, 0xfe, 0xfe, 0x07, 0xf6, 0x05, 0xfe, 0x05, 0x00, 0xfd,
  0x02, 0x02, 0x00, 0x03, 0xfe, 0x03, 0xfb, 0xfc, 0x02, 0x04, 0x06, 0x00,
  0x03, 0x00, 0x01, 0xfc, 0xfc, 0xf8, 0xff, 0xff, 0x08, 0x04, 0xff, 0x08,
  0x04, 0x06, 0xfd, 0xf0, 0xfc, 0x00, 0x03, 0xf9, 0xfd, 0xfa, 0xff, 0x07,
  0x02, 0x02, 0x06, 0xfd, 0xfa, 0xfe, 0xff, 0x0a, 0x01, 0x08, 0x03, 0x04,
  0xfc, 0xf9, 0xf9, 0xfe, 0x03, 0x00, 0x08, 0x02, 0x00, 0x10, 0x05, 0xff,
  0x09, 0xfe, 0x01, 0x05, 0x00, 0xfb, 0xff, 0x00, 0x01, 0xf8, 0x00, 0x01,
  0x01, 0xfb, 0xff, 0x04, 0x08, 0xf6, 0xfc, 0xfb, 0xf8, 0x03, 0x06, 0x01,
  0xfd, 0x04, 0x00, 0xf1, 0x09, 0xf8, 0x07, 0xfb, 0xfb, 0xff, 0xfe, 0x03,
  0xff, 0x02, 0xf8, 0xfc, 0xfa, 0xfc, 0xfe, 0x04, 0xfb, 0x03, 0xfc, 0x0b,
  0x00, 0x02, 0x01, 0xfe, 0x01, 0x03, 0x00, 0xe7, 0xfe, 0xfc, 0xfd, 0x00,
  0x07, 0xfe, 0x03, 0xfd, 0xfc, 0xff, 0xfc, 0x00, 0x02, 0xf7, 0xf6, 0xfb,
  0xff, 0xfe, 0xfb, 0x01, 0x02, 0xfb, 0x02, 0xff, 0x00, 0xfa, 0xff, 0xfe,
  0xff, 0x00, 0xfd, 0xfb, 0x05, 0xfe, 0x01, 0xfe, 0xfe, 0xff, 0x00, 0xf6,
  0xf8, 0x04, 0xff, 0x04, 0xf9, 0x03, 0xfd, 0xfd, 0x02, 0xfe, 0x06, 0x04,
  0x03, 0x02, 0xf8, 0xff, 0x02, 0x00, 0xfc, 0x01, 0xfa, 0x00, 0xfa, 0x06,
  0x0e, 0x0c, 0x07, 0xf4, 0x00, 0x00, 0xfc, 0x05, 0x02, 0x02, 0x0c, 0xf2,
  0xfc, 0xf7, 0xff, 0x12, 0xfd, 0x01, 0xf8, 0x06, 0xf5, 0x03, 0xfb, 0x02,
  0x01, 0x08, 0x00, 0x09, 0xfe, 0xf9, 0x01, 0xff, 0xfd, 0xff, 0x07, 0xfe,
  0x05, 0xfe, 0xfb, 0x02, 0x04, 0xff, 0x02, 0xf8, 0x01, 0xfe, 0xff, 0xff,
  0xfc, 0x04, 0x01, 0x00, 0x01, 0x0d, 0xf8, 0x03, 0x05, 0xf7, 0x01, 0x02,
  0xf6, 0xff, 0x08, 0x09, 0xfc, 0xfe, 0xf9, 0xff, 0x03, 0xff, 0x04, 0xff,
  0xfe, 0x02, 0xff, 0xfd, 0xfd, 0xfe, 0xfe, 0x05, 0xec, 0x05, 0x03, 0xfa,
  0xfd, 0x03, 0xfe, 0x00, 0xf7, 0x00, 0x07, 0x05, 0xfc, 0xff, 0xff, 0x01,
  0xfa, 0xfe, 0x03, 0x05, 0xfa, 0x06, 0x00, 0x0e, 0xfd, 0x03, 0x01, 0x08,
  0xfc, 0xfd, 0x02, 0x06, 0xf8, 0xff, 0x08, 0x00, 0x04, 0x01, 0xfc, 0xfc,
  0xff, 0x04, 0x00, 0x00, 0xfe, 0x00, 0xfe, 0x00, 0xfb, 0x06, 0xfe, 0xff,
  0xfe, 0xfa, 0x01, 0xfe, 0x03, 0xfc, 0x00, 0x01, 0x01, 0x00, 0x0c, 0xff,
  0xfa, 0xff, 0x06, 0x07, 0x00, 0x02, 0xfd, 0x03, 0x02, 0x02, 0x06, 0xff,
  0x00, 0xff, 0x02, 0xff, 0x08, 0xfc, 0xfd, 0x07, 0xfd, 0x00, 0xfb, 0xfc,
  0x00, 0x02, 0xfd, 0xfb, 0x02, 0x0a, 0x00, 0xfc, 0x01, 0x08, 0xf9, 0xff,
  0x02, 0xfe, 0x00, 0xfe, 0xff, 0x00, 0x05, 0xff, 0x02, 0x00, 0x00, 0xfe,
  0x02, 0x02, 0x00, 0xfd, 0xfd, 0x09, 0x02, 0xf7, 0x00, 0x00, 0x00, 0x00,
  0x02, 0x04, 0xff, 0xfd, 0x06, 0x00, 0x03, 0x01, 0x00, 0xfe, 0x00, 0x02,
  0x02, 0x01, 0xfc, 0xfe, 0x03, 0x01, 0x01, 0xfd, 0x00, 0x04, 0x00, 0xf9,
  0xfd, 0x05, 0xfc, 0xfe, 0xfe, 0x04, 0xfe, 0x00, 0xfd, 0xfb, 0x03, 0xff,
  0x0a, 0xfe, 0x02, 0xe7, 0x01, 0xfc, 0x01, 0x04, 0x01, 0xfc, 0xfb, 0x03,
  0xf9, 0x01, 0xfe, 0x0e, 0x02, 0xf2, 0x02, 0xfe, 0xfd, 0xfe, 0x05, 0x0b,
  0x01, 0xfe, 0x03, 0x01, 0xfc, 0x02, 0x07, 0xfd, 0x0e, 0x01, 0x05, 0xfc,
  0xfb, 0xfc, 0xfd, 0x00, 0x04, 0xfe, 0xfb, 0xfd, 0x02, 0x06, 0x01, 0x00,
  0xfe, 0xfd, 0xfe, 0x00, 0x02, 0x07, 0x0c, 0xfb, 0x0f, 0xfe, 0xfc, 0xfc,
  0x0b, 0xfa, 0x00, 0x0a, 0xfa, 0xfe, 0xfc, 0x43, 0x04, 0xff, 0x0b, 0x01,
  0xff, 0x01, 0xfd, 0xfc, 0x00, 0x02, 0x06, 0x01, 0x08, 0xfa, 0x01, 0x05,
  0xfc, 0x01, 0x00, 0x06, 0xfe, 0xfc, 0xfc, 0xfc, 0xff, 0x00, 0x01, 0xf4,
  0x00, 0xf8, 0xff, 0x02, 0x06, 0xfe, 0xf8, 0xfd, 0x02, 0xfe, 0x0e, 0x02,
  0x00, 0x00, 0x06, 0x01, 0x1a, 0x00, 0xff, 0x00, 0xfc, 0xff, 0xff, 0x00,
  0xfd, 0x03, 0xfc, 0xfe, 0x03, 0x05, 0x01, 0x02, 0xfc, 0x00, 0xfd, 0xfe,
  0xfb, 0x03, 0x02, 0x06, 0x03, 0x04, 0xfd, 0xff, 0x00, 0xfd, 0x00, 0x02,
  0xff, 0xfd, 0xfc, 0xf7, 0xfe, 0xfd, 0x01, 0xff, 0xff, 0x03, 0x02, 0xff,
  0xfe, 0xff, 0xed, 0x02, 0xf7, 0x01, 0xfe, 0xff, 0xfe, 0xfe, 0xfb, 0x02,
  0xff, 0xff, 0x00, 0x00, 0xff, 0xef, 0x02, 0x01, 0xff, 0x00, 0x0f, 0xff,
  0x04, 0x00, 0xfe, 0x03, 0x01, 0x01, 0xfe, 0xff, 0x02, 0xfc, 0xdb, 0x02,
  0x04, 0x05, 0x05, 0xff, 0x01, 0xfa, 0xfb, 0xfa, 0x03, 0x01, 0x00, 0x02,
  0x03, 0xff, 0xfe, 0x03, 0x00, 0x01, 0xfd, 0x02, 0xfa, 0x05, 0xff, 0xfe,
  0xfd, 0xff, 0xff, 0xff, 0xf7, 0xff, 0x01, 0xfe, 0x02, 0x01, 0x0b, 0xff,
  0x00, 0xff, 0x02, 0xff, 0xfe, 0x02, 0xfe, 0x01, 0x00, 0xfd, 0xfb, 0xfa,
  0x08, 0x00, 0xfe, 0xed, 0x03, 0x05, 0xfb, 0x01, 0x06, 0xfc, 0xfd, 0xfc,
  0xfd, 0xfb, 0x02, 0xfc, 0x01, 0x03, 0x15, 0x02, 0xfd, 0xfd, 0x08, 0xfd,
  0xfd, 0x04, 0x03, 0x02, 0x01, 0x08, 0xf9, 0xff, 0x0b, 0x06, 0xff, 0xfe,
  0xfe, 0x09, 0x05, 0xf3, 0x02, 0xfa, 0xfd, 0x04, 0x00, 0xf8, 0x01, 0xfe,
  0x01, 0x03, 0xfd, 0xfd, 0x05, 0xfa, 0xfb, 0xfb, 0x00, 0xfc, 0x01, 0xfa,
  0x03, 0x00, 0x02, 0x01, 0x02, 0x02, 0x00, 0xfc, 0xee, 0xe2, 0xff, 0xff,
  0x04, 0x00, 0x00, 0x00, 0x40, 0x01, 0x00, 0x00, 0xc8, 0x0c, 0x00, 0x00,
  0x4c, 0x0c, 0x00, 0x00, 0x4a, 0x0e, 0x00, 0x00, 0xdc, 0x0b, 0x00, 0x00,
  0xe4, 0x0c, 0x00, 0x00, 0x5c, 0x0f, 0x00, 0x00, 0x37, 0x0c, 0x00, 0x00,
  0x15, 0x0d, 0x00, 0x00, 0xb7, 0x0c, 0x00, 0x00, 0xa6, 0x0d, 0x00, 0x00,
  0x2d, 0x0a, 0x00, 0x00, 0xfa, 0x0b, 0x00, 0x00, 0xd7, 0x0f, 0x00, 0x00,
  0x03, 0x0c, 0x00, 0x00, 0xd5, 0x09, 0x00, 0x00, 0x28, 0x0d, 0x00, 0x00,
  0x39, 0x0e, 0x00, 0x00, 0x10, 0x0e, 0x00, 0x00, 0xe5, 0x0d, 0x00, 0x00,
  0x40, 0x0e, 0x00, 0x00, 0x92, 0x0d, 0x00, 0x00, 0xc3, 0x0c, 0x00, 0x00,
  0x95, 0x0f, 0x00, 0x00, 0x16, 0x0f, 0x00, 0x00, 0xb1, 0x0c, 0x00, 0x00,
  0x14, 0x0e, 0x00, 0x00, 0xcf, 0x0e, 0x00, 0x00, 0xff, 0x0a, 0x00, 0x00,
  0xf8, 0x0c, 0x00, 0x00, 0x58, 0x0d, 0x00, 0x00, 0x55, 0x0a, 0x00, 0x00,
  0x6a, 0x10, 0x00, 0x00, 0x3d, 0x0d, 0x00, 0x00, 0x52, 0x0f, 0x00, 0x00,
  0x0d, 0x0f, 0x00, 0x00, 0xf9, 0x0b, 0x00, 0x00, 0x6b, 0x0c, 0x00, 0x00,
  0xf7, 0x0f, 0x00, 0x00, 0xc1, 0x0a, 0x00, 0x00, 0xb2, 0x0a, 0x00, 0x00,
  0xa6, 0x11, 0x00, 0x00, 0xd8, 0x0b, 0x00, 0x00, 0x62, 0x0c, 0x00, 0x00,
  0xbc, 0x0c, 0x00, 0x00, 0x3c, 0x0d, 0x00, 0x00, 0xdc, 0x0f, 0x00, 0x00,
  0xf4, 0x0d, 0x00, 0x00, 0x69, 0x0e, 0x00, 0x00, 0xda, 0x0c, 0x00, 0x00,
  0xab, 0x0a, 0x00, 0x00, 0xd4, 0x0a, 0x00, 0x00, 0xdf, 0x0a, 0x00, 0x00,
  0xb1, 0x0b, 0x00, 0x00, 0x4a, 0x0c, 0x00, 0x00, 0x33, 0x0e, 0x00, 0x00,
  0x73, 0x0e, 0x00, 0x00, 0xfa, 0x0b, 0x00, 0x00, 0x14, 0x0f, 0x00, 0x00,
  0x7e, 0x0f, 0x00, 0x00, 0xb2, 0x0c, 0x00, 0x00, 0xdb, 0x0e, 0x00, 0x00,
  0x69, 0x0c, 0x00, 0x00, 0xd9, 0x09, 0x00, 0x00, 0x40, 0x0e, 0x00, 0x00,
  0x37, 0x11, 0x00, 0x00, 0x5a, 0x09, 0x00, 0x00, 0x78, 0x0d, 0x00, 0x00,
  0x32, 0x10, 0x00, 0x00, 0xf6, 0x0c, 0x00, 0x00, 0x52, 0x0b, 0x00, 0x00,
  0x4b, 0x0c, 0x00, 0x00, 0xbe, 0x0b, 0x00, 0x00, 0x46, 0x0d, 0x00, 0x00,
  0x79, 0x0a, 0x00, 0x00, 0x5a, 0x08, 0x00, 0x00, 0xdf, 0x0c, 0x00, 0x00,
  0x1d, 0x0e, 0x00, 0x00, 0x36, 0x0e, 0x00, 0x00, 0x40, 0x0b, 0x00, 0x00,
  0x37, 0x0f, 0x00, 0x00, 0x3a, 0xe4, 0xff, 0xff, 0x04, 0x00, 0x00, 0x00,
  0xc0, 0x12, 0x00, 0x00, 0x00, 0xe8, 0x04, 0x0b, 0x03, 0x02, 0xff, 0x02,
  0xfe, 0xf6, 0x00, 0xfe, 0xf5, 0xfc, 0xfb, 0xf5, 0xfb, 0x01, 0x05, 0x05,
  0x05, 0x05, 0xfa, 0x06, 0x00, 0xfe, 0x00, 0xff, 0x03, 0x04, 0xf0, 0x07,
  0x04, 0xfc, 0x02, 0x00, 0xfe, 0xfe, 0xe9, 0xfe, 0x04, 0x02, 0xff, 0x08,
  0xfe, 0x02, 0xf8, 0xff, 0x00, 0x00, 0xf4, 0x14, 0xfe, 0x04, 0x07, 0xfc,
  0xfb, 0x01, 0xf6, 0xff, 0x05, 0x01, 0xfc, 0x04, 0xee, 0xfe, 0xff, 0xfc,
  0xfb, 0xfa, 0x04, 0x04, 0xef, 0x02, 0x00, 0xfa, 0x0a, 0xff, 0xef, 0x00,
  0xfd, 0x0d, 0xfe, 0xfc, 0xfd, 0xf2, 0xf7, 0x04, 0x0a, 0xfd, 0x00, 0x01,
  0xfb, 0xfc, 0x02, 0xf9, 0x03, 0x08, 0x04, 0x04, 0x07, 0xfc, 0x02, 0xfb,
  0x02, 0xf7, 0x04, 0x05, 0x02, 0xfc, 0x01, 0xfc, 0xf6, 0x05, 0x09, 0xf5,
  0xfd, 0xfa, 0x0f, 0xf8, 0x01, 0xfd, 0xf9, 0xf7, 0xfc, 0xfd, 0x02, 0x01,
  0x02, 0xf2, 0x02, 0xe2, 0x04, 0x07, 0x06, 0x00, 0x04, 0xfe, 0xfd, 0xfd,
  0x01, 0xfc, 0xff, 0xfe, 0xff, 0xec, 0x05, 0x06, 0xf8, 0xf7, 0xfe, 0x06,
  0x01, 0x03, 0x08, 0x07, 0xf9, 0x02, 0x00, 0xfd, 0x00, 0xff, 0xf9, 0x08,
  0xf9, 0x00, 0xfe, 0x06, 0x06, 0xfd, 0x08, 0x09, 0x0d, 0xfe, 0x06, 0x19,
  0xfd, 0xf4, 0xfd, 0x01, 0xf7, 0x00, 0xf9, 0x04, 0x0d, 0x05, 0xfe, 0xf9,
  0xf5, 0x09, 0xf6, 0xfe, 0x01, 0xf9, 0xfd, 0x06, 0x05, 0x05, 0xf7, 0xff,
  0x05, 0xfb, 0x08, 0xf7, 0x00, 0x03, 0x07, 0xff, 0xf5, 0xfe, 0x00, 0x6a,
  0xfd, 0x10, 0xfe, 0x09, 0xfb, 0x05, 0x0b, 0x07, 0xf8, 0xfc, 0xfd, 0x02,
  0x02, 0x08, 0xf9, 0xf8, 0xf5, 0x0b, 0x04, 0x04, 0xfa, 0x01, 0xfb, 0x03,
  0xf6, 0x02, 0x02, 0x04, 0xfc, 0xfa, 0x01, 0x03, 0xf3, 0xf7, 0xf7, 0x0a,
  0xfb, 0xf9, 0x0a, 0x11, 0x02, 0xf9, 0xf9, 0xff, 0x05, 0xfd, 0x00, 0x00,
  0x09, 0x02, 0x02, 0xf6, 0x04, 0xf5, 0x0b, 0x01, 0xfe, 0x00, 0xe2, 0x02,
  0xfb, 0xff, 0xfd, 0x00, 0x05, 0x01, 0xfc, 0x03, 0x02, 0xf9, 0x04, 0x0a,
  0xfb, 0x01, 0x0b, 0x03, 0x00, 0x00, 0x02, 0xfb, 0x05, 0xf9, 0xfe, 0xfb,
  0x01, 0x01, 0xfc, 0xfe, 0xf6, 0xfc, 0x00, 0xfc, 0x0a, 0x1b, 0xfe, 0x07,
  0x06, 0x00, 0x05, 0xf8, 0x04, 0x0a, 0xfd, 0xfd, 0x03, 0x03, 0x04, 0x04,
  0x07, 0x02, 0x00, 0x00, 0x02, 0x07, 0xfe, 0xfa, 0xff, 0x06, 0xf9, 0x02,
  0x05, 0x01, 0xf8, 0x00, 0x06, 0xf7, 0x04, 0x01, 0x01, 0xf8, 0x01, 0x08,
  0x05, 0x02, 0xfa, 0xff, 0xfd, 0x06, 0xfc, 0x01, 0xff, 0xfa, 0xf6, 0x01,
  0x02, 0x01, 0xff, 0xfd, 0x02, 0xfe, 0x00, 0xfb, 0x00, 0x02, 0xf8, 0x05,
  0xfd, 0xee, 0xff, 0xe8, 0xfb, 0xfc, 0x04, 0xfe, 0xfe, 0xff, 0x00, 0x04,
  0x08, 0xfa, 0x05, 0x00, 0x05, 0x02, 0x01, 0xfe, 0x00, 0x03, 0xfc, 0x04,
  0x01, 0xfe, 0x02, 0x03, 0xfc, 0x01, 0xff, 0xfb, 0x03, 0x05, 0x03, 0x0c,
  0x03, 0x04, 0x02, 0xf7, 0x00, 0x04, 0x01, 0x00, 0xfe, 0xfa, 0x00, 0xfa,
  0x06, 0xf2, 0xff, 0x07, 0x05, 0xff, 0xfc, 0x06, 0x01, 0x03, 0xfc, 0x02,
  0x04, 0x0c, 0xf4, 0x03, 0xfb, 0xf4, 0x09, 0xf5, 0xfb, 0x00, 0x01, 0x07,
  0x02, 0xfb, 0xfd, 0xfc, 0xff, 0x07, 0xf6, 0xfa, 0x05, 0xf2, 0x05, 0x00,
  0x03, 0x00, 0xff, 0x00, 0x02, 0xfd, 0xfc, 0xfc, 0x03, 0x03, 0xf9, 0xf8,
  0x01, 0x0b, 0x06, 0xff, 0xf9, 0x06, 0xff, 0x06, 0xfc, 0x07, 0xff, 0x03,
  0xf6, 0x00, 0x04, 0x02, 0xfe, 0xff, 0xff, 0x06, 0x09, 0x06, 0xf4, 0xfe,
  0x04, 0x00, 0xfe, 0x0d, 0xfe, 0xff, 0xfc, 0xfa, 0x05, 0x0f, 0x05, 0x04,
  0xfe, 0xfc, 0x00, 0xfc, 0x00, 0xff, 0x02, 0x08, 0x02, 0x07, 0xfb, 0x06,
  0xf4, 0xf8, 0xf5, 0xf8, 0xff, 0xfa, 0x08, 0xff, 0x02, 0xf7, 0xfc, 0xfd,
  0xfc, 0xfd, 0x02, 0xfd, 0x06, 0xfa, 0x04, 0xf2, 0x06, 0xf8, 0xff, 0xf9,
  0xfc, 0x00, 0x02, 0xff, 0xf9, 0xf5, 0xf0, 0xfa, 0x04, 0x08, 0x00, 0xfd,
  0x02, 0x05, 0xff, 0x07, 0xf9, 0xfe, 0x00, 0x05, 0xfb, 0x0c, 0x08, 0xff,
  0xfc, 0xff, 0xff, 0x03, 0xfa, 0x0a, 0x02, 0xfe, 0x06, 0x04, 0x01, 0x02,
  0x02, 0x00, 0x05, 0x08, 0x00, 0xfc, 0xfd, 0x03, 0xfc, 0x05, 0xff, 0x03,
  0x05, 0x01, 0x06, 0x05, 0x00, 0x04, 0xfc, 0xfe, 0xfc, 0xff, 0xfd, 0xfe,
  0x02, 0xf7, 0xf4, 0x01, 0xf6, 0xf3, 0xff, 0x02, 0xfe, 0x01, 0xfa, 0xfd,
  0x04, 0x09, 0x0b, 0x09, 0xfe, 0x01, 0xf9, 0xf8, 0x04, 0xff, 0xf5, 0xfc,
  0xf6, 0xff, 0xf7, 0xff, 0xf7, 0x07, 0xfb, 0x07, 0x03, 0x05, 0x04, 0x03,
  0xfd, 0x06, 0x08, 0x04, 0x08, 0x00, 0x01, 0xfe, 0xee, 0x02, 0x03, 0xf5,
  0x04, 0xf7, 0x00, 0x02, 0xf4, 0x04, 0x0a, 0x04, 0xfc, 0x00, 0x0e, 0x02,
  0x00, 0x0a, 0xfa, 0xfd, 0x02, 0x07, 0xf8, 0xfa, 0x07, 0xfd, 0x01, 0xf8,
  0x01, 0x04, 0xf0, 0x09, 0xfb, 0x0c, 0x04, 0xf2, 0xf2, 0x00, 0xf8, 0x01,
  0xff, 0x02, 0x09, 0x08, 0xfc, 0xfd, 0xfe, 0xfa, 0x01, 0x1a, 0xf6, 0x18,
  0x04, 0x05, 0xf7, 0x03, 0x02, 0xfd, 0x00, 0xfa, 0xf0, 0xfb, 0xff, 0x01,
  0x00, 0x15, 0x00, 0x00, 0xff, 0xf3, 0x0a, 0xff, 0x05, 0xf9, 0xff, 0xef,
  0x00, 0xf9, 0x05, 0x04, 0xfc, 0x01, 0xfb, 0x0b, 0x05, 0x06, 0x00, 0xfc,
  0x0d, 0xfb, 0xfe, 0xf0, 0xf0, 0x01, 0xff, 0x0c, 0xf9, 0x03, 0x00, 0x04,
  0x02, 0x00, 0xfe, 0x03, 0x98, 0xf2, 0x0a, 0xfd, 0x05, 0x07, 0x08, 0xfb,
  0xf9, 0xfc, 0x02, 0x06, 0xf9, 0xfa, 0xf9, 0xfd, 0x00, 0x04, 0xfc, 0xf2,
  0x03, 0x02, 0x09, 0xfc, 0x03, 0x00, 0x06, 0x0e, 0xfa, 0x1b, 0xfc, 0xfb,
  0x09, 0x05, 0xfc, 0x01, 0x0b, 0x09, 0xf9, 0xf9, 0xd9, 0xfb, 0x00, 0xf5,
  0xfb, 0x00, 0xfe, 0x04, 0x04, 0x03, 0x00, 0x03, 0xfd, 0x00, 0xf2, 0xfd,
  0xf9, 0x07, 0xfd, 0x04, 0xf9, 0xf0, 0x09, 0xf8, 0x03, 0xfe, 0xfd, 0xfb,
  0xfd, 0xf8, 0x0a, 0x01, 0x01, 0x07, 0x05, 0xfc, 0x01, 0xfd, 0xfc, 0xf6,
  0x00, 0xe3, 0x00, 0xff, 0x05, 0xf7, 0x01, 0x06, 0xfd, 0xfc, 0xf8, 0xfc,
  0xff, 0x04, 0xe2, 0x00, 0xfb, 0x08, 0xf9, 0x06, 0xf8, 0x07, 0xfb, 0x00,
  0x02, 0x11, 0xfe, 0x10, 0x03, 0xfa, 0x03, 0x04, 0xfd, 0xfe, 0x02, 0x01,
  0x04, 0x00, 0xf9, 0xfa, 0x05, 0x03, 0x09, 0xfc, 0x01, 0xf3, 0x00, 0x04,
  0x09, 0x06, 0xf6, 0x04, 0xff, 0x00, 0xfc, 0xfd, 0xfe, 0xfe, 0x0b, 0x0a,
  0xff, 0xfc, 0x0b, 0x04, 0x04, 0x04, 0xfc, 0x03, 0xfb, 0x02, 0xfb, 0xd0,
  0x04, 0x0e, 0xf8, 0xf5, 0xfe, 0xfb, 0xfd, 0x03, 0x05, 0x05, 0xfc, 0x0d,
  0x04, 0xf8, 0xf3, 0x04, 0x04, 0x02, 0xec, 0x00, 0xfc, 0xfb, 0x02, 0xfe,
  0xfc, 0xfb, 0xfe, 0x05, 0x07, 0xf5, 0x02, 0xfc, 0x0e, 0x10, 0xfb, 0xc3,
  0x04, 0xf6, 0xfa, 0xfb, 0xfe, 0xfd, 0x07, 0x02, 0xfd, 0x06, 0x01, 0xfd,
  0xff, 0xf7, 0xff, 0x06, 0x03, 0xff, 0x0b, 0x09, 0xf9, 0x06, 0xfa, 0x00,
  0x06, 0x05, 0x06, 0x01, 0xfe, 0x00, 0xfd, 0x09, 0x02, 0xf9, 0x03, 0x02,
  0xfb, 0x14, 0xf6, 0xfa, 0xfc, 0xf8, 0x01, 0xf1, 0xf7, 0xfd, 0x0e, 0xf4,
  0xfd, 0xfa, 0xff, 0xfd, 0xf5, 0x0d, 0xfe, 0x15, 0xfc, 0xf6, 0xf8, 0xfe,
  0x05, 0x06, 0xf3, 0x01, 0xfd, 0xfd, 0x00, 0xfc, 0xfa, 0xfd, 0x05, 0x06,
  0x02, 0xfe, 0xff, 0x06, 0x04, 0x0e, 0x05, 0xf0, 0x05, 0xff, 0x07, 0xfa,
  0x01, 0xff, 0x07, 0x08, 0x03, 0x08, 0x08, 0xf9, 0xfe, 0xed, 0x01, 0x00,
  0x00, 0x0b, 0x0a, 0xf7, 0xf6, 0x00, 0xf2, 0xff, 0x01, 0x0b, 0x05, 0x01,
  0x03, 0xfd, 0x00, 0xff, 0x09, 0x02, 0xfd, 0xff, 0xff, 0x05, 0xfa, 0xfd,
  0x08, 0x03, 0xf9, 0x00, 0x03, 0xf6, 0x01, 0x02, 0x04, 0xff, 0x01, 0x00,
  0x03, 0x0d, 0x00, 0x01, 0xfa, 0xff, 0xe6, 0xfe, 0xfd, 0xfe, 0x02, 0xfe,
  0x04, 0x01, 0xfc, 0xfd, 0x03, 0xfc, 0xf9, 0xfb, 0x06, 0x04, 0xfd, 0x03,
  0xfc, 0xe5, 0x0c, 0xed, 0xfe, 0xf6, 0x02, 0xfc, 0xff, 0x04, 0xff, 0x04,
  0x03, 0xfd, 0x01, 0x01, 0x04, 0xf5, 0x02, 0xff, 0x00, 0xfd, 0xfc, 0xff,
  0xfe, 0xfb, 0xfc, 0x04, 0x00, 0x04, 0xff, 0xf9, 0xfc, 0xef, 0x03, 0xf2,
  0x0b, 0x04, 0x03, 0xfb, 0x00, 0xf6, 0x0c, 0x0c, 0x08, 0xfd, 0xff, 0x1c,
  0x08, 0xfd, 0xfc, 0xfe, 0x08, 0xfe, 0x04, 0xff, 0xfc, 0xf8, 0xff, 0xeb,
  0x08, 0x0f, 0xf2, 0x04, 0xfa, 0x00, 0x0f, 0x09, 0x00, 0x01, 0xf6, 0x01,
  0x06, 0xf7, 0xf6, 0xf9, 0xfe, 0x05, 0xfa, 0x08, 0x03, 0x00, 0x03, 0x03,
  0xfd, 0xff, 0xfc, 0x00, 0xfb, 0x04, 0xfb, 0x04, 0xfb, 0x01, 0xf2, 0x02,
  0xfc, 0xef, 0x03, 0xfb, 0xff, 0xf8, 0xfc, 0xf6, 0x05, 0xf6, 0x07, 0x00,
  0x05, 0x05, 0xfa, 0xfa, 0x04, 0xfc, 0x05, 0x0a, 0xf5, 0x0e, 0x08, 0xff,
  0xfd, 0x08, 0x03, 0x03, 0x03, 0x02, 0xfe, 0xbd, 0xfd, 0xf6, 0x00, 0xfb,
  0xfd, 0xf6, 0x00, 0x00, 0xff, 0x05, 0xf5, 0x02, 0xfd, 0xf9, 0x01, 0xf4,
  0x0f, 0x01, 0xec, 0x03, 0x05, 0xfa, 0x13, 0x00, 0xfe, 0xed, 0xfe, 0xfd,
  0xfb, 0xf8, 0x01, 0x04, 0x04, 0x03, 0xff, 0xe9, 0xf8, 0xf9, 0xfd, 0x04,
  0xfa, 0xfe, 0x04, 0x0a, 0x03, 0xf9, 0x04, 0x01, 0xfa, 0xf4, 0xf9, 0x00,
  0x05, 0x02, 0x03, 0x00, 0xfc, 0x04, 0x04, 0xfe, 0x0a, 0x08, 0xfd, 0xfe,
  0xf7, 0xf8, 0x0b, 0xfc, 0x03, 0x06, 0x06, 0xfa, 0x04, 0x00, 0x02, 0xf9,
  0x08, 0xff, 0xfe, 0x03, 0xfb, 0xec, 0xfb, 0x09, 0x05, 0xf5, 0x02, 0x01,
  0xfd, 0xf1, 0x01, 0xf1, 0x06, 0xff, 0x0f, 0x01, 0xf5, 0xfe, 0x0f, 0xfb,
  0x02, 0x05, 0xe7, 0xfc, 0x0e, 0xfc, 0x01, 0xfe, 0xfa, 0x03, 0xf4, 0x04,
  0xfe, 0xfd, 0xfd, 0x12, 0xfb, 0xfd, 0xfd, 0x06, 0xf9, 0x07, 0x09, 0xfe,
  0x03, 0x08, 0xe9, 0x00, 0x09, 0xf5, 0x01, 0xfc, 0x02, 0xfa, 0xf5, 0x03,
  0x03, 0xf3, 0x08, 0x01, 0x06, 0xfe, 0xff, 0xf4, 0x00, 0x01, 0x07, 0x08,
  0x03, 0xfd, 0xfd, 0xfa, 0x00, 0xfc, 0x07, 0x10, 0x05, 0x06, 0x07, 0x12,
  0x06, 0x14, 0xfd, 0xfd, 0xf6, 0xff, 0xfc, 0x06, 0x07, 0x0b, 0xf2, 0xf9,
  0xff, 0xfb, 0xfe, 0xff, 0xfc, 0xfe, 0xef, 0xf5, 0xfd, 0x00, 0x15, 0x04,
  0xf7, 0x02, 0x06, 0x08, 0xfd, 0xfc, 0xf5, 0xfd, 0x00, 0x0d, 0xfe, 0xe1,
  0x03, 0xfb, 0xfc, 0x04, 0xf9, 0x00, 0x03, 0xff, 0xf2, 0xf3, 0xf1, 0xfe,
  0x08, 0x1d, 0x03, 0x04, 0x06, 0xff, 0x01, 0x09, 0xf8, 0x00, 0xfa, 0xff,
  0xf9, 0xfb, 0x0b, 0x04, 0x05, 0x03, 0xff, 0xf7, 0x00, 0x01, 0xfc, 0x04,
  0xfc, 0xf2, 0x06, 0x13, 0xfa, 0xfd, 0x00, 0x00, 0x01, 0x04, 0xfb, 0x00,
  0xfd, 0x01, 0xfa, 0x04, 0x05, 0x06, 0xfa, 0x05, 0x00, 0x03, 0x09, 0x04,
  0xfe, 0x00, 0x05, 0xfe, 0x02, 0xfb, 0x0b, 0xff, 0xfa, 0xf6, 0x05, 0xfd,
  0xfd, 0xff, 0xff, 0xfb, 0xfe, 0x06, 0x04, 0x1a, 0x02, 0x04, 0xfd, 0xff,
  0x04, 0xfd, 0xfa, 0xf8, 0xec, 0x01, 0xf8, 0x00, 0x00, 0x0e, 0xf5, 0xfc,
  0x01, 0x01, 0x10, 0x09, 0xfb, 0x04, 0x03, 0xfc, 0x02, 0xf9, 0x02, 0x06,
  0x01, 0x03, 0xf9, 0xfe, 0xff, 0xf8, 0xff, 0xfd, 0x04, 0x0a, 0x05, 0xfa,
  0x08, 0x02, 0xfc, 0xf9, 0xfa, 0xf0, 0x03, 0xfd, 0x03, 0xfc, 0x05, 0x06,
  0x09, 0x03, 0xfd, 0x03, 0xfb, 0xfb, 0x18, 0xfc, 0xff, 0x02, 0xf1, 0x10,
  0x01, 0x06, 0xff, 0xfe, 0x03, 0xff, 0xfe, 0xff, 0xfd, 0x06, 0xf9, 0xfe,
  0xfe, 0xf5, 0x0f, 0xf2, 0xfb, 0x03, 0xfe, 0xfa, 0x01, 0x02, 0xff, 0x05,
  0x06, 0x0a, 0xfe, 0xfe, 0x01, 0xfa, 0x05, 0xfe, 0xff, 0x07, 0x02, 0xfb,
  0xfc, 0xfc, 0xfd, 0x07, 0xfd, 0x09, 0x03, 0xfd, 0x01, 0x07, 0x00, 0x00,
  0x03, 0xfa, 0xf7, 0xfd, 0xff, 0xf9, 0xf2, 0x0b, 0x02, 0xfc, 0xff, 0xda,
  0x08, 0x05, 0xfa, 0x05, 0x03, 0x04, 0x08, 0xfb, 0x04, 0xfb, 0xfb, 0x08,
  0xfa, 0xfc, 0x07, 0x06, 0x01, 0x07, 0xfb, 0x0a, 0x00, 0x03, 0x02, 0xfc,
  0x00, 0xfe, 0x05, 0x04, 0xf9, 0x01, 0xfe, 0xfc, 0x00, 0x07, 0x01, 0x15,
  0xff, 0xf9, 0xf8, 0xfa, 0xf6, 0x02, 0xf8, 0xfe, 0xf9, 0xfc, 0x00, 0xfc,
  0x07, 0x0a, 0x03, 0x02, 0x02, 0x05, 0xfa, 0xff, 0x06, 0xfd, 0xf7, 0x00,
  0xf7, 0xfd, 0xfe, 0xff, 0x03, 0xfe, 0xfb, 0x01, 0x04, 0x0c, 0xf9, 0x03,
  0xfe, 0x01, 0xfe, 0xfd, 0xfc, 0xfc, 0xfb, 0x0c, 0xfa, 0xfa, 0x02, 0x06,
  0x03, 0x0a, 0xfd, 0xfe, 0xf7, 0xfb, 0xfe, 0xf8, 0xfa, 0xfe, 0xf5, 0x07,
  0xf9, 0xf6, 0x00, 0xff, 0xff, 0xfe, 0xe8, 0xfc, 0x02, 0x01, 0xfc, 0xff,
  0x06, 0x06, 0x00, 0xff, 0xfe, 0x05, 0xfe, 0x0d, 0xf5, 0x07, 0x05, 0x01,
  0x04, 0xfc, 0xfb, 0xfd, 0x06, 0xff, 0x04, 0xfd, 0xf8, 0xf9, 0x06, 0xfd,
  0x05, 0x01, 0xfa, 0xfc, 0xfe, 0x06, 0x01, 0x00, 0x00, 0xff, 0x06, 0x05,
  0xfd, 0x05, 0xfe, 0xfe, 0xfd, 0xf8, 0xff, 0x00, 0xff, 0x02, 0x04, 0x01,
  0xfa, 0xf7, 0x0a, 0x03, 0x04, 0x06, 0x01, 0xfd, 0x01, 0x07, 0x00, 0xf6,
  0x02, 0x01, 0x07, 0x01, 0x02, 0xfb, 0x05, 0x01, 0x01, 0x00, 0xf8, 0xfc,
  0xfd, 0xfd, 0x02, 0x00, 0x06, 0xf7, 0xee, 0x06, 0xff, 0x00, 0xff, 0x01,
  0x00, 0x0b, 0xfc, 0x09, 0xff, 0xff, 0x00, 0x04, 0xfe, 0xfe, 0xfc, 0xfe,
  0x00, 0xff, 0xfe, 0xfe, 0x04, 0xff, 0xfe, 0x04, 0x02, 0x00, 0x02, 0x00,
  0x02, 0x02, 0x02, 0xfb, 0x01, 0x01, 0xfd, 0xf8, 0x01, 0x10, 0xff, 0x06,
  0xe7, 0xf1, 0xf9, 0x01, 0x09, 0x0a, 0x09, 0x01, 0x02, 0xfd, 0x17, 0x05,
  0x04, 0xfb, 0x02, 0x01, 0x07, 0x01, 0xff, 0x05, 0x09, 0xfb, 0xf8, 0x07,
  0x03, 0x04, 0xf0, 0xfe, 0xf8, 0xff, 0x08, 0xf8, 0xff, 0xfb, 0x13, 0xff,
  0xf8, 0x08, 0xee, 0x01, 0xf9, 0x07, 0xfb, 0xfe, 0x01, 0x03, 0x03, 0xf3,
  0x07, 0x0d, 0xfb, 0x01, 0xfc, 0x00, 0x03, 0xfa, 0xf9, 0xf1, 0xf5, 0xfe,
  0x06, 0x07, 0x06, 0xfe, 0xfb, 0xfd, 0x00, 0x05, 0x0e, 0xfb, 0x03, 0x06,
  0xf8, 0xfb, 0x05, 0xf8, 0x04, 0xfc, 0xfb, 0xfe, 0x03, 0x05, 0x02, 0x02,
  0xfe, 0x04, 0xfd, 0xf1, 0x07, 0xff, 0xfa, 0xeb, 0x00, 0xf0, 0x04, 0xfd,
  0xfc, 0x00, 0xfd, 0xfe, 0xfe, 0x03, 0xfd, 0x02, 0xfa, 0xfe, 0xed, 0xfa,
  0x04, 0x04, 0x02, 0xfe, 0x02, 0x00, 0x02, 0xfc, 0x07, 0xfb, 0xff, 0xfb,
  0xfe, 0x03, 0x04, 0x05, 0xfd, 0xf9, 0x07, 0xf4, 0xf9, 0x05, 0x02, 0x06,
  0x00, 0x01, 0x04, 0x09, 0x08, 0xfe, 0x05, 0x02, 0x00, 0xea, 0xfe, 0x01,
  0x00, 0xff, 0xfc, 0xfe, 0xff, 0x02, 0x06, 0xff, 0x01, 0x04, 0xf6, 0xfc,
  0xff, 0xf1, 0xfc, 0xfb, 0x00, 0xff, 0x07, 0x02, 0x00, 0x00, 0xfe, 0x02,
  0x01, 0xf8, 0xf9, 0x21, 0x03, 0x0b, 0x05, 0xfb, 0x06, 0xf3, 0x01, 0xff,
  0x00, 0xf9, 0x02, 0x09, 0x02, 0x08, 0x00, 0x01, 0xf6, 0xfe, 0xf7, 0x03,
  0x00, 0xfc, 0xf5, 0x03, 0x02, 0xff, 0xfe, 0x06, 0x00, 0x00, 0x01, 0x00,
  0x06, 0xf4, 0x03, 0x04, 0x03, 0x00, 0x04, 0xff, 0xf5, 0x03, 0xfe, 0x01,
  0x01, 0x04, 0x02, 0xf9, 0xfe, 0xef, 0xf8, 0xfe, 0x00, 0xf4, 0xfa, 0xfe,
  0x00, 0xff, 0xf2, 0x01, 0x03, 0x02, 0x02, 0xfd, 0x04, 0x00, 0xfe, 0xf6,
  0xf9, 0x01, 0xfe, 0x06, 0xfc, 0x01, 0xf8, 0xf0, 0xff, 0xff, 0xfb, 0xef,
  0xfc, 0x00, 0x09, 0x00, 0x08, 0xfd, 0x06, 0x03, 0xf5, 0xf7, 0x02, 0x0d,
  0x04, 0x05, 0x0a, 0x0b, 0x00, 0xfc, 0x03, 0xef, 0xfa, 0xfd, 0xdb, 0xfe,
  0x00, 0x00, 0xfa, 0xfa, 0xff, 0x00, 0x0c, 0x07, 0x01, 0xfd, 0xff, 0xef,
  0xfa, 0x02, 0x06, 0x0a, 0x06, 0xfc, 0xfd, 0x03, 0x0b, 0x03, 0xff, 0xfe,
  0xf9, 0xf8, 0x00, 0x00, 0x00, 0xf8, 0x02, 0xf1, 0xfe, 0x0b, 0x07, 0xfd,
  0x03, 0xfd, 0xfe, 0xfa, 0xf8, 0x04, 0xfc, 0x01, 0xfd, 0xff, 0x03, 0x02,
  0xf8, 0xf8, 0x01, 0xfe, 0xfb, 0xf9, 0x08, 0xfc, 0xfa, 0x03, 0x02, 0xfc,
  0x00, 0x08, 0xfd, 0xf9, 0xfa, 0xf9, 0x04, 0x04, 0xff, 0xf7, 0x00, 0x01,
  0x04, 0xfd, 0xfb, 0xfd, 0xff, 0xfb, 0x01, 0xfe, 0x00, 0x04, 0x05, 0x09,
  0xfe, 0x02, 0x01, 0xfc, 0x03, 0x12, 0xfb, 0x1e, 0x05, 0x0a, 0x03, 0x04,
  0x05, 0xfa, 0x05, 0xf8, 0xf5, 0xfc, 0xfc, 0xfe, 0x00, 0x0b, 0xff, 0xff,
  0x00, 0xfa, 0x01, 0xfc, 0xfd, 0x04, 0x00, 0xfd, 0x05, 0xfd, 0x05, 0x01,
  0x03, 0x01, 0x00, 0xf5, 0xfe, 0x00, 0xfb, 0xfc, 0xf4, 0x05, 0xfe, 0x07,
  0xfe, 0xfc, 0x08, 0x08, 0xfd, 0x04, 0x00, 0xfd, 0x00, 0xfc, 0x02, 0xfe,
  0xfa, 0x05, 0xfa, 0xf7, 0xfa, 0x04, 0xfa, 0x0f, 0xfc, 0x02, 0x0a, 0x06,
  0x01, 0xfd, 0x04, 0x01, 0xf9, 0x07, 0x02, 0xff, 0x03, 0x05, 0xf9, 0xfe,
  0xfd, 0x05, 0xfa, 0x21, 0xf9, 0x04, 0x01, 0xff, 0x06, 0xfd, 0x08, 0x03,
  0x00, 0xfb, 0xfe, 0xf9, 0x08, 0x13, 0x05, 0xfe, 0x03, 0xf3, 0xfe, 0xfe,
  0x06, 0xfe, 0xfc, 0xfa, 0xfa, 0x00, 0xfa, 0xf4, 0x03, 0xfa, 0xff, 0xfa,
  0xfd, 0x1a, 0xfc, 0x08, 0xf6, 0xfa, 0xf5, 0xfc, 0x04, 0x08, 0xf3, 0xeb,
  0x01, 0xfb, 0x05, 0xff, 0xf7, 0xfd, 0xff, 0x00, 0xfc, 0x06, 0x03, 0xf7,
  0x00, 0xfe, 0xe9, 0xf8, 0x06, 0x08, 0xf4, 0x05, 0x04, 0x04, 0xe9, 0xf7,
  0x0b, 0x03, 0x11, 0x02, 0xfa, 0x01, 0x01, 0x03, 0x02, 0xf6, 0xff, 0x10,
  0x02, 0xf7, 0x08, 0x03, 0xff, 0x03, 0x07, 0x03, 0x00, 0xff, 0x06, 0x07,
  0x02, 0xf9, 0xfb, 0x01, 0xfe, 0xfc, 0xf8, 0x09, 0xfb, 0xf7, 0x0b, 0xf8,
  0x01, 0x01, 0x02, 0x05, 0x0c, 0xfa, 0x00, 0x03, 0xf7, 0x14, 0xff, 0xfc,
  0xfc, 0xfd, 0xfb, 0xfa, 0x04, 0x04, 0xf5, 0xf5, 0xff, 0x07, 0x04, 0x0a,
  0x03, 0x03, 0x00, 0x05, 0xfd, 0xf8, 0x00, 0xfb, 0x05, 0xfd, 0xee, 0xfd,
  0xff, 0xfe, 0x02, 0xfd, 0xff, 0x00, 0x04, 0xff, 0xfb, 0x08, 0x01, 0xfa,
  0xfa, 0xfd, 0xfe, 0xfc, 0x00, 0xf7, 0x03, 0xec, 0xf7, 0xf8, 0xfe, 0x00,
  0xf5, 0xfe, 0xfc, 0x05, 0x08, 0xf5, 0xff, 0xfa, 0xfe, 0x07, 0x00, 0xfc,
  0x03, 0xfe, 0xf9, 0x0d, 0xfa, 0xfa, 0xf8, 0xfc, 0xfb, 0x07, 0x00, 0x04,
  0xfb, 0xff, 0xff, 0xfe, 0xf1, 0xf6, 0xfb, 0xfe, 0x05, 0x05, 0x01, 0x01,
  0xf6, 0xff, 0x12, 0x0b, 0xfb, 0xfd, 0x0d, 0x00, 0x01, 0x00, 0xff, 0x00,
  0x00, 0x00, 0x03, 0x0d, 0x07, 0xf5, 0xf0, 0xfe, 0xf5, 0xfb, 0x08, 0xf3,
  0xfd, 0xfb, 0xfa, 0xfe, 0x00, 0xf8, 0xf6, 0x01, 0xfa, 0xff, 0xfe, 0xfd,
  0x06, 0x04, 0x02, 0x9d, 0x09, 0x01, 0x08, 0xff, 0x04, 0x01, 0x00, 0xfd,
  0xff, 0x07, 0x02, 0x00, 0x02, 0x00, 0xfc, 0x02, 0x05, 0xf3, 0x03, 0xfc,
  0xff, 0x03, 0xfb, 0x06, 0x0a, 0xfa, 0x01, 0xfe, 0x00, 0xf9, 0x00, 0x0b,
  0x05, 0xff, 0x08, 0xfb, 0x05, 0x05, 0xfe, 0x02, 0xfb, 0xfe, 0xf7, 0x09,
  0xf0, 0xf5, 0x03, 0x05, 0x06, 0xf7, 0x00, 0x07, 0xfe, 0xef, 0x00, 0x03,
  0x02, 0x05, 0x07, 0xff, 0xfb, 0xfe, 0x04, 0xfd, 0x01, 0x01, 0xfb, 0xfc,
  0x02, 0x01, 0xfd, 0xfc, 0xfd, 0xfd, 0x02, 0xfa, 0x04, 0xf2, 0x05, 0x05,
  0x03, 0xed, 0x02, 0xf8, 0xfa, 0x00, 0x03, 0xf7, 0x06, 0x09, 0xf1, 0xff,
  0xfe, 0xff, 0x04, 0xff, 0x06, 0xfc, 0xff, 0xf5, 0xfb, 0xfe, 0xff, 0x02,
  0x0b, 0xfe, 0x02, 0x01, 0xff, 0x08, 0xf6, 0xfe, 0xff, 0x01, 0xfb, 0xfc,
  0x08, 0x01, 0x03, 0x04, 0x00, 0xff, 0x19, 0x05, 0xee, 0x03, 0x02, 0x05,
  0x04, 0xf6, 0x06, 0xfe, 0xfc, 0xfa, 0x01, 0x05, 0xf0, 0x00, 0x05, 0x06,
  0xfe, 0xf7, 0xed, 0x05, 0x04, 0x00, 0xed, 0xfa, 0x01, 0x09, 0xfb, 0xf7,
  0xf7, 0x01, 0xf4, 0xff, 0xf5, 0xfa, 0x03, 0x0c, 0x07, 0xf8, 0x04, 0xf6,
  0xef, 0x03, 0xfe, 0xfc, 0x01, 0x00, 0xfe, 0x00, 0xfd, 0xff, 0x01, 0xfc,
  0x03, 0x03, 0xf9, 0xc7, 0x03, 0xb9, 0xf0, 0x05, 0x06, 0xfb, 0x02, 0xfd,
  0xfe, 0xf5, 0x09, 0x09, 0xfa, 0x0c, 0x04, 0x02, 0xfc, 0xf5, 0x01, 0x00,
  0x0a, 0xfe, 0xff, 0x05, 0x07, 0x0b, 0xfa, 0xfe, 0x01, 0x03, 0xf9, 0xfd,
  0x01, 0xfc, 0xfe, 0xed, 0x07, 0x03, 0xeb, 0xf9, 0x0a, 0x04, 0xfb, 0xfc,
  0xff, 0x01, 0xfd, 0x03, 0xf9, 0xfa, 0x06, 0xff, 0x01, 0xfe, 0x08, 0x05,
  0x07, 0x0c, 0xf9, 0x12, 0xfe, 0xfc, 0xf8, 0x03, 0xf7, 0x04, 0x01, 0x01,
  0xff, 0xfc, 0xf7, 0x03, 0x02, 0x01, 0x00, 0xf4, 0xfb, 0x0a, 0xff, 0xf9,
  0x05, 0x0b, 0x03, 0xff, 0xfb, 0x02, 0xfc, 0xfd, 0xfb, 0x01, 0xfb, 0x05,
  0xff, 0xff, 0x02, 0xfc, 0xff, 0xf7, 0x00, 0xfe, 0xff, 0xfd, 0x08, 0x04,
  0x05, 0xfb, 0x02, 0x03, 0x03, 0x04, 0x01, 0x03, 0xfe, 0xf6, 0x05, 0x01,
  0xfc, 0x00, 0xe4, 0xff, 0x01, 0x00, 0xf2, 0xfd, 0xfd, 0xfd, 0x81, 0x02,
  0x00, 0x01, 0x00, 0x07, 0xf8, 0x03, 0x01, 0x00, 0x01, 0xff, 0xfa, 0x09,
  0x00, 0x08, 0x05, 0x02, 0xfc, 0xfe, 0x02, 0x04, 0xff, 0xed, 0xf9, 0xfd,
  0x00, 0x05, 0x02, 0x03, 0x03, 0xfe, 0x01, 0xff, 0x0a, 0xf4, 0x07, 0x02,
  0x01, 0xfe, 0xfe, 0x01, 0xfa, 0x0c, 0x02, 0xf0, 0x05, 0x01, 0xf9, 0xfe,
  0x05, 0x04, 0xfe, 0xfe, 0xff, 0x01, 0x03, 0xfa, 0xf7, 0xf6, 0x07, 0xfe,
  0x04, 0x01, 0x04, 0xfb, 0x02, 0x04, 0x04, 0xf8, 0x00, 0xfd, 0xff, 0xfe,
