unsigned char acels_models_81_model_tflite[] = {
  0x1c, 0x00, 0x00, 0x00, 0x54, 0x46, 0x4c, 0x33, 0x14, 0x00, 0x20, 0x00,
  0x1c, 0x00, 0x18, 0x00, 0x14, 0x00, 0x10, 0x00, 0x0c, 0x00, 0x00, 0x00,
  0x08, 0x00, 0x04, 0x00, 0x14, 0x00, 0x00, 0x00, 0x1c, 0x00, 0x00, 0x00,
  0x8c, 0x00, 0x00, 0x00, 0xe4, 0x00, 0x00, 0x00, 0x9c, 0x4f, 0x00, 0x00,
  0xac, 0x4f, 0x00, 0x00, 0x90, 0x65, 0x00, 0x00, 0x03, 0x00, 0x00, 0x00,
  0x01, 0x00, 0x00, 0x00, 0x04, 0x00, 0x00, 0x00, 0xc6, 0xad, 0xff, 0xff,
  0x0c, 0x00, 0x00, 0x00, 0x1c, 0x00, 0x00, 0x00, 0x3c, 0x00, 0x00, 0x00,
  0x0f, 0x00, 0x00, 0x00, 0x73, 0x65, 0x72, 0x76, 0x69, 0x6e, 0x67, 0x5f,
  0x64, 0x65, 0x66, 0x61, 0x75, 0x6c, 0x74, 0x00, 0x01, 0x00, 0x00, 0x00,
  0x04, 0x00, 0x00, 0x00, 0x90, 0xff, 0xff, 0xff, 0x21, 0x00, 0x00, 0x00,
  0x04, 0x00, 0x00, 0x00, 0x09, 0x00, 0x00, 0x00, 0x64, 0x65, 0x6e, 0x73,
  0x65, 0x5f, 0x34, 0x37, 0x33, 0x00, 0x00, 0x00, 0x01, 0x00, 0x00, 0x00,
  0x04, 0x00, 0x00, 0x00, 0xf2, 0xb0, 0xff, 0xff, 0x04, 0x00, 0x00, 0x00,
  0x0f, 0x00, 0x00, 0x00, 0x64, 0x65, 0x6e, 0x73, 0x65, 0x5f, 0x34, 0x36,
  0x38, 0x5f, 0x69, 0x6e, 0x70, 0x75, 0x74, 0x00, 0x02, 0x00, 0x00, 0x00,
  0x34, 0x00, 0x00, 0x00, 0x04, 0x00, 0x00, 0x00, 0xdc, 0xff, 0xff, 0xff,
  0x24, 0x00, 0x00, 0x00, 0x04, 0x00, 0x00, 0x00, 0x13, 0x00, 0x00, 0x00,
  0x43, 0x4f, 0x4e, 0x56, 0x45, 0x52, 0x53, 0x49, 0x4f, 0x4e, 0x5f, 0x4d,
  0x45, 0x54, 0x41, 0x44, 0x41, 0x54, 0x41, 0x00, 0x08, 0x00, 0x0c, 0x00,
  0x08, 0x00, 0x04, 0x00, 0x08, 0x00, 0x00, 0x00, 0x23, 0x00, 0x00, 0x00,
  0x04, 0x00, 0x00, 0x00, 0x13, 0x00, 0x00, 0x00, 0x6d, 0x69, 0x6e, 0x5f,
  0x72, 0x75, 0x6e, 0x74, 0x69, 0x6d, 0x65, 0x5f, 0x76, 0x65, 0x72, 0x73,
  0x69, 0x6f, 0x6e, 0x00, 0x25, 0x00, 0x00, 0x00, 0xb4, 0x4e, 0x00, 0x00,
  0xac, 0x4e, 0x00, 0x00, 0x90, 0x4e, 0x00, 0x00, 0x20, 0x4e, 0x00, 0x00,
  0x98, 0x4d, 0x00, 0x00, 0x80, 0x46, 0x00, 0x00, 0x80, 0x45, 0x00, 0x00,
  0xb0, 0x32, 0x00, 0x00, 0x60, 0x31, 0x00, 0x00, 0x50, 0x18, 0x00, 0x00,
  0x00, 0x17, 0x00, 0x00, 0x30, 0x04, 0x00, 0x00, 0x1c, 0x04, 0x00, 0x00,
  0x14, 0x04, 0x00, 0x00, 0x0c, 0x04, 0x00, 0x00, 0x04, 0x04, 0x00, 0x00,
  0xfc, 0x03, 0x00, 0x00, 0xfc, 0x02, 0x00, 0x00, 0x0c, 0x01, 0x00, 0x00,
  0x04, 0x01, 0x00, 0x00, 0xfc, 0x00, 0x00, 0x00, 0xf4, 0x00, 0x00, 0x00,
  0xec, 0x00, 0x00, 0x00, 0xe4, 0x00, 0x00, 0x00, 0xdc, 0x00, 0x00, 0x00,
  0xd4, 0x00, 0x00, 0x00, 0xcc, 0x00, 0x00, 0x00, 0xc4, 0x00, 0x00, 0x00,
  0xbc, 0x00, 0x00, 0x00, 0xb4, 0x00, 0x00, 0x00, 0xac, 0x00, 0x00, 0x00,
  0xa4, 0x00, 0x00, 0x00, 0x9c, 0x00, 0x00, 0x00, 0x94, 0x00, 0x00, 0x00,
  0x8c, 0x00, 0x00, 0x00, 0x6c, 0x00, 0x00, 0x00, 0x04, 0x00, 0x00, 0x00,
  0x02, 0xb2, 0xff, 0xff, 0x04, 0x00, 0x00, 0x00, 0x58, 0x00, 0x00, 0x00,
  0x0c, 0x00, 0x00, 0x00, 0x08, 0x00, 0x0e, 0x00, 0x08, 0x00, 0x04, 0x00,
  0x08, 0x00, 0x00, 0x00, 0x10, 0x00, 0x00, 0x00, 0x28, 0x00, 0x00, 0x00,
  0x00, 0x00, 0x06, 0x00, 0x08, 0x00, 0x04, 0x00, 0x06, 0x00, 0x00, 0x00,
  0x04, 0x00, 0x00, 0x00, 0x01, 0x00, 0x00, 0x00, 0xeb, 0x03, 0x00, 0x00,
  0x00, 0x00, 0x0a, 0x00, 0x10, 0x00, 0x0c, 0x00, 0x08, 0x00, 0x04, 0x00,
  0x0a, 0x00, 0x00, 0x00, 0x02, 0x00, 0x00, 0x00, 0x02, 0x00, 0x00, 0x00,
  0x04, 0x00, 0x00, 0x00, 0x06, 0x00, 0x00, 0x00, 0x32, 0x2e, 0x31, 0x35,
  0x2e, 0x30, 0x00, 0x00, 0x66, 0xb2, 0xff, 0xff, 0x04, 0x00, 0x00, 0x00,
  0x10, 0x00, 0x00, 0x00, 0x32, 0x2e, 0x31, 0x2e, 0x30, 0x00, 0x00, 0x00,
  0x00, 0x00, 0x00, 0x00, 0x00, 0x00, 0x00, 0x00, 0x54, 0xaf, 0xff, 0xff,
  0x58, 0xaf, 0xff, 0xff, 0x5c, 0xaf, 0xff, 0xff, 0x60, 0xaf, 0xff, 0xff,
  0x64, 0xaf, 0xff, 0xff, 0x68, 0xaf, 0xff, 0xff, 0x6c, 0xaf, 0xff, 0xff,
  0x70, 0xaf, 0xff, 0xff, 0x74, 0xaf, 0xff, 0xff, 0x78, 0xaf, 0xff, 0xff,
  0x7c, 0xaf, 0xff, 0xff, 0x80, 0xaf, 0xff, 0xff, 0x84, 0xaf, 0xff, 0xff,
  0x88, 0xaf, 0xff, 0xff, 0x8c, 0xaf, 0xff, 0xff, 0x90, 0xaf, 0xff, 0xff,
  0xc2, 0xb2, 0xff, 0xff, 0x04, 0x00, 0x00, 0x00, 0xe0, 0x01, 0x00, 0x00,
  0xf8, 0x10, 0x06, 0xff, 0xfd, 0xfe, 0xe3, 0xda, 0xe7, 0x25, 0xe4, 0x21,
  0xcd, 0xf4, 0xfa, 0xe9, 0xd7, 0x19, 0xdd, 0x27, 0x07, 0x15, 0x08, 0xbd,
  0xf3, 0x2a, 0xe6, 0x05, 0x05, 0xe7, 0xd1, 0xf8, 0xfe, 0x18, 0xd7, 0x03,
  0xcd, 0xed, 0xd4, 0x22, 0xfb, 0x1c, 0xcc, 0x16, 0xe1, 0x20, 0x1b, 0x32,
  0x7f, 0xf7, 0xd1, 0x02, 0xed, 0x10, 0xd5, 0xfa, 0x05, 0xd0, 0x05, 0xf7,
  0xd9, 0x38, 0xf0, 0xf7, 0xd5, 0x0c, 0xea, 0xe3, 0xbc, 0xf8, 0x16, 0x19,
  0xf5, 0x00, 0xf3, 0x0a, 0xd4, 0xfe, 0x11, 0xe1, 0x64, 0x0e, 0xd2, 0x17,
  0xb9, 0xfd, 0xfa, 0xff, 0xf0, 0xdb, 0xe1, 0x09, 0xd8, 0x2a, 0x1f, 0xae,
  0xfc, 0xf1, 0xf8, 0x09, 0xf3, 0x36, 0xc6, 0xbc, 0xe6, 0xfd, 0x16, 0xe5,
  0x2c, 0xef, 0x07, 0x93, 0x1c, 0xef, 0x13, 0x41, 0x23, 0x21, 0xe7, 0xef,
  0x13, 0xbd, 0x20, 0xcf, 0x0d, 0x26, 0x0c, 0x00, 0x6a, 0xf6, 0x01, 0xf8,
  0x55, 0x25, 0xdb, 0x22, 0xf1, 0x0a, 0x01, 0xed, 0x08, 0xfc, 0xe9, 0xcf,
  0xde, 0xe1, 0xe2, 0xe6, 0xf6, 0x2c, 0x09, 0x07, 0xf6, 0xd0, 0xf7, 0xf0,
  0xb8, 0xfb, 0x26, 0x28, 0x2e, 0xee, 0xd2, 0x08, 0xe1, 0xf0, 0xd1, 0x43,
  0xbd, 0xe7, 0xd8, 0xf4, 0x33, 0x02, 0x0c, 0xdf, 0xd7, 0xdf, 0x16, 0xe5,
  0x11, 0x1a, 0x04, 0xf0, 0xee, 0x1f, 0x0c, 0xf3, 0xdf, 0x1c, 0xdb, 0xec,
  0x11, 0x09, 0x10, 0xf5, 0xeb, 0x10, 0xd7, 0xe0, 0x3a, 0xab, 0x32, 0xaf,
  0xee, 0x32, 0xea, 0x2c, 0x25, 0xf7, 0xf3, 0x04, 0xdf, 0xf9, 0xfd, 0x36,
  0xda, 0xfa, 0xdf, 0xff, 0xdb, 0x3c, 0xea, 0x23, 0xf3, 0x06, 0x07, 0x01,
  0x16, 0x0d, 0xe7, 0xbe, 0x24, 0xfb, 0xcc, 0xfc, 0xbd, 0x05, 0xf8, 0x55,
  0xd9, 0xe4, 0x04, 0xea, 0x28, 0xf5, 0xfe, 0xc4, 0x12, 0xc9, 0x21, 0xd8,
  0x01, 0x03, 0x14, 0xf7, 0x18, 0x03, 0x1a, 0xec, 0xd4, 0xaf, 0xe7, 0x0a,
  0xff, 0xf6, 0xff, 0xf4, 0xcf, 0xdb, 0x03, 0x26, 0xb8, 0x44, 0xe4, 0x3d,
  0xde, 0xd6, 0xea, 0xe1, 0xbd, 0x42, 0xef, 0x11, 0xc1, 0xfb, 0xfc, 0xf8,
  0x14, 0x3e, 0xb7, 0xf7, 0xc7, 0xe4, 0xf6, 0x04, 0x1d, 0xed, 0xff, 0xda,
  0xec, 0xe6, 0xd3, 0x0e, 0xf0, 0x0b, 0x0b, 0xff, 0x0b, 0x16, 0xeb, 0xbb,
  0x07, 0xde, 0x1d, 0x01, 0x26, 0x2c, 0xd8, 0xb9, 0x0b, 0x06, 0x01, 0x1f,
  0xf5, 0xe2, 0xc2, 0x12, 0x3a, 0xdc, 0xee, 0xe2, 0xd9, 0x20, 0xde, 0x4c,
  0x12, 0xf7, 0x22, 0x16, 0xd6, 0xe8, 0xf0, 0xe7, 0x1e, 0x08, 0x09, 0xff,
  0x03, 0xe0, 0xe9, 0xfa, 0xfe, 0xd3, 0x0e, 0x03, 0x25, 0x28, 0x23, 0x24,
  0xe9, 0xfb, 0x14, 0x15, 0x3b, 0x07, 0xcc, 0xc6, 0x5b, 0x04, 0xce, 0x02,
  0xc4, 0xf8, 0x02, 0xfa, 0x17, 0xd9, 0xfe, 0xf1, 0xc4, 0x14, 0x03, 0xef,
  0xfc, 0x31, 0xee, 0x10, 0xe7, 0xdb, 0xd4, 0x06, 0xec, 0x0a, 0xec, 0x17,
  0x2e, 0xff, 0xc6, 0xda, 0x54, 0xd9, 0x18, 0xf0, 0xf6, 0x1d, 0xed, 0xcc,
  0x1d, 0xaf, 0x53, 0xca, 0x0c, 0x0c, 0xf3, 0x04, 0xd9, 0x16, 0xe6, 0x23,
  0x2f, 0xf1, 0xcc, 0xcd, 0xdf, 0xe6, 0x3c, 0x02, 0x13, 0x42, 0x1d, 0x07,
  0x22, 0xf9, 0x28, 0x2c, 0xfd, 0x24, 0xfc, 0xf5, 0xff, 0xd0, 0xe9, 0x1c,
  0xdc, 0x5b, 0xbb, 0xfe, 0x15, 0xe0, 0x39, 0xf0, 0xf5, 0x49, 0xbd, 0xee,
  0xe1, 0xff, 0xca, 0x15, 0xf5, 0x2a, 0xfd, 0x3e, 0x20, 0xdc, 0xf8, 0xe6,
  0xe7, 0x09, 0x18, 0xcc, 0x25, 0xd1, 0xf1, 0xfc, 0xdb, 0x0d, 0xea, 0x2b,
  0xae, 0xb4, 0xff, 0xff, 0x04, 0x00, 0x00, 0x00, 0xf0, 0x00, 0x00, 0x00,
  0xf4, 0x11, 0x00, 0x00, 0x08, 0x13, 0x00, 0x00, 0x1c, 0x11, 0x00, 0x00,
  0xa5, 0x11, 0x00, 0x00, 0x71, 0x1a, 0x00, 0x00, 0xd7, 0x12, 0x00, 0x00,
  0xa9, 0x0f, 0x00, 0x00, 0xd7, 0x15, 0x00, 0x00, 0x4d, 0x17, 0x00, 0x00,
  0x00, 0x13, 0x00, 0x00, 0x28, 0x0d, 0x00, 0x00, 0x1a, 0x13, 0x00, 0x00,
  0xe6, 0x1a, 0x00, 0x00, 0x1e, 0x15, 0x00, 0x00, 0x65, 0x13, 0x00, 0x00,
  0x4a, 0x12, 0x00, 0x00, 0xc3, 0x11, 0x00, 0x00, 0x2c, 0x15, 0x00, 0x00,
  0x9e, 0x17, 0x00, 0x00, 0xf7, 0x18, 0x00, 0x00, 0x95, 0x13, 0x00, 0x00,
  0x79, 0x13, 0x00, 0x00, 0x0e, 0x0f, 0x00, 0x00, 0x50, 0x11, 0x00, 0x00,
  0x49, 0x12, 0x00, 0x00, 0x78, 0x15, 0x00, 0x00, 0x14, 0x0b, 0x00, 0x00,
  0x52, 0x12, 0x00, 0x00, 0x05, 0x0e, 0x00, 0x00, 0x21, 0x10, 0x00, 0x00,
  0x5c, 0x14, 0x00, 0x00, 0x69, 0x0e, 0x00, 0x00, 0xdb, 0x15, 0x00, 0x00,
  0xcb, 0x13, 0x00, 0x00, 0xcb, 0x11, 0x00, 0x00, 0x8e, 0x0d, 0x00, 0x00,
  0x1e, 0x12, 0x00, 0x00, 0x7e, 0x1c, 0x00, 0x00, 0xfd, 0x0e, 0x00, 0x00,
  0x61, 0x0c, 0x00, 0x00, 0xf6, 0x11, 0x00, 0x00, 0x68, 0x11, 0x00, 0x00,
  0x01, 0x15, 0x00, 0x00, 0x1e, 0x0e, 0x00, 0x00, 0x1c, 0x14, 0x00, 0x00,
  0x2d, 0x11, 0x00, 0x00, 0xd2, 0x0e, 0x00, 0x00, 0x0f, 0x18, 0x00, 0x00,
  0xf9, 0x13, 0x00, 0x00, 0x64, 0x0e, 0x00, 0x00, 0x50, 0x17, 0x00, 0x00,
  0x6c, 0x13, 0x00, 0x00, 0x07, 0x0f, 0x00, 0x00, 0x76, 0x13, 0x00, 0x00,
  0x3c, 0x13, 0x00, 0x00, 0x18, 0x0b, 0x00, 0x00, 0xcc, 0x0f, 0x00, 0x00,
  0x16, 0x14, 0x00, 0x00, 0xf5, 0x12, 0x00, 0x00, 0x1d, 0x12, 0x00, 0x00,
  0x7c, 0xb2, 0xff, 0xff, 0x80, 0xb2, 0xff, 0xff, 0x84, 0xb2, 0xff, 0xff,
  0x88, 0xb2, 0xff, 0xff, 0xba, 0xb5, 0xff, 0xff, 0x04, 0x00, 0x00, 0x00,
  0x01, 0x00, 0x00, 0x00, 0x7f, 0x00, 0x00, 0x00, 0xca, 0xb5, 0xff, 0xff,
  0x04, 0x00, 0x00, 0x00, 0xc0, 0x12, 0x00, 0x00, 0xfc, 0x08, 0x04, 0xfd,
  0xfb, 0x07, 0xfb, 0xfa, 0xfe, 0xfb, 0xfb, 0x05, 0xfe, 0xf9, 0x04, 0xff,
  0x01, 0xfb, 0xff, 0xff, 0xfe, 0xfc, 0xfd, 0xfe, 0x02, 0xfb, 0x02, 0x01,
  0xfe, 0x00, 0x00, 0xff, 0xf3, 0x02, 0x03, 0xff, 0xfa, 0x00, 0x03, 0xff,
  0x03, 0x03, 0x02, 0x02, 0x00, 0x01, 0xfd, 0xfb, 0xfc, 0x01, 0x01, 0xf7,
  0x03, 0x02, 0x07, 0x04, 0x03, 0x09, 0xfc, 0x00, 0x00, 0x04, 0x03, 0x00,
  0xfc, 0x03, 0xff, 0xf9, 0xfc, 0xff, 0xfb, 0x04, 0x08, 0x00, 0x01, 0x00,
  0x08, 0xfe, 0xff, 0x02, 0xfa, 0xfa, 0xfc, 0x01, 0x02, 0xff, 0x01, 0xff,
  0xff, 0xfe, 0x00, 0xff, 0xfe, 0xfd, 0x00, 0xff, 0x00, 0xff, 0x01, 0x00,
  0xff, 0xfc, 0x01, 0xff, 0x02, 0x00, 0x02, 0xfe, 0xfe, 0x01, 0x05, 0xfb,
  0xff, 0x04, 0x04, 0xfc, 0x03, 0x05, 0xfe, 0xfc, 0xfc, 0xfc, 0xf8, 0xf9,
  0xfd, 0xfd, 0x0c, 0x01, 0xff, 0xf7, 0x12, 0xfe, 0xfc, 0xf9, 0x03, 0x03,
  0xf8, 0xfb, 0xfc, 0x00, 0xfe, 0xf0, 0xfe, 0xfe, 0x06, 0x0e, 0x03, 0xfd,
  0xfa, 0x01, 0xf8, 0x03, 0x03, 0x02, 0xf5, 0xfb, 0xff, 0x04, 0xfb, 0xff,
  0x00, 0x09, 0x01, 0x02, 0xfc, 0xfc, 0x0a, 0x02, 0xfb, 0xfa, 0x03, 0x07,
  0xf7, 0xfd, 0x04, 0xfc, 0x05, 0xfe, 0xfd, 0x01, 0xfc, 0x01, 0x01, 0xfa,
  0xfd, 0x03, 0xfe, 0x03, 0xfd, 0xfd, 0xfd, 0x02, 0x02, 0xf9, 0x06, 0x03,
  0xff, 0xfb, 0x01, 0x01, 0x02, 0xfd, 0x03, 0xfa, 0xfe, 0x01, 0x02, 0x02,
  0xfc, 0x01, 0xff, 0x03, 0xed, 0x03, 0xfe, 0xfa, 0xf9, 0xfc, 0xfd, 0x01,
  0xff, 0x05, 0xff, 0x01, 0x03, 0x01, 0xfa, 0x02, 0xf8, 0x00, 0x04, 0x00,
  0x00, 0x00, 0x05, 0xf4, 0x00, 0x03, 0x00, 0x02, 0x04, 0x02, 0x02, 0x00,
  0xff, 0xff, 0xfd, 0xfd, 0xfe, 0x01, 0xf8, 0x00, 0x00, 0x02, 0xfd, 0xfc,
  0x08, 0x04, 0xfd, 0xfe, 0x02, 0x03, 0xff, 0x00, 0x01, 0xf9, 0xff, 0xff,
  0x03, 0xfe, 0x00, 0xfb, 0x05, 0x00, 0x02, 0xfd, 0x00, 0x01, 0x03, 0x03,
  0x06, 0xfe, 0x04, 0x01, 0x00, 0x03, 0xfe, 0xfd, 0x00, 0x02, 0xff, 0x04,
  0x01, 0xff, 0xff, 0x06, 0x03, 0xfb, 0x03, 0x03, 0xff, 0xff, 0x07, 0x00,
  0xfc, 0x00, 0xfc, 0xfb, 0x04, 0x00, 0x04, 0x0a, 0xfe, 0x05, 0x02, 0xff,
  0xfc, 0x01, 0x04, 0x04, 0xf8, 0xf9, 0x00, 0xff, 0xff, 0xf6, 0xfa, 0x01,
  0xfb, 0xfa, 0x03, 0xfd, 0x14, 0x01, 0x02, 0x03, 0x05, 0x0d, 0xff, 0xf8,
  0xfa, 0xf5, 0xfa, 0xfc, 0xfd, 0xfc, 0x00, 0x00, 0xfd, 0xfc, 0xf8, 0xf1,
  0xfd, 0xfe, 0x02, 0x0e, 0xf4, 0xff, 0xfc, 0xf9, 0x00, 0xfb, 0xfa, 0x00,
  0x06, 0xfe, 0x07, 0x05, 0xff, 0x01, 0x04, 0xfb, 0xff, 0xfd, 0xf9, 0xff,
  0x01, 0x00, 0x00, 0xff, 0x07, 0x01, 0xfd, 0x02, 0x02, 0x07, 0x00, 0x01,
  0xfe, 0x04, 0xfc, 0xfe, 0xfe, 0xfe, 0xfe, 0x01, 0x04, 0x02, 0x00, 0x01,
  0x01, 0x07, 0x00, 0x02, 0xfd, 0xfb, 0x06, 0x04, 0x03, 0xfd, 0xff, 0x01,
  0xfb, 0xfc, 0xf8, 0x08, 0x05, 0xfe, 0x01, 0x06, 0xfd, 0x03, 0x01, 0xfd,
  0x00, 0xfe, 0xfc, 0xfe, 0x09, 0x05, 0x00, 0x00, 0x02, 0x02, 0xfb, 0xfc,
  0x04, 0x01, 0x02, 0x03, 0xf9, 0xff, 0xff, 0x00, 0xfd, 0xfb, 0xfc, 0x00,
  0xfa, 0xff, 0xfe, 0xff, 0x18, 0x04, 0x05, 0x04, 0x05, 0x0c, 0xfe, 0xf6,
  0xfc, 0xf9, 0xfe, 0xfb, 0xff, 0xf7, 0xff, 0xfe, 0xfd, 0xf6, 0xff, 0xfa,
  0xf8, 0x01, 0xfc, 0xfc, 0xfb, 0xff, 0x01, 0xfc, 0xff, 0xff, 0xfe, 0xfe,
  0x05, 0xfd, 0xfe, 0x0a, 0xfd, 0x06, 0x04, 0x03, 0xfe, 0xfe, 0x03, 0xff,
  0xf7, 0xff, 0xfe, 0xfb, 0x05, 0xfc, 0xff, 0x00, 0xfb, 0x03, 0xff, 0x02,
  0x01, 0x05, 0xfe, 0xfe, 0xf7, 0xfe, 0xfd, 0x00, 0xfa, 0xff, 0x01, 0x07,
  0x00, 0x04, 0xfe, 0xfe, 0xfe, 0xff, 0xfc, 0x06, 0x00, 0xfe, 0x02, 0xfe,
  0x01, 0xfe, 0x01, 0x05, 0x04, 0xfa, 0x06, 0x08, 0xfe, 0xff, 0xfe, 0xfd,
  0xff, 0x01, 0x03, 0x06, 0xf9, 0x00, 0x02, 0x06, 0x01, 0x01, 0x03, 0x02,
  0xf2, 0xfe, 0xfc, 0xf8, 0x03, 0x00, 0x02, 0xff, 0x02, 0x06, 0x00, 0xfe,
  0x03, 0x02, 0xfe, 0x00, 0xf4, 0xfd, 0xfb, 0xfb, 0xfc, 0xfc, 0x00, 0x09,
  0xfd, 0x04, 0xff, 0x00, 0xfc, 0x02, 0x05, 0x04, 0xfa, 0x00, 0x01, 0x03,
  0xff, 0xfc, 0x02, 0x0f, 0x07, 0xfe, 0x06, 0x07, 0x01, 0xfd, 0xfd, 0x02,
  0x05, 0xfe, 0x05, 0x06, 0x03, 0x06, 0x05, 0xfb, 0xfb, 0xfe, 0xfa, 0x00,
  0xff, 0x02, 0xff, 0xfd, 0x05, 0xff, 0xfd, 0x00, 0xfe, 0x07, 0xfe, 0x04,
  0x00, 0x04, 0xff, 0xff, 0xfe, 0xfd, 0xfe, 0x00, 0x06, 0x02, 0xfd, 0x01,
  0x02, 0x02, 0xff, 0xff, 0xfe, 0xfb, 0x03, 0x08, 0x06, 0xfd, 0xfe, 0x00,
  0xfe, 0xf9, 0xfa, 0x04, 0x02, 0xfe, 0x04, 0x03, 0x03, 0xfe, 0xfb, 0x02,
  0x01, 0xfb, 0x02, 0x00, 0x02, 0x02, 0x06, 0xf6, 0xf4, 0x02, 0xfe, 0x00,
  0x01, 0x03, 0x01, 0xfe, 0x01, 0xfe, 0x00, 0x03, 0x01, 0x05, 0x00, 0xfd,
  0x02, 0xff, 0xff, 0x00, 0x09, 0xfe, 0xfe, 0x01, 0x08, 0x05, 0xfe, 0x03,
  0x04, 0x01, 0xff, 0xff, 0xfc, 0xff, 0xfc, 0xfe, 0x06, 0x02, 0xfa, 0x02,
  0xff, 0xfc, 0xfe, 0x04, 0x05, 0xfc, 0x01, 0x01, 0xfd, 0x01, 0x02, 0x00,
  0x01, 0x03, 0x06, 0x01, 0xfc, 0xfd, 0x03, 0xfe, 0x03, 0xfd, 0x06, 0x01,
  0xff, 0xff, 0xfd, 0xfc, 0xff, 0xfe, 0xff, 0xff, 0x03, 0xff, 0x02, 0x01,
  0x01, 0x02, 0xfd, 0xfe, 0xf7, 0xfb, 0xff, 0xfe, 0xfb, 0xf9, 0x03, 0x05,
  0x04, 0x02, 0x01, 0x03, 0xff, 0x04, 0x00, 0x01, 0xff, 0x04, 0x08, 0xfe,
  0x01, 0x00, 0x04, 0x03, 0x06, 0x06, 0x00, 0x01, 0xfd, 0xfc, 0xfc, 0x01,
  0x02, 0xfb, 0x09, 0x06, 0x01, 0x04, 0x0a, 0xfd, 0xff, 0xfd, 0xfc, 0xfe,
  0xfa, 0xfe, 0x00, 0xfb, 0x03, 0xfc, 0xff, 0x01, 0xfb, 0xff, 0x01, 0x06,
  0xfe, 0x05, 0xfc, 0x02, 0xff, 0xfd, 0xfa, 0x01, 0x08, 0x00, 0xfe, 0x02,
  0x01, 0x02, 0xfe, 0xfe, 0xfd, 0xfd, 0x03, 0x04, 0x03, 0xfc, 0x01, 0x01,
  0xfc, 0xfd, 0xfe, 0x03, 0x00, 0x01, 0x03, 0x02, 0x02, 0x05, 0x02, 0x05,
  0x00, 0x03, 0xfe, 0xfa, 0x04, 0x00, 0xf8, 0xfc, 0x00, 0xfd, 0xfd, 0xf5,
  0xfc, 0xfe, 0x00, 0x00, 0xff, 0x07, 0xfa, 0x04, 0x04, 0xe9, 0x00, 0x00,
  0x00, 0xff, 0xfc, 0xf1, 0xf7, 0xfd, 0x12, 0x0a, 0xff, 0xf8, 0x02, 0xf9,
  0x03, 0xfa, 0x02, 0xfd, 0xfe, 0x03, 0xfd, 0xfa, 0x04, 0x02, 0xfa, 0xff,
  0x07, 0xfe, 0xfa, 0x0a, 0xf9, 0x04, 0xf9, 0xfa, 0x04, 0xfe, 0xfa, 0x05,
  0x03, 0xfe, 0x01, 0xfb, 0xfe, 0x04, 0xf9, 0xf9, 0xfc, 0xff, 0xf8, 0xfd,
  0x03, 0x03, 0xfb, 0xff, 0x03, 0x02, 0xfc, 0x06, 0x04, 0xfc, 0x03, 0xfa,
  0x00, 0x02, 0xfe, 0xfd, 0x0a, 0xff, 0x01, 0x05, 0x04, 0x01, 0xfe, 0x00,
  0x05, 0x00, 0x04, 0x06, 0x01, 0x00, 0xfb, 0x00, 0x09, 0x00, 0xfc, 0x01,
  0x00, 0x00, 0xfa, 0x00, 0x03, 0xfe, 0x00, 0x00, 0x07, 0x00, 0xf6, 0x06,
  0x0c, 0xfe, 0x13, 0xfe, 0x01, 0x05, 0x14, 0xe7, 0xf3, 0xf6, 0xf6, 0xfc,
  0x05, 0x06, 0xfd, 0x02, 0x0c, 0x04, 0xfc, 0x08, 0x0a, 0x05, 0x01, 0x01,
  0x01, 0x06, 0x01, 0xfc, 0x04, 0x00, 0x03, 0x05, 0x1d, 0xfe, 0xfc, 0xff,
  0x17, 0x08, 0x02, 0x07, 0xf8, 0xfc, 0x10, 0x00, 0x19, 0x02, 0xfd, 0x00,
  0xfd, 0xfb, 0xf7, 0x0a, 0x08, 0x00, 0x00, 0x06, 0x03, 0xfc, 0xfd, 0x01,
  0xfe, 0xfb, 0xfa, 0x04, 0x02, 0x07, 0xfb, 0xfa, 0x06, 0x07, 0xfb, 0x0c,
  0x11, 0x07, 0x06, 0x02, 0xff, 0x05, 0x0a, 0x05, 0xfb, 0x15, 0xfd, 0x00,
  0x04, 0xfd, 0x08, 0x08, 0xf9, 0xfc, 0xfa, 0x00, 0x03, 0x06, 0xfe, 0x07,
  0xfc, 0xfe, 0xfd, 0x01, 0x02, 0x02, 0xf6, 0x03, 0xff, 0x00, 0xfb, 0x0a,
  0xfe, 0x0c, 0xfc, 0xf8, 0x08, 0xfe, 0x05, 0xff, 0xfa, 0xff, 0x08, 0xef,
  0xf5, 0x00, 0xf3, 0x01, 0x00, 0x00, 0xf3, 0x10, 0x05, 0x04, 0x03, 0x00,
  0xfc, 0xfa, 0x03, 0x03, 0xf2, 0xfb, 0x00, 0xfb, 0xf8, 0xfd, 0xfb, 0x02,
  0xff, 0xf8, 0xfe, 0xfe, 0xfc, 0xfb, 0xf8, 0xfe, 0xf5, 0x04, 0x02, 0x01,
  0xe9, 0xf7, 0xfa, 0xf6, 0x04, 0xfc, 0xf9, 0x02, 0xeb, 0xf7, 0x05, 0xfb,
  0xf4, 0x04, 0x03, 0x0b, 0xfe, 0xff, 0x05, 0xfb, 0xfd, 0x02, 0x01, 0xfe,
  0xfc, 0x06, 0x01, 0xfa, 0xfc, 0xf8, 0xfc, 0x09, 0x07, 0xfd, 0x03, 0x01,
  0x02, 0xfd, 0x02, 0x01, 0xff, 0xfc, 0xfe, 0xfc, 0x03, 0xfb, 0x04, 0xfc,
  0xfd, 0xff, 0xfe, 0x00, 0xfd, 0x02, 0xfe, 0xfa, 0xfc, 0xff, 0x00, 0xfe,
  0xfe, 0x03, 0x02, 0x00, 0x04, 0x02, 0x06, 0xfa, 0xf9, 0x00, 0x05, 0xfe,
  0x02, 0x02, 0x07, 0xfd, 0xfe, 0x06, 0xfe, 0xff, 0xff, 0xfe, 0x00, 0xfc,
  0x00, 0xfa, 0x00, 0xfe, 0x01, 0x02, 0x08, 0x05, 0x05, 0x06, 0x03, 0x03,
  0x02, 0x00, 0xff, 0xff, 0xfb, 0xf8, 0x02, 0xfb, 0xfd, 0x07, 0xfd, 0x02,
  0xfd, 0xfc, 0x00, 0x05, 0x0a, 0xfe, 0xf7, 0xfb, 0x08, 0x05, 0xfe, 0x00,
  0xfa, 0x00, 0xfa, 0xfe, 0xf9, 0xfe, 0x00, 0x03, 0xfb, 0xfa, 0x01, 0xfd,
  0xfa, 0xfb, 0x01, 0xfe, 0xfc, 0xf7, 0x06, 0xfe, 0x00, 0x05, 0x02, 0x00,
  0x05, 0x01, 0x08, 0x01, 0xfb, 0x01, 0x08, 0x08, 0x09, 0xfa, 0x00, 0xfd,
  0xfc, 0xfc, 0x02, 0x02, 0x01, 0xfc, 0xfc, 0x07, 0x02, 0xff, 0x03, 0x01,
  0x00, 0x05, 0xf8, 0xfb, 0xfd, 0xfb, 0x01, 0x06, 0xff, 0xff, 0x06, 0x02,
  0xfd, 0x02, 0x02, 0xfe, 0x01, 0xfe, 0x0f, 0x06, 0xfe, 0xfe, 0x03, 0xfe,
  0x00, 0x01, 0x02, 0xfd, 0x08, 0x01, 0x05, 0x06, 0xff, 0x01, 0x00, 0xfe,
  0x01, 0x05, 0x05, 0x0d, 0x00, 0x06, 0x0c, 0x15, 0x08, 0xfe, 0x03, 0x01,
  0x00, 0xfe, 0x03, 0x02, 0x06, 0xf8, 0xff, 0xff, 0xff, 0x00, 0x02, 0x0c,
  0x00, 0x0a, 0xfb, 0xfd, 0xf4, 0xff, 0xfa, 0xfc, 0x03, 0xf6, 0x01, 0x02,
  0xfd, 0x09, 0xfe, 0xff, 0xfe, 0xf9, 0x0e, 0x11, 0xfa, 0xfb, 0x05, 0xfc,
  0xfd, 0xfd, 0x04, 0x1d, 0x00, 0x00, 0x13, 0x06, 0xfe, 0xff, 0xfc, 0x01,
  0x00, 0xfe, 0xff, 0xff, 0x00, 0xfc, 0xff, 0x02, 0xfd, 0xfd, 0xfd, 0xfd,
  0xfc, 0xff, 0xfe, 0x01, 0x02, 0xff, 0xfb, 0xff, 0x01, 0xff, 0x00, 0xff,
  0x00, 0x01, 0xfe, 0xfb, 0xfc, 0x01, 0x02, 0x01, 0xfb, 0xfd, 0x00, 0xfd,
  0x02, 0x01, 0xff, 0xfd, 0xfc, 0xff, 0x01, 0xfd, 0xfe, 0xfe, 0x00, 0xfe,
  0xfe, 0xfd, 0xff, 0x00, 0xff, 0x01, 0xff, 0x00, 0x03, 0xff, 0xfd, 0x05,
  0x06, 0xff, 0x01, 0x00, 0xfe, 0x00, 0xfe, 0xfa, 0xfc, 0x01, 0xfe, 0xfe,
  0xf9, 0x01, 0xfe, 0xfd, 0x02, 0x03, 0xff, 0x04, 0x05, 0xfd, 0x00, 0xfd,
  0x03, 0xfe, 0x00, 0xfd, 0xf7, 0xfe, 0x02, 0x05, 0x00, 0xfa, 0x03, 0x02,
  0x05, 0xff, 0x01, 0x01, 0xff, 0x03, 0x00, 0x03, 0x05, 0x02, 0xff, 0x02,
  0x05, 0xfc, 0xfc, 0x04, 0x04, 0xfe, 0xfe, 0x01, 0x04, 0x0b, 0xfd, 0x00,
  0x06, 0x00, 0x14, 0x04, 0x02, 0x0a, 0x13, 0xcd, 0x1d, 0x01, 0xfd, 0xff,
  0xff, 0x00, 0xff, 0x00, 0x09, 0x03, 0xfd, 0x05, 0x0e, 0x02, 0x05, 0x00,
  0x05, 0x08, 0xff, 0xff, 0xf2, 0xfe, 0x02, 0x01, 0x1d, 0xef, 0x06, 0x0a,
  0x05, 0x08, 0x05, 0x01, 0xfa, 0xfd, 0x20, 0x08, 0x09, 0xfd, 0x10, 0xff,
  0xff, 0xfc, 0x01, 0x23, 0x07, 0xfc, 0x19, 0x0b, 0xfc, 0x01, 0xfb, 0x01,
  0x02, 0x01, 0x00, 0x02, 0xfd, 0x04, 0x07, 0x00, 0x00, 0xf7, 0xfe, 0xfd,
  0x02, 0xfb, 0xfb, 0xfb, 0x05, 0xf8, 0xfa, 0x02, 0x01, 0x02, 0x00, 0x01,
  0xfe, 0x08, 0xf9, 0xfc, 0xf4, 0xfd, 0xfe, 0x04, 0x06, 0x01, 0x01, 0x00,
  0x01, 0x05, 0x01, 0xff, 0xfa, 0xfa, 0x03, 0x02, 0x04, 0xfd, 0x00, 0xf9,
  0xfb, 0xfa, 0xfe, 0x04, 0x01, 0x01, 0x04, 0x06, 0xfe, 0x00, 0xfe, 0xfe,
  0xff, 0x00, 0x05, 0xfd, 0xfe, 0xf9, 0x04, 0x04, 0x02, 0xfe, 0x00, 0x00,
  0xf8, 0xff, 0xfd, 0x00, 0x01, 0xfe, 0x00, 0xfc, 0x02, 0xff, 0x01, 0xfb,
  0x02, 0x00, 0x00, 0x02, 0xfd, 0x00, 0xfe, 0xfe, 0xfa, 0xfb, 0x01, 0xff,
  0xff, 0x03, 0x00, 0x00, 0xfd, 0x01, 0x04, 0xfc, 0xfc, 0x02, 0x04, 0x01,
  0x02, 0xfe, 0xfe, 0xfd, 0x01, 0x01, 0xfe, 0x00, 0x00, 0x04, 0x06, 0xff,
  0xfb, 0x01, 0xff, 0xfe, 0xfe, 0x02, 0xfa, 0x03, 0x03, 0x02, 0xfc, 0xf9,
  0xff, 0x00, 0x03, 0xfe, 0xf7, 0x0e, 0x00, 0x02, 0x04, 0xee, 0xfb, 0x02,
  0x02, 0xfa, 0x02, 0xfa, 0x00, 0xfc, 0x0c, 0x04, 0xfa, 0xf8, 0x07, 0xff,
  0xfd, 0xf1, 0x00, 0xfa, 0xfc, 0x02, 0x03, 0xfe, 0xfd, 0x02, 0xfe, 0x00,
  0x03, 0xff, 0xfa, 0x0b, 0xfc, 0xff, 0xfb, 0xf7, 0x04, 0x02, 0x09, 0x05,
  0x00, 0x01, 0x01, 0xed, 0xf4, 0xf8, 0xfb, 0xff, 0xfa, 0x01, 0x05, 0xfa,
  0x03, 0x01, 0xf8, 0xf9, 0x00, 0xff, 0xfe, 0x01, 0xfb, 0xee, 0xff, 0xf8,
  0x04, 0xfc, 0x02, 0xfa, 0x0d, 0xf9, 0x07, 0x02, 0xfe, 0x09, 0x00, 0x01,
  0x02, 0xf5, 0xfd, 0x05, 0x00, 0x04, 0xf6, 0xee, 0x03, 0x06, 0xfd, 0xf3,
  0x07, 0x03, 0x04, 0xf2, 0xff, 0x00, 0xf0, 0xf9, 0x03, 0x04, 0x03, 0x01,
  0x01, 0x00, 0xf7, 0xfc, 0x02, 0x07, 0xf4, 0x02, 0xf8, 0x06, 0xfc, 0xf9,
  0x05, 0x03, 0xfc, 0xff, 0x00, 0xff, 0xfc, 0x02, 0x04, 0xfb, 0xfd, 0xf6,
  0x02, 0x00, 0xfe, 0xfd, 0x0c, 0x02, 0x06, 0x06, 0x04, 0x04, 0x03, 0xfe,
  0x00, 0xfb, 0x03, 0x01, 0xfe, 0xfb, 0xfc, 0xfe, 0x04, 0xfe, 0xfe, 0xfd,
  0x00, 0xfd, 0xfe, 0xfd, 0xfc, 0xf9, 0x02, 0x00, 0x01, 0xfe, 0xfc, 0xff,
  0x03, 0xff, 0x00, 0x05, 0xfe, 0x08, 0x00, 0xfa, 0x00, 0xfd, 0xfc, 0xfd,
  0xfd, 0xff, 0xfe, 0xfb, 0x04, 0xfc, 0xfd, 0x04, 0xfc, 0x03, 0x03, 0x06,
  0xff, 0x03, 0xf9, 0xfc, 0xff, 0xfa, 0xfd, 0x08, 0x09, 0x00, 0xfe, 0xff,
  0xfc, 0x03, 0xfd, 0xfd, 0xfb, 0xfc, 0xfd, 0x05, 0x02, 0xfa, 0xff, 0x02,
  0xfc, 0x00, 0xfe, 0xfe, 0x05, 0x00, 0x07, 0x07, 0xfe, 0x01, 0xff, 0x01,
  0x05, 0xfe, 0x08, 0x06, 0x03, 0x04, 0x09, 0x05, 0xfd, 0xfc, 0xfd, 0xff,
  0xfd, 0xff, 0xff, 0xfb, 0x02, 0x02, 0xff, 0xfe, 0xfc, 0xff, 0x00, 0x09,
  0xfd, 0x06, 0xfc, 0x01, 0xfd, 0x01, 0x03, 0x03, 0x08, 0xff, 0xfd, 0xfd,
  0xff, 0xff, 0xfe, 0xfe, 0xfe, 0xfc, 0x03, 0x05, 0x05, 0xfc, 0xfe, 0xfd,
  0x00, 0xfd, 0xfa, 0x07, 0xfb, 0x01, 0x03, 0x02, 0xfc, 0xff, 0xff, 0xfc,
  0xfb, 0xfd, 0x03, 0xfe, 0x00, 0xfe, 0x02, 0x05, 0x08, 0x00, 0xfe, 0x00,
  0x00, 0xfe, 0x03, 0x01, 0xfe, 0xfb, 0x01, 0xfb, 0xff, 0x05, 0xfe, 0x02,
  0xfc, 0xfd, 0x00, 0x00, 0x05, 0x01, 0xfb, 0xfb, 0xfe, 0x07, 0xfe, 0x00,
  0xfb, 0xfd, 0xfe, 0xfe, 0xfd, 0x00, 0x00, 0x00, 0xf9, 0xff, 0x02, 0xfc,
  0xfe, 0x00, 0x00, 0xfe, 0xfe, 0xfc, 0x02, 0xfd, 0xfd, 0x06, 0x01, 0x01,
  0x03, 0x08, 0x07, 0xfc, 0xff, 0xfd, 0x0d, 0x02, 0xf7, 0xe6, 0x02, 0xf7,
  0xfd, 0xf6, 0xf9, 0x01, 0x06, 0xee, 0xf5, 0xfc, 0x0d, 0xf0, 0x06, 0x01,
  0xfa, 0x05, 0xf2, 0xf8, 0xff, 0x02, 0x0a, 0x01, 0x02, 0xff, 0x00, 0xf9,
  0x07, 0x02, 0x05, 0x01, 0xf5, 0xf9, 0x0b, 0xfc, 0x03, 0xfd, 0x01, 0xe7,
  0xfe, 0xf7, 0x04, 0xff, 0xfb, 0x02, 0xfd, 0x00, 0xfe, 0x02, 0x01, 0x01,
  0x03, 0x06, 0x02, 0x03, 0x02, 0x03, 0x02, 0x04, 0x00, 0xf9, 0x02, 0xff,
  0xf6, 0xfc, 0xff, 0xff, 0xff, 0xfa, 0xff, 0xff, 0xfb, 0x00, 0x04, 0x02,
  0xfe, 0x05, 0xfa, 0xfd, 0xfd, 0x01, 0x02, 0x04, 0x03, 0xff, 0xfb, 0xfa,
  0xff, 0x01, 0xfd, 0xfe, 0x00, 0xfe, 0xfe, 0x04, 0x00, 0xff, 0x01, 0xf6,
  0x00, 0xfe, 0x03, 0xff, 0xfb, 0x07, 0x00, 0xfe, 0xff, 0xfd, 0xfa, 0x00,
  0x06, 0xfa, 0x00, 0x04, 0x00, 0x01, 0x02, 0xfb, 0x02, 0xfd, 0xfb, 0xfc,
  0xf1, 0xfe, 0xfe, 0xfd, 0x06, 0xfc, 0xfd, 0xff, 0xfe, 0x08, 0x03, 0xff,
  0xff, 0x03, 0xfe, 0xfd, 0x01, 0xfe, 0xfb, 0xff, 0x01, 0xfc, 0xff, 0xfb,
  0x02, 0x05, 0xfc, 0x01, 0xfa, 0xfd, 0xfd, 0x05, 0x01, 0xff, 0x04, 0x02,
  0xfe, 0xfb, 0xf9, 0x01, 0xfe, 0xfe, 0x03, 0x03, 0xfa, 0xfc, 0x01, 0xf8,
  0xfc, 0x06, 0xff, 0xff, 0x02, 0xfc, 0xfb, 0x03, 0xf9, 0xf6, 0x00, 0x04,
  0xfa, 0xf8, 0x04, 0x03, 0xff, 0x00, 0x02, 0xf7, 0xfd, 0x01, 0x05, 0x04,
  0xfa, 0x04, 0xfd, 0x04, 0x04, 0x01, 0xf5, 0xfa, 0xf6, 0xf4, 0xfa, 0xfa,
  0xef, 0x06, 0xfc, 0xff, 0x04, 0xf7, 0xfc, 0x03, 0xf2, 0xfa, 0x01, 0xfe,
  0xf9, 0x04, 0x01, 0x08, 0xf7, 0x08, 0x01, 0x01, 0x01, 0xff, 0xfc, 0x03,
  0x03, 0x01, 0xf8, 0x02, 0x03, 0x05, 0xf6, 0xe9, 0xee, 0xfa, 0xfe, 0x00,
  0x01, 0xff, 0xfe, 0x01, 0x07, 0xff, 0x00, 0x06, 0x04, 0xfa, 0x03, 0x05,
  0x00, 0x08, 0xfb, 0xff, 0xf7, 0x00, 0x04, 0x0b, 0x09, 0xf8, 0xfe, 0xf8,
  0xff, 0x01, 0xfe, 0x01, 0xfe, 0xfa, 0xf0, 0x01, 0x0a, 0xfd, 0xfc, 0xff,
  0xfd, 0xfe, 0xfd, 0x0d, 0xfe, 0x01, 0x01, 0x02, 0x04, 0xff, 0xfe, 0x04,
  0x02, 0xfa, 0x00, 0x01, 0x03, 0x05, 0x02, 0xfa, 0xfd, 0x04, 0xfb, 0x01,
  0xfe, 0x04, 0x03, 0x00, 0x03, 0x00, 0x01, 0x04, 0x00, 0x06, 0xfd, 0xff,
  0x02, 0xff, 0x01, 0x00, 0xfe, 0xfe, 0xff, 0x04, 0x05, 0x06, 0xfe, 0x02,
  0x02, 0xff, 0xfe, 0xff, 0xfc, 0xff, 0xfc, 0x04, 0x05, 0xff, 0xfc, 0x00,
  0x00, 0xfb, 0xfd, 0x04, 0x05, 0xfc, 0x03, 0x00, 0x01, 0x06, 0x05, 0x01,
  0x01, 0x04, 0xfa, 0x00, 0xff, 0x03, 0xfa, 0x06, 0x04, 0xfd, 0x00, 0xfa,
  0x05, 0xfe, 0xfc, 0x00, 0x00, 0xfa, 0xfa, 0x03, 0x04, 0xf9, 0x00, 0x00,
  0x01, 0x04, 0xfb, 0xfa, 0xff, 0xff, 0x04, 0x05, 0x04, 0xff, 0x02, 0xff,
  0x06, 0x00, 0x04, 0x06, 0xfd, 0x00, 0xfe, 0x00, 0x02, 0xff, 0x00, 0xf7,
  0x00, 0xfe, 0x02, 0xfd, 0x00, 0x02, 0x03, 0x00, 0xff, 0xfe, 0xfb, 0xfe,
  0x02, 0xfc, 0xfc, 0x06, 0x09, 0x03, 0x06, 0xfe, 0xff, 0x01, 0xfe, 0xff,
  0xf7, 0x00, 0x05, 0x06, 0x01, 0x03, 0x03, 0x02, 0x01, 0x04, 0xfe, 0x03,
  0xfe, 0x01, 0x00, 0xfd, 0x07, 0x01, 0x01, 0x03, 0x00, 0x01, 0xfe, 0xfd,
  0xfe, 0x02, 0xfd, 0xf5, 0xfb, 0xfd, 0x00, 0x01, 0x03, 0xfc, 0xff, 0x06,
  0xfc, 0xff, 0xfd, 0x02, 0xfe, 0xfa, 0x02, 0x01, 0x02, 0x01, 0x02, 0x04,
  0x00, 0x01, 0xff, 0xf3, 0xf1, 0x03, 0xfd, 0xff, 0xf7, 0x03, 0xff, 0xf7,
  0xff, 0x00, 0xf3, 0x06, 0x01, 0x03, 0xf6, 0xff, 0x04, 0xf7, 0x00, 0xbd,
  0x01, 0x01, 0x01, 0xfc, 0x03, 0xfe, 0x03, 0xfc, 0x01, 0xfe, 0x03, 0x00,
  0x03, 0xf8, 0x06, 0x05, 0x00, 0x03, 0x01, 0xf3, 0x03, 0x03, 0xfe, 0xfe,
  0x05, 0xf8, 0xff, 0x06, 0xfd, 0xfa, 0x00, 0xff, 0xfa, 0x04, 0x03, 0xfd,
  0xff, 0x06, 0x02, 0x00, 0x02, 0xfd, 0x01, 0x09, 0x0a, 0xf9, 0x05, 0xfd,
  0xfa, 0xf9, 0x03, 0x03, 0xff, 0xf5, 0xfd, 0xff, 0x01, 0xfd, 0x03, 0x02,
  0xfd, 0x03, 0xfa, 0xfb, 0xfe, 0x00, 0x02, 0xfe, 0xfe, 0x00, 0xff, 0xfc,
  0xfe, 0x04, 0x00, 0xfe, 0xfc, 0xfc, 0x02, 0xff, 0xfb, 0xfd, 0x06, 0xf5,
  0xfb, 0xfd, 0x05, 0xf4, 0xff, 0x07, 0x00, 0x01, 0xff, 0xfb, 0xf9, 0xfc,
  0x07, 0xfe, 0x0a, 0x0d, 0x0b, 0x03, 0x10, 0x00, 0x01, 0xf9, 0xfd, 0x04,
  0xf8, 0xff, 0x07, 0x06, 0x05, 0x03, 0x06, 0x01, 0xf7, 0x14, 0x02, 0x0f,
  0xfd, 0x09, 0xff, 0x05, 0xfb, 0xfe, 0xf7, 0x04, 0x09, 0x04, 0xfb, 0xfe,
  0xfe, 0x0b, 0xfc, 0xfd, 0x05, 0xfb, 0x08, 0x0c, 0xff, 0xfd, 0xff, 0x06,
  0xfc, 0x05, 0xfe, 0xf8, 0x02, 0x01, 0x04, 0x07, 0x01, 0x00, 0x00, 0x00,
  0xfd, 0xfe, 0xff, 0x03, 0xfd, 0x01, 0x02, 0x03, 0xfb, 0x05, 0x03, 0x00,
  0xf6, 0xff, 0xff, 0xf9, 0xfe, 0x03, 0x02, 0xfc, 0x03, 0x01, 0xfe, 0xff,
  0x04, 0xfb, 0xff, 0xfd, 0xf9, 0xfa, 0xff, 0xfb, 0xfd, 0xf8, 0x03, 0x07,
  0xfe, 0x00, 0xfe, 0xff, 0x01, 0x06, 0x02, 0x05, 0xfb, 0x03, 0x02, 0xfe,
  0x03, 0xfc, 0xfe, 0x10, 0x00, 0xf8, 0x06, 0x03, 0xfe, 0x04, 0xfd, 0x00,
  0x02, 0xfe, 0x05, 0x02, 0x04, 0x03, 0x16, 0x03, 0xff, 0x04, 0xff, 0xfe,
  0xfa, 0x00, 0xfe, 0xfe, 0xff, 0xfb, 0x00, 0x02, 0xfe, 0x00, 0xfe, 0x01,
  0xff, 0xfd, 0x02, 0xfe, 0x01, 0xff, 0x03, 0x03, 0x05, 0xf8, 0x01, 0xfd,
  0xff, 0xfe, 0xfe, 0xfe, 0xfc, 0xff, 0x08, 0x06, 0x02, 0xfe, 0xfe, 0xfc,
  0xff, 0xfc, 0x00, 0x16, 0xfe, 0xfd, 0x02, 0xfe, 0xfe, 0x01, 0x00, 0xff,
  0xff, 0x02, 0x03, 0x01, 0x04, 0xf6, 0x07, 0x05, 0x09, 0xf9, 0x00, 0x03,
  0xfb, 0xfb, 0x06, 0x05, 0xff, 0xff, 0x04, 0xfe, 0xfe, 0x05, 0x00, 0x09,
  0xfc, 0x00, 0x02, 0x02, 0xf9, 0x05, 0xff, 0xfc, 0xfb, 0xff, 0xff, 0xfd,
  0xff, 0x05, 0xfe, 0xfe, 0x03, 0xff, 0x04, 0xfe, 0xfd, 0x01, 0x01, 0xff,
  0x00, 0x04, 0x04, 0x00, 0xff, 0x06, 0xfa, 0x00, 0x05, 0x09, 0xfd, 0x03,
  0x05, 0xfd, 0x16, 0x04, 0x00, 0xfc, 0x1f, 0xda, 0x14, 0xff, 0x02, 0xfe,
  0xff, 0x01, 0xfe, 0xff, 0x06, 0xff, 0x00, 0x07, 0x10, 0x02, 0x02, 0x03,
  0x07, 0x02, 0xff, 0xfb, 0xf4, 0xfc, 0xfe, 0x02, 0xff, 0xf2, 0x06, 0x0e,
  0x05, 0x06, 0x00, 0x01, 0xfc, 0x01, 0x13, 0x07, 0x03, 0x02, 0x0b, 0xfd,
  0x04, 0xfc, 0x02, 0x7f, 0x0b, 0xfe, 0x0b, 0x0b, 0x02, 0x02, 0xff, 0x04,
  0x01, 0xfa, 0x00, 0xf5, 0xf9, 0xfc, 0x02, 0x05, 0x09, 0x05, 0xff, 0xfa,
  0x06, 0x04, 0xfa, 0xf9, 0xff, 0xfe, 0xfa, 0x01, 0x04, 0xfa, 0xfc, 0xf6,
  0x02, 0xfc, 0x03, 0xfc, 0x05, 0xfe, 0x04, 0xfd, 0xff, 0x02, 0x02, 0xff,
  0x07, 0xfb, 0x00, 0x04, 0xf8, 0x04, 0xff, 0xfb, 0x05, 0x05, 0x01, 0xfd,
  0x05, 0xf6, 0x01, 0xfe, 0xff, 0xfb, 0xfb, 0xfe, 0xfd, 0x02, 0xfd, 0x00,
  0x04, 0x01, 0x05, 0x04, 0x0d, 0xff, 0x06, 0x02, 0x07, 0xfb, 0xfd, 0xff,
  0xf4, 0xff, 0x0a, 0x06, 0x04, 0xf4, 0xff, 0x02, 0x00, 0x0b, 0xfc, 0x09,
  0xfa, 0x05, 0x01, 0xfe, 0xff, 0x07, 0x00, 0x02, 0x06, 0x06, 0x00, 0xfb,
  0xfc, 0x08, 0xfd, 0xf9, 0xfc, 0xf9, 0x05, 0x04, 0xfe, 0xfb, 0xfe, 0xf7,
  0xfb, 0xfc, 0xff, 0xf0, 0xfc, 0x03, 0x00, 0x02, 0xfd, 0x07, 0x03, 0xfe,
  0x03, 0xfe, 0xfd, 0x02, 0xfd, 0x07, 0xfa, 0xff, 0x01, 0xfe, 0x01, 0xfd,
  0xf9, 0x00, 0xff, 0xff, 0x03, 0xfe, 0xfa, 0x02, 0x01, 0x03, 0x01, 0xfd,
  0x02, 0x00, 0xfd, 0xfd, 0xf2, 0xfe, 0x03, 0x03, 0x02, 0xf7, 0x04, 0x02,
  0x02, 0x03, 0x06, 0xfd, 0xfe, 0xff, 0x04, 0x06, 0x01, 0xfe, 0x07, 0xff,
  0xfd, 0xfe, 0xfd, 0xf8, 0x03, 0xfb, 0x06, 0x05, 0x02, 0xfd, 0xfb, 0xff,
  0x01, 0xfa, 0x06, 0x01, 0xfd, 0xfe, 0x07, 0xfd, 0xfb, 0x05, 0xfd, 0x02,
  0xfc, 0x01, 0xff, 0xff, 0xff, 0xfa, 0xff, 0x01, 0xfd, 0x07, 0xfe, 0x00,
  0x02, 0x01, 0x02, 0x02, 0xed, 0x00, 0xfd, 0xfe, 0xfe, 0xfb, 0x03, 0x02,
  0xfe, 0x01, 0x02, 0xfc, 0xfd, 0x01, 0x02, 0x04, 0xff, 0xff, 0x03, 0x05,
  0xfc, 0xfd, 0xfe, 0xf5, 0x04, 0xfa, 0x04, 0x02, 0xfe, 0xff, 0xfd, 0x01,
  0x05, 0x00, 0x05, 0x08, 0x01, 0x07, 0x05, 0xfc, 0xfa, 0xfa, 0xfb, 0xfe,
  0x00, 0x00, 0xff, 0xff, 0x04, 0x01, 0xff, 0x01, 0xfa, 0x03, 0x01, 0x05,
  0xff, 0x06, 0xfb, 0xfd, 0xf8, 0xfe, 0xfe, 0x00, 0x09, 0x00, 0xfe, 0xff,
  0x00, 0x02, 0xfc, 0xff, 0x00, 0xfa, 0x02, 0x08, 0x05, 0xfe, 0xfe, 0xff,
  0x00, 0xfd, 0xf8, 0x08, 0xfd, 0x00, 0x04, 0x04, 0xff, 0xfc, 0xfd, 0xfc,
  0xfc, 0xfa, 0xf5, 0x01, 0x03, 0xfb, 0xe4, 0x09, 0x04, 0x01, 0xff, 0x00,
  0x01, 0x00, 0x00, 0x01, 0xfc, 0xfc, 0xff, 0xfd, 0xfd, 0x00, 0xfb, 0x01,
  0xfc, 0xfc, 0x01, 0x01, 0x08, 0x02, 0xfa, 0xfa, 0xf9, 0x05, 0xff, 0x00,
  0xfe, 0xfe, 0x01, 0xfe, 0xfe, 0xfe, 0xea, 0x01, 0xfd, 0xff, 0x01, 0xfd,
  0xfa, 0xfe, 0xff, 0x05, 0xff, 0xfc, 0x04, 0xfc, 0x04, 0xfe, 0xfb, 0x05,
  0x07, 0xff, 0x03, 0x00, 0xfe, 0xff, 0x05, 0xfd, 0xfd, 0xfe, 0xfd, 0xfd,
  0xfa, 0x04, 0xff, 0xfd, 0x02, 0x03, 0xfd, 0x03, 0x03, 0xff, 0xff, 0x01,
  0x03, 0x02, 0xfe, 0xfe, 0xf9, 0xfb, 0x03, 0x02, 0x02, 0xf9, 0x02, 0x04,
  0x02, 0x02, 0x00, 0x01, 0xfd, 0x00, 0x03, 0x04, 0x04, 0x05, 0xff, 0xfd,
  0x03, 0xfb, 0xfc, 0x01, 0x02, 0x00, 0xfd, 0x00, 0x00, 0xff, 0xfb, 0x05,
  0x07, 0x03, 0xff, 0xfc, 0xff, 0xf9, 0x03, 0xf5, 0xfa, 0xf0, 0xfe, 0xfb,
  0xfe, 0xfe, 0xfb, 0x03, 0x0b, 0xff, 0xfd, 0xff, 0x04, 0x02, 0x06, 0xff,
  0xf7, 0x0a, 0xfb, 0xfe, 0xed, 0x08, 0x04, 0x00, 0x00, 0xfc, 0xf8, 0xf1,
  0x11, 0x08, 0x06, 0x05, 0xfb, 0xfc, 0x03, 0xfc, 0x09, 0x00, 0xfb, 0x02,
  0xff, 0xfa, 0xff, 0xf4, 0xfa, 0x03, 0xf6, 0x04, 0x00, 0x02, 0x00, 0x03,
  0x00, 0x02, 0x08, 0xff, 0xfb, 0x01, 0x04, 0xfd, 0x02, 0x03, 0x01, 0xfa,
  0x00, 0xfd, 0x00, 0xfc, 0xfe, 0xfe, 0xfb, 0x00, 0x05, 0xf8, 0xff, 0xfe,
  0x01, 0xfe, 0x01, 0xfc, 0xf9, 0xfe, 0x00, 0xfd, 0xff, 0xf5, 0x03, 0x02,
  0x02, 0xfb, 0x04, 0x02, 0xf6, 0x02, 0x04, 0xfe, 0xfe, 0x02, 0x06, 0xfd,
  0x00, 0xf7, 0x00, 0xf8, 0x03, 0xff, 0xff, 0xfe, 0x05, 0x00, 0xfb, 0x05,
  0x04, 0x00, 0xff, 0x01, 0xfd, 0x02, 0xfd, 0xfe, 0xff, 0x03, 0xfb, 0xfc,
  0xf9, 0x02, 0xfe, 0xfe, 0x03, 0x03, 0xfd, 0x04, 0x04, 0x01, 0xfd, 0xfe,
  0x04, 0x02, 0xff, 0xfe, 0xf2, 0xfd, 0x05, 0x04, 0xfe, 0xf6, 0x03, 0x03,
  0x04, 0xfd, 0x02, 0xfd, 0xfe, 0x00, 0x00, 0x04, 0x05, 0x00, 0x00, 0x02,
  0x04, 0xfe, 0xfa, 0x03, 0x04, 0xfc, 0xfe, 0x01, 0x03, 0xfc, 0xfd, 0xfe,
  0xfc, 0xfa, 0xf7, 0x0b, 0x01, 0x09, 0xf7, 0xfd, 0x00, 0x0a, 0xfb, 0x06,
  0x00, 0x06, 0x06, 0x02, 0xfb, 0x03, 0x05, 0x06, 0x00, 0x16, 0xf9, 0x02,
  0x06, 0xfe, 0x06, 0x07, 0x04, 0xfb, 0xf7, 0xfe, 0xfb, 0x05, 0x03, 0x0c,
  0xfd, 0xff, 0xfe, 0xfd, 0x00, 0xfd, 0xf7, 0x09, 0xfe, 0xfe, 0x02, 0x0c,
  0xff, 0x05, 0xfa, 0x07, 0x09, 0xf7, 0x08, 0x05, 0xfd, 0x00, 0x01, 0xff,
  0x03, 0x03, 0x00, 0x01, 0x03, 0xff, 0x01, 0x04, 0x04, 0xfb, 0xff, 0xfd,
  0xf5, 0xfd, 0x03, 0x01, 0x00, 0xfa, 0x00, 0x00, 0x00, 0x06, 0x00, 0x04,
  0xfd, 0x04, 0xfe, 0xfc, 0xfd, 0x01, 0x03, 0x01, 0x04, 0x02, 0x00, 0xfe,
  0x01, 0x01, 0xff, 0xfd, 0xfd, 0xfc, 0x02, 0x01, 0xfe, 0xfd, 0x04, 0xf8,
  0xfe, 0xfa, 0x01, 0xf9, 0xfb, 0x02, 0x01, 0xff, 0x00, 0xfe, 0xfc, 0x02,
  0x03, 0xfe, 0x03, 0x06, 0x03, 0x05, 0x04, 0xfc, 0xfb, 0x02, 0xf8, 0xfe,
  0xff, 0x00, 0x01, 0xfe, 0x05, 0x02, 0x01, 0x03, 0xfb, 0x03, 0x00, 0x06,
  0x02, 0x03, 0x00, 0x00, 0xfd, 0xfd, 0x01, 0x04, 0x09, 0x03, 0xfe, 0x02,
  0x02, 0x01, 0xff, 0x01, 0xfc, 0xfb, 0x02, 0x04, 0x07, 0x00, 0xfd, 0xfd,
  0xff, 0xfd, 0xfa, 0x05, 0x00, 0x00, 0x03, 0x04, 0x03, 0x04, 0x05, 0x04,
  0xfc, 0xfe, 0xfd, 0xfc, 0xfc, 0x04, 0xf9, 0xfe, 0x04, 0x06, 0x00, 0x00,
  0x0d, 0x04, 0xfd, 0x01, 0x00, 0xfe, 0xfe, 0x04, 0x01, 0xfa, 0x00, 0xfc,
  0x03, 0x00, 0x01, 0x02, 0x0c, 0x01, 0x02, 0xff, 0x02, 0xff, 0x03, 0x03,
  0x07, 0xff, 0x04, 0x06, 0x03, 0x01, 0x00, 0xfc, 0x00, 0x01, 0x05, 0xfd,
  0x00, 0x03, 0x04, 0xfa, 0x02, 0xfd, 0x04, 0xff, 0xff, 0x03, 0x04, 0xfe,
  0xfd, 0xfd, 0x0c, 0x01, 0xf3, 0x04, 0x0e, 0x0a, 0x0e, 0x05, 0x01, 0xfb,
  0x03, 0x00, 0xf9, 0xfe, 0xf8, 0xf8, 0xf9, 0xfc, 0xfe, 0xf0, 0xfc, 0xf7,
  0x03, 0xf8, 0x02, 0xfd, 0xea, 0xf4, 0xff, 0xfb, 0x01, 0xe1, 0x02, 0x08,
  0xff, 0xf5, 0xff, 0x01, 0xfa, 0x03, 0x0c, 0x05, 0xfc, 0x03, 0x08, 0xfc,
  0x02, 0xfd, 0x00, 0xfd, 0x00, 0xfd, 0x05, 0xfd, 0x00, 0xfe, 0xf8, 0xfd,
  0x01, 0xfb, 0x05, 0x00, 0x01, 0x05, 0x0c, 0xf7, 0xfd, 0xfc, 0x00, 0x03,
  0x02, 0x00, 0xfc, 0xfa, 0xfe, 0xf6, 0x02, 0x02, 0xff, 0x0b, 0xff, 0xff,
  0xfd, 0x02, 0xfb, 0x03, 0xfd, 0xff, 0xf7, 0x02, 0x0a, 0x01, 0xfc, 0x00,
  0xfe, 0x00, 0xfc, 0xff, 0xfc, 0xfc, 0x02, 0x04, 0x02, 0xfd, 0xfc, 0x02,
  0xf9, 0xfd, 0xfe, 0xfa, 0x04, 0xfb, 0x03, 0x01, 0x04, 0xff, 0x00, 0x02,
  0xff, 0xfd, 0xfc, 0x04, 0x01, 0x06, 0xfc, 0xfd, 0x00, 0xff, 0xfd, 0x06,
  0x05, 0x02, 0x07, 0x01, 0xff, 0xfe, 0x05, 0x05, 0xf5, 0x0b, 0xff, 0x07,
  0x02, 0x00, 0x01, 0x01, 0x0c, 0xf6, 0xf9, 0x00, 0x02, 0x18, 0xff, 0x05,
  0x01, 0xfe, 0xfa, 0x00, 0x07, 0x00, 0xf8, 0x02, 0x01, 0x04, 0xfe, 0xf4,
  0x02, 0x08, 0xff, 0x00, 0x07, 0x00, 0x02, 0xff, 0x00, 0x02, 0x02, 0x00,
  0xfc, 0xfb, 0xfe, 0xfe, 0xfe, 0x02, 0xf9, 0x00, 0x03, 0x05, 0xfd, 0x00,
  0x0a, 0x04, 0xff, 0xff, 0xff, 0x03, 0x00, 0x04, 0x02, 0xfc, 0xff, 0xfe,
  0x01, 0xff, 0x01, 0xfd, 0x09, 0xfe, 0x02, 0xfe, 0x02, 0x05, 0x02, 0x02,
  0x04, 0xff, 0x03, 0x01, 0xfe, 0x02, 0xff, 0xff, 0xff, 0x00, 0x01, 0x01,
  0x02, 0x00, 0xff, 0xfd, 0x06, 0xfd, 0xff, 0x00, 0x01, 0x06, 0x01, 0x00,
  0x00, 0x03, 0x02, 0xfc, 0x01, 0x00, 0x10, 0xfa, 0x07, 0xfe, 0x02, 0x00,
  0x01, 0x01, 0xfc, 0xfd, 0xfd, 0xfe, 0xfe, 0x03, 0x04, 0xfe, 0x03, 0x00,
  0x03, 0x00, 0xfd, 0xff, 0x00, 0xfb, 0x05, 0x03, 0x01, 0xf6, 0x02, 0x04,
  0xff, 0x00, 0x01, 0x04, 0x00, 0x02, 0x04, 0x00, 0x00, 0x02, 0x06, 0xfa,
  0x03, 0x03, 0x03, 0xfd, 0x01, 0x01, 0x00, 0xff, 0xfe, 0x03, 0x02, 0xfd,
  0xfd, 0xff, 0xfd, 0xfa, 0x03, 0xfa, 0xfb, 0x08, 0x06, 0xfd, 0xfd, 0xfa,
  0xfc, 0x00, 0x02, 0x03, 0xfe, 0x00, 0xfe, 0xfe, 0x04, 0xfd, 0xfd, 0xff,
  0xfe, 0x00, 0x01, 0xfd, 0x01, 0x05, 0x05, 0x01, 0xfd, 0xff, 0x05, 0xfe,
  0xff, 0xff, 0x00, 0xfd, 0xfd, 0x01, 0x07, 0xf9, 0xfc, 0x00, 0x03, 0xfe,
  0x00, 0xfb, 0xfe, 0xfd, 0xfe, 0x01, 0xfe, 0xfd, 0x03, 0x07, 0xfd, 0x04,
  0x08, 0x00, 0xef, 0x02, 0x05, 0x0a, 0xf6, 0xf6, 0xf6, 0x00, 0xfa, 0xf9,
  0xff, 0x03, 0xfd, 0xfe, 0xfc, 0x04, 0x00, 0x06, 0xfe, 0xfa, 0xfe, 0x04,
  0x04, 0x02, 0xfe, 0xfc, 0xf3, 0xff, 0x0c, 0x13, 0x0c, 0xf6, 0x02, 0xfa,
  0x02, 0xfa, 0x03, 0xfe, 0xfb, 0xfb, 0xfd, 0x03, 0x09, 0xfe, 0xf8, 0xfe,
  0x03, 0x00, 0xfc, 0x05, 0xfd, 0xfe, 0xfd, 0xfd, 0xf9, 0xfe, 0x07, 0xfe,
  0xf6, 0xfc, 0x02, 0xff, 0x02, 0xf7, 0x03, 0xfb, 0x01, 0x00, 0xf6, 0x01,
  0xfb, 0xff, 0x01, 0x02, 0xee, 0xfc, 0x00, 0xf8, 0xf3, 0x02, 0xf2, 0x03,
  0xf5, 0xec, 0x03, 0xff, 0x06, 0x01, 0xfe, 0xfd, 0x02, 0x03, 0xf4, 0xf5,
  0x00, 0xf6, 0xfa, 0xff, 0xff, 0xfe, 0xfe, 0xf6, 0x00, 0xfa, 0xff, 0xfd,
  0xf9, 0x01, 0xf8, 0xfa, 0xf2, 0xff, 0xf3, 0xf5, 0xfa, 0xfd, 0xf8, 0x00,
  0x09, 0x01, 0x01, 0x05, 0x04, 0xfd, 0x04, 0xfb, 0xfc, 0xf2, 0xff, 0x03,
  0xf4, 0xf9, 0x04, 0xff, 0x02, 0xfd, 0x02, 0x02, 0x03, 0x06, 0x02, 0x04,
  0xfa, 0x03, 0xfa, 0xfe, 0xf0, 0x01, 0xff, 0x04, 0x03, 0x09, 0xfb, 0xfb,
  0xfe, 0x05, 0xfb, 0xf9, 0xfb, 0x00, 0xfe, 0x01, 0x00, 0x00, 0xf8, 0x04,
  0xfe, 0xfb, 0x00, 0x07, 0x01, 0x05, 0xfa, 0x02, 0x05, 0x02, 0x02, 0x05,
  0x01, 0xfb, 0x01, 0xfa, 0xf5, 0xff, 0xff, 0xfd, 0x02, 0x06, 0x00, 0xfb,
  0x07, 0x04, 0xf7, 0xf6, 0x00, 0xfe, 0xfb, 0x03, 0x04, 0xf8, 0xfc, 0xf8,
  0x06, 0xfc, 0x02, 0xfb, 0x03, 0xf9, 0x05, 0x02, 0xff, 0xfd, 0x04, 0x07,
  0x06, 0xf9, 0x01, 0x04, 0xfa, 0x07, 0xfd, 0xfa, 0x06, 0x05, 0x00, 0xf8,
  0x09, 0xfc, 0xff, 0xf4, 0x03, 0xfc, 0xfd, 0xfd, 0x02, 0x02, 0xff, 0x00,
  0xfc, 0xf8, 0x0b, 0xfb, 0xf5, 0xfa, 0x0a, 0x05, 0x0a, 0x04, 0x01, 0xfa,
  0xfa, 0x00, 0xf7, 0xf5, 0xfd, 0xf7, 0xfc, 0x05, 0x06, 0xfe, 0xfd, 0xf4,
  0x06, 0xf8, 0xfe, 0xfa, 0xf8, 0xf8, 0xff, 0x00, 0xfe, 0xf3, 0x07, 0x08,
  0x04, 0xfc, 0x03, 0x01, 0xfa, 0x02, 0x07, 0xfc, 0xfe, 0x01, 0x08, 0x07,
  0x02, 0xfd, 0x05, 0xfa, 0x07, 0xf8, 0x01, 0x00, 0x05, 0xfd, 0xff, 0x02,
  0x01, 0xfb, 0xfd, 0x04, 0x02, 0x07, 0x01, 0xfb, 0xf8, 0x05, 0xfa, 0x01,
  0x05, 0x04, 0xff, 0x00, 0xfd, 0x00, 0x01, 0x04, 0xff, 0x04, 0xfe, 0x00,
  0x05, 0xff, 0x02, 0x00, 0x04, 0xff, 0xfd, 0x04, 0x03, 0x04, 0x00, 0x04,
  0x01, 0xfd, 0x01, 0xfd, 0xfa, 0xfa, 0xfe, 0x06, 0x06, 0xfc, 0xfd, 0x01,
  0xfc, 0xfe, 0xfa, 0x03, 0x03, 0xfa, 0x04, 0x03, 0x03, 0x04, 0x04, 0x00,
  0x01, 0xfe, 0xf6, 0x05, 0x05, 0x0a, 0xfa, 0xfe, 0x02, 0x06, 0xf8, 0xf8,
  0x05, 0x02, 0xfe, 0x00, 0xf9, 0x0b, 0xfe, 0x02, 0xfb, 0xf0, 0xf9, 0x04,
  0x04, 0xfc, 0x00, 0xf9, 0xfd, 0xfc, 0x0b, 0x0b, 0x03, 0xf7, 0x04, 0x03,
  0xfb, 0xf2, 0x00, 0xf9, 0x00, 0xfe, 0xf7, 0x07, 0x02, 0xff, 0xfc, 0xf5,
  0x01, 0x00, 0xf8, 0x05, 0xfd, 0x00, 0x06, 0xff, 0xfe, 0x00, 0x03, 0xfc,
  0xfa, 0x03, 0xfd, 0xff, 0x01, 0x00, 0xfc, 0x01, 0x03, 0xff, 0xff, 0x02,
  0x04, 0xfc, 0x03, 0x05, 0xfb, 0xff, 0x03, 0xfd, 0x01, 0xff, 0xff, 0x03,
  0xfd, 0xff, 0x02, 0x00, 0x01, 0xff, 0x01, 0x00, 0xff, 0x04, 0xfd, 0xfe,
  0xfd, 0xfe, 0xfe, 0xff, 0x04, 0xff, 0xfe, 0xfe, 0xfd, 0x00, 0xff, 0x00,
  0xfd, 0x06, 0x03, 0xfd, 0xfe, 0x04, 0x00, 0x00, 0x03, 0xfe, 0xff, 0x02,
  0x02, 0xf9, 0xfb, 0x02, 0x01, 0x09, 0x02, 0xf8, 0xf7, 0x06, 0xfa, 0x01,
  0x03, 0x05, 0xff, 0xfe, 0xfe, 0x03, 0xff, 0x04, 0x01, 0x00, 0xfd, 0x00,
  0x02, 0x01, 0x02, 0x02, 0x06, 0xfd, 0x00, 0x03, 0x03, 0x00, 0xff, 0x03,
  0xff, 0xfb, 0xff, 0xfe, 0xfb, 0xfb, 0xfb, 0x05, 0x04, 0xfc, 0xfb, 0xff,
  0xfd, 0x01, 0xfc, 0x00, 0x04, 0xf6, 0x03, 0x03, 0x04, 0x01, 0xff, 0x04,
  0x05, 0x00, 0x05, 0xfe, 0xfd, 0x02, 0x02, 0xf9, 0xfa, 0x00, 0xfe, 0xfd,
  0xff, 0x02, 0xfa, 0xf9, 0x02, 0xfe, 0xfc, 0x06, 0x03, 0xfe, 0x00, 0xfa,
  0x04, 0x00, 0xfe, 0xfe, 0xf5, 0xff, 0x02, 0x03, 0x01, 0xfc, 0x02, 0x03,
  0x05, 0x00, 0x02, 0x02, 0xfc, 0x02, 0x01, 0x01, 0x03, 0x02, 0x05, 0xfd,
  0x02, 0xf9, 0x00, 0x02, 0x04, 0xfc, 0x01, 0x01, 0xfd, 0x00, 0xff, 0xfd,
  0xff, 0x03, 0x03, 0x03, 0x05, 0xfb, 0x07, 0xfe, 0x03, 0xfc, 0x02, 0x00,
  0xfa, 0xfc, 0x07, 0x06, 0xfd, 0x01, 0x04, 0xfe, 0x01, 0x02, 0x02, 0x10,
  0xfd, 0x00, 0x00, 0xfe, 0xfd, 0x02, 0x01, 0x03, 0xfd, 0xfe, 0xff, 0xfd,
  0x00, 0x03, 0xff, 0xfd, 0x01, 0xfe, 0x00, 0x00, 0x00, 0xff, 0xff, 0x03,
  0xff, 0x02, 0x03, 0x07, 0x01, 0x04, 0xfb, 0xff, 0x96, 0xc8, 0xff, 0xff,
  0x04, 0x00, 0x00, 0x00, 0x40, 0x01, 0x00, 0x00, 0x86, 0x15, 0x00, 0x00,
  0x88, 0x15, 0x00, 0x00, 0xf8, 0x15, 0x00, 0x00, 0x42, 0x16, 0x00, 0x00,
  0xac, 0x14, 0x00, 0x00, 0xad, 0x15, 0x00, 0x00, 0x52, 0x14, 0x00, 0x00,
  0xbd, 0x14, 0x00, 0x00, 0x51, 0x13, 0x00, 0x00, 0xcd, 0x14, 0x00, 0x00,
  0xe2, 0x13, 0x00, 0x00, 0x5f, 0x15, 0x00, 0x00, 0x2f, 0x17, 0x00, 0x00,
  0x5f, 0x13, 0x00, 0x00, 0xb7, 0x14, 0x00, 0x00, 0x05, 0x16, 0x00, 0x00,
  0xbc, 0x15, 0x00, 0x00, 0x9b, 0x18, 0x00, 0x00, 0xe0, 0x14, 0x00, 0x00,
  0x4f, 0x16, 0x00, 0x00, 0xa8, 0x14, 0x00, 0x00, 0x13, 0x14, 0x00, 0x00,
  0x15, 0x15, 0x00, 0x00, 0xe1, 0x13, 0x00, 0x00, 0x23, 0x16, 0x00, 0x00,
  0xa9, 0x16, 0x00, 0x00, 0x97, 0x12, 0x00, 0x00, 0x3d, 0x15, 0x00, 0x00,
  0x00, 0x14, 0x00, 0x00, 0x1d, 0x16, 0x00, 0x00, 0x4c, 0x14, 0x00, 0x00,
  0x37, 0x14, 0x00, 0x00, 0x33, 0x14, 0x00, 0x00, 0x53, 0x14, 0x00, 0x00,
  0x3c, 0x14, 0x00, 0x00, 0x76, 0x15, 0x00, 0x00, 0x9a, 0x13, 0x00, 0x00,
  0x90, 0x17, 0x00, 0x00, 0xff, 0x15, 0x00, 0x00, 0x3a, 0x15, 0x00, 0x00,
  0x55, 0x14, 0x00, 0x00, 0x76, 0x15, 0x00, 0x00, 0x87, 0x14, 0x00, 0x00,
  0x96, 0x14, 0x00, 0x00, 0x24, 0x16, 0x00, 0x00, 0x5a, 0x14, 0x00, 0x00,
  0x67, 0x15, 0x00, 0x00, 0x37, 0x17, 0x00, 0x00, 0x33, 0x16, 0x00, 0x00,
  0xb4, 0x14, 0x00, 0x00, 0xb4, 0x14, 0x00, 0x00, 0xb5, 0x14, 0x00, 0x00,
  0x7a, 0x15, 0x00, 0x00, 0xa9, 0x14, 0x00, 0x00, 0x3a, 0x13, 0x00, 0x00,
  0xb6, 0x15, 0x00, 0x00, 0x00, 0x17, 0x00, 0x00, 0x89, 0x13, 0x00, 0x00,
  0x40, 0x15, 0x00, 0x00, 0x3c, 0x14, 0x00, 0x00, 0xa1, 0x14, 0x00, 0x00,
  0x8c, 0x14, 0x00, 0x00, 0x0f, 0x16, 0x00, 0x00, 0x30, 0x11, 0x00, 0x00,
  0xe8, 0x14, 0x00, 0x00, 0x73, 0x17, 0x00, 0x00, 0x8a, 0x15, 0x00, 0x00,
  0x16, 0x17, 0x00, 0x00, 0xa5, 0x13, 0x00, 0x00, 0x16, 0x16, 0x00, 0x00,
  0x00, 0x14, 0x00, 0x00, 0xbf, 0x16, 0x00, 0x00, 0x93, 0x14, 0x00, 0x00,
  0x31, 0x12, 0x00, 0x00, 0xeb, 0x14, 0x00, 0x00, 0x1a, 0x13, 0x00, 0x00,
  0x00, 0x17, 0x00, 0x00, 0x9a, 0x14, 0x00, 0x00, 0x13, 0x15, 0x00, 0x00,
  0x03, 0x17, 0x00, 0x00, 0xe2, 0xc9, 0xff, 0xff, 0x04, 0x00, 0x00, 0x00,
  0x00, 0x19, 0x00, 0x00, 0x01, 0xfd, 0x08, 0x04, 0xfe, 0xf9, 0xfd, 0xf0,
  0x04, 0x04, 0xfd, 0x00, 0x01, 0x00, 0xf9, 0xfe, 0x01, 0xfe, 0xec, 0xfe,
  0x02, 0xff, 0x03, 0xff, 0x02, 0xff, 0x06, 0x01, 0xf7, 0xfc, 0xfb, 0x02,
  0xfd, 0xfd, 0x06, 0x01, 0x05, 0xfe, 0xfa, 0x00, 0xff, 0x02, 0x01, 0xfe,
  0xff, 0x04, 0x04, 0xff, 0xff, 0xf8, 0xfd, 0x05, 0x00, 0xfe, 0xee, 0x03,
  0x0c, 0x01, 0x02, 0x00, 0x02, 0xfd, 0xfd, 0x02, 0x01, 0xfe, 0xfe, 0x02,
  0xff, 0x06, 0xfe, 0x03, 0x01, 0x02, 0x01, 0xf6, 0xfb, 0xff, 0x03, 0x00,
  0x00, 0xfd, 0x14, 0x03, 0x00, 0xf9, 0xfc, 0x05, 0xfe, 0xfe, 0xfd, 0x04,
  0xfe, 0xfe, 0xfd, 0x03, 0x01, 0xfe, 0x00, 0xfd, 0x04, 0x00, 0x03, 0x01,
  0xff, 0xff, 0x01, 0x00, 0xfd, 0xfd, 0x03, 0xff, 0xfe, 0x01, 0x0b, 0xfd,
  0x01, 0x05, 0xfa, 0x01, 0xfc, 0x01, 0xfe, 0xfc, 0x01, 0xfb, 0x07, 0xff,
  0x01, 0xff, 0xfe, 0xfe, 0x02, 0xff, 0x00, 0xff, 0x03, 0xfd, 0xfd, 0x00,
  0x00, 0xfe, 0xfe, 0xfd, 0x07, 0xfd, 0x00, 0x01, 0xff, 0xfb, 0x00, 0x00,
  0x01, 0x03, 0x02, 0xf0, 0xff, 0x01, 0x07, 0x00, 0x02, 0x02, 0x01, 0xfe,
  0x00, 0xfc, 0xfe, 0xfe, 0x01, 0x02, 0xfb, 0xfd, 0x02, 0xff, 0xfd, 0xfe,
  0x01, 0xfe, 0x00, 0x02, 0xff, 0x02, 0x01, 0x00, 0x01, 0x01, 0xfe, 0x02,
  0x00, 0xfb, 0x02, 0x01, 0xfe, 0xff, 0x02, 0x00, 0x01, 0x05, 0xfe, 0xfd,
  0x02, 0xfc, 0x03, 0x00, 0xfe, 0x01, 0x03, 0x00, 0x03, 0xf8, 0x01, 0x02,
  0x00, 0xfe, 0xfe, 0xff, 0x09, 0x00, 0x00, 0xff, 0x02, 0xfd, 0x00, 0x04,
  0x00, 0xfe, 0xff, 0x03, 0x03, 0x01, 0xfe, 0xfc, 0xff, 0x02, 0xfc, 0x01,
  0xff, 0xfe, 0x03, 0xfe, 0x01, 0xff, 0x0a, 0x01, 0xff, 0xfb, 0xff, 0xfc,
  0xfe, 0xff, 0x01, 0x01, 0x00, 0x00, 0xfa, 0xfb, 0x04, 0x01, 0xfa, 0x00,
  0xff, 0xfe, 0x00, 0x00, 0x05, 0x00, 0x02, 0x00, 0xfb, 0xf2, 0xff, 0xfe,
  0x01, 0xfe, 0xf6, 0xff, 0xfe, 0xfa, 0x01, 0xfe, 0x00, 0xfd, 0x03, 0xfe,
  0x00, 0xff, 0x02, 0xff, 0x01, 0xfb, 0x01, 0xff, 0x06, 0x02, 0x01, 0x06,
  0x10, 0xff, 0x08, 0x02, 0x00, 0x01, 0x00, 0xfe, 0x04, 0xff, 0x00, 0xff,
  0xff, 0x03, 0xfc, 0x00, 0xfd, 0xfe, 0xff, 0xf8, 0xfc, 0x00, 0x04, 0x00,
  0x03, 0x01, 0x04, 0xfe, 0x01, 0x00, 0xff, 0xff, 0xfe, 0x01, 0xfd, 0xfe,
  0x01, 0xfc, 0x04, 0xff, 0x00, 0xff, 0x06, 0x03, 0xff, 0x01, 0xff, 0x01,
  0x00, 0x00, 0xfb, 0x01, 0x01, 0xfc, 0xfd, 0xfc, 0xff, 0x02, 0x01, 0xfd,
  0xfb, 0x00, 0x01, 0xff, 0x02, 0xfe, 0x05, 0x02, 0x00, 0x01, 0x00, 0x01,
  0x02, 0xfe, 0x02, 0xfd, 0x02, 0xfa, 0x00, 0xff, 0x05, 0x03, 0xff, 0xfe,
  0x00, 0xfb, 0x03, 0x01, 0xfe, 0x00, 0x02, 0x01, 0x02, 0x02, 0x00, 0xfd,
  0xfe, 0x03, 0xfe, 0xfe, 0x02, 0xfe, 0xfd, 0x00, 0x00, 0xfc, 0x02, 0xfe,
  0xfe, 0x01, 0xff, 0xff, 0x00, 0x00, 0xfc, 0x01, 0xff, 0xfe, 0x07, 0x05,
  0x00, 0xfc, 0x03, 0xff, 0xff, 0xfe, 0x04, 0x00, 0x00, 0x00, 0xfd, 0xfe,
  0xff, 0xff, 0x02, 0x00, 0xff, 0xfd, 0x07, 0x01, 0x03, 0x05, 0x04, 0xff,
  0xfe, 0x03, 0xeb, 0xfd, 0x00, 0xfe, 0x01, 0xfe, 0x02, 0xff, 0x02, 0xfe,
  0xfd, 0x00, 0xfe, 0x01, 0x03, 0xfb, 0x01, 0xfe, 0x01, 0xfe, 0xfe, 0xfa,
  0x00, 0xff, 0x00, 0x02, 0x01, 0x05, 0xfb, 0x00, 0x01, 0x00, 0x00, 0xfb,
  0xfd, 0xff, 0x04, 0x00, 0xff, 0x01, 0xfc, 0xfa, 0x01, 0x01, 0x00, 0x00,
  0xfe, 0x00, 0xfc, 0xff, 0x00, 0xfe, 0x06, 0xff, 0x04, 0xfd, 0xf5, 0x02,
  0xfd, 0x00, 0x02, 0x01, 0x01, 0x03, 0xf7, 0x01, 0x0a, 0x01, 0xfc, 0xfd,
  0x01, 0xfe, 0x0a, 0x00, 0xfc, 0xfd, 0x01, 0xff, 0xfd, 0x01, 0xff, 0xfe,
  0xff, 0x01, 0x00, 0x02, 0x03, 0xfe, 0x04, 0xff, 0xfd, 0xfe, 0xfe, 0xff,
  0x05, 0x02, 0x02, 0xfe, 0x01, 0xfd, 0x00, 0x0e, 0x00, 0xfe, 0x00, 0x00,
  0x04, 0x00, 0xfb, 0xff, 0x02, 0x0b, 0xfe, 0x01, 0xfe, 0xfe, 0xfe, 0x01,
  0x01, 0x02, 0x00, 0xfd, 0x03, 0xfd, 0x00, 0x0b, 0xfc, 0xfd, 0x02, 0x03,
  0xfe, 0x00, 0x01, 0x05, 0x05, 0x03, 0xff, 0x01, 0x02, 0x01, 0xfe, 0x00,
  0xff, 0x01, 0xff, 0xff, 0x02, 0x04, 0x04, 0xff, 0x01, 0x02, 0x03, 0xfb,
  0x00, 0xf7, 0xfa, 0x01, 0xff, 0xff, 0x02, 0xfd, 0x03, 0xfd, 0xff, 0x00,
  0x01, 0xfb, 0xfd, 0xfd, 0x01, 0x01, 0x01, 0xfd, 0xf8, 0xfb, 0xfd, 0x01,
  0xfe, 0x01, 0x05, 0xfc, 0x03, 0x02, 0x04, 0x01, 0xfe, 0x06, 0x06, 0xfd,
  0xfe, 0xf6, 0x00, 0x02, 0x06, 0x00, 0xfc, 0x00, 0x00, 0x00, 0x03, 0x03,
  0x00, 0xf3, 0x01, 0xfb, 0x01, 0x00, 0x03, 0x01, 0xfe, 0x01, 0xfa, 0xfc,
  0x03, 0x02, 0xf7, 0xfe, 0xfc, 0xff, 0xff, 0x01, 0x01, 0xfe, 0x01, 0x00,
  0xf9, 0xfd, 0xfd, 0x02, 0x02, 0xfe, 0xf6, 0xfe, 0x00, 0xfa, 0x04, 0x02,
  0x01, 0xfd, 0x05, 0xfe, 0x00, 0x00, 0x00, 0xfe, 0x00, 0x00, 0xfe, 0x00,
  0x04, 0x02, 0xfe, 0x02, 0x0d, 0x03, 0x02, 0x02, 0x01, 0x01, 0xff, 0xff,
  0xff, 0x00, 0xff, 0xff, 0xff, 0x04, 0xfe, 0x02, 0xfe, 0x01, 0x00, 0xff,
  0xfd, 0xff, 0x01, 0xfe, 0xff, 0x00, 0x01, 0x01, 0x00, 0x03, 0x01, 0x0e,
  0xfe, 0xfc, 0x02, 0x03, 0xfd, 0x00, 0xff, 0x03, 0x05, 0x04, 0x00, 0xfe,
  0x03, 0x01, 0xff, 0x01, 0x00, 0x00, 0xff, 0xff, 0xfe, 0x05, 0x0a, 0x00,
  0x01, 0x00, 0xff, 0xff, 0xfe, 0xfa, 0xfb, 0x03, 0x00, 0xff, 0x04, 0xfe,
  0x03, 0xfd, 0xfe, 0xfe, 0x01, 0x0c, 0xff, 0xfd, 0x01, 0x01, 0x04, 0xff,
  0x00, 0xff, 0xfe, 0x01, 0xff, 0x01, 0x02, 0xfd, 0x02, 0x03, 0x01, 0xfd,
  0xff, 0x03, 0x01, 0xfd, 0xfd, 0xf6, 0x06, 0x02, 0x03, 0x05, 0xfd, 0xfe,
  0x01, 0x03, 0x02, 0x00, 0x01, 0x00, 0xff, 0x06, 0xfa, 0xff, 0xfa, 0x00,
  0xff, 0xfd, 0x00, 0x03, 0x01, 0xff, 0xfc, 0x04, 0x01, 0xfc, 0x00, 0x01,
  0x00, 0x01, 0xfd, 0x00, 0x01, 0x01, 0x03, 0xfd, 0xfd, 0x00, 0x0b, 0xfa,
  0xfa, 0x01, 0x0c, 0xfe, 0x01, 0xff, 0x0d, 0x00, 0xfa, 0x01, 0x03, 0xfe,
  0x00, 0x04, 0xf8, 0xff, 0xff, 0xfc, 0xfe, 0x01, 0x04, 0x04, 0x00, 0xfd,
  0xfb, 0xfd, 0x00, 0x05, 0xfe, 0xff, 0x02, 0x00, 0x03, 0xfb, 0x02, 0x17,
  0x01, 0x04, 0xfe, 0xfc, 0xfc, 0xfe, 0x02, 0xfb, 0x02, 0xff, 0xfd, 0xfe,
  0x00, 0xff, 0x03, 0x01, 0xfc, 0xfe, 0x02, 0xfb, 0x00, 0xff, 0x01, 0xfd,
  0xff, 0x00, 0x00, 0x02, 0x01, 0xff, 0xff, 0xff, 0x00, 0x02, 0x02, 0x00,
  0x00, 0xfa, 0x05, 0x00, 0x02, 0xff, 0xf9, 0x00, 0xff, 0xfe, 0x02, 0xfe,
  0x02, 0x02, 0x01, 0x03, 0xfe, 0xfe, 0xfd, 0xff, 0xff, 0x04, 0xfd, 0xfe,
  0xff, 0x02, 0xff, 0x01, 0x02, 0x04, 0xff, 0x02, 0x02, 0x02, 0xff, 0xfe,
  0x00, 0x00, 0x00, 0x00, 0x02, 0x01, 0xfe, 0x02, 0xff, 0xfd, 0xfc, 0xfd,
  0xff, 0xfd, 0xff, 0xfe, 0x03, 0x01, 0xfe, 0x06, 0x03, 0x01, 0x02, 0x01,
  0xff, 0xfe, 0x03, 0x02, 0xfe, 0x02, 0x02, 0x03, 0x02, 0xff, 0xf3, 0x00,
  0xfc, 0xff, 0x00, 0xff, 0x02, 0xfe, 0x01, 0x01, 0x03, 0xfe, 0xfe, 0x00,
  0xff, 0xfe, 0xff, 0xfe, 0xff, 0xef, 0x00, 0x01, 0x02, 0x01, 0xff, 0xfe,
  0xff, 0x00, 0x02, 0xff, 0x01, 0xfa, 0xfa, 0x01, 0xff, 0x00, 0x00, 0x02,
  0x06, 0x00, 0x01, 0x00, 0xfd, 0x02, 0x03, 0xfe, 0xff, 0x00, 0x02, 0x01,
  0x01, 0xff, 0xfe, 0xfa, 0xfd, 0xfc, 0x02, 0x02, 0xff, 0x01, 0x01, 0xff,
  0xfd, 0x00, 0xf0, 0xfd, 0x00, 0x00, 0xff, 0x02, 0x04, 0x00, 0x00, 0xff,
  0xfe, 0x01, 0x01, 0x02, 0xfd, 0xff, 0x09, 0xfc, 0xf9, 0x03, 0xfc, 0xff,
  0xfd, 0x01, 0xff, 0xfd, 0x02, 0x0b, 0xff, 0x04, 0xfd, 0x00, 0x06, 0xff,
  0x02, 0x02, 0xf7, 0x02, 0xff, 0x02, 0x05, 0x01, 0x01, 0xfe, 0x04, 0xff,
  0x01, 0xfc, 0x01, 0x04, 0xfd, 0xff, 0xfc, 0xfb, 0xe8, 0xf8, 0xfd, 0xfe,
  0x01, 0xfe, 0x01, 0x0c, 0xf9, 0xfe, 0xff, 0xfd, 0xfd, 0xfb, 0xfd, 0xfd,
  0xfe, 0xfa, 0x02, 0x01, 0x00, 0x00, 0x05, 0x00, 0x01, 0x00, 0x04, 0xfb,
  0xff, 0x08, 0x00, 0x01, 0x00, 0x01, 0xfe, 0xff, 0x02, 0xff, 0x01, 0x02,
  0x00, 0xfc, 0x02, 0x02, 0x01, 0xff, 0x01, 0x00, 0xff, 0x02, 0x00, 0x01,
  0x00, 0x04, 0x00, 0x01, 0xfc, 0x00, 0x08, 0x04, 0xff, 0x08, 0x03, 0xfe,
  0x00, 0x01, 0xfd, 0x05, 0xff, 0x01, 0x00, 0x01, 0x02, 0x00, 0x01, 0x02,
  0xff, 0xfd, 0xff, 0xff, 0x03, 0xfc, 0xfe, 0xff, 0x00, 0xfd, 0x00, 0xfe,
  0x01, 0xff, 0xfe, 0x03, 0x01, 0xfb, 0xfd, 0x02, 0x01, 0x00, 0x00, 0x00,
  0x00, 0xff, 0xfe, 0x00, 0xfe, 0x00, 0x00, 0x00, 0x00, 0xff, 0xfe, 0x04,
  0xfe, 0xff, 0x00, 0x00, 0xfe, 0x00, 0xfd, 0x02, 0x02, 0x03, 0x00, 0xfe,
  0x02, 0xfe, 0xfd, 0x01, 0xfe, 0xfd, 0x00, 0x00, 0x02, 0x05, 0xfa, 0xfe,
  0x03, 0x03, 0xff, 0x01, 0xfe, 0x03, 0xfd, 0x02, 0xfc, 0x02, 0x05, 0xff,
  0x03, 0xff, 0xfc, 0x02, 0xff, 0x03, 0x02, 0xfe, 0x01, 0x00, 0x02, 0xfe,
  0xfd, 0xfe, 0xff, 0x02, 0x01, 0xff, 0xff, 0x01, 0x01, 0x03, 0x01, 0xfd,
  0xff, 0x02, 0x03, 0x02, 0x02, 0xfe, 0x03, 0x03, 0x04, 0x02, 0xff, 0x01,
  0x02, 0xff, 0x00, 0x02, 0xff, 0x03, 0xfb, 0xff, 0x01, 0x00, 0xfd, 0xff,
  0x02, 0xfe, 0x05, 0xfd, 0xfe, 0xfe, 0x02, 0xff, 0x02, 0xfa, 0x02, 0x00,
  0x00, 0xff, 0x04, 0x00, 0x03, 0x02, 0xfc, 0xff, 0xfe, 0x02, 0x06, 0x02,
  0x01, 0x01, 0x08, 0xff, 0xfe, 0x00, 0x09, 0x03, 0x01, 0x01, 0x01, 0x02,
  0x01, 0xd6, 0x02, 0xff, 0x01, 0xfe, 0x02, 0x01, 0x05, 0x00, 0x00, 0x00,
  0x02, 0xfe, 0xfd, 0x02, 0x01, 0xff, 0x00, 0xff, 0x00, 0x00, 0x00, 0x03,
  0xfb, 0x00, 0x00, 0xfc, 0x01, 0xff, 0x09, 0x02, 0xff, 0xfe, 0x05, 0x02,
  0xff, 0xff, 0xff, 0xff, 0x01, 0x00, 0x02, 0x02, 0x00, 0x02, 0xfe, 0xfc,
  0x01, 0x00, 0x01, 0xfd, 0x02, 0x00, 0x01, 0xff, 0x02, 0x00, 0x02, 0x01,
  0xfd, 0xfa, 0x01, 0x01, 0x00, 0x00, 0xfc, 0xfd, 0x02, 0xfa, 0xfe, 0x02,
  0xfe, 0x04, 0x07, 0xfd, 0xff, 0x01, 0xfe, 0xfe, 0x00, 0xff, 0xfe, 0x03,
  0x01, 0x02, 0xfe, 0x02, 0x02, 0x08, 0x02, 0x02, 0x02, 0x02, 0xff, 0x06,
  0x02, 0x01, 0x00, 0x00, 0xff, 0x00, 0xfd, 0x05, 0xfc, 0x01, 0x02, 0xf9,
  0xfe, 0x02, 0xff, 0xff, 0xfd, 0x01, 0xf8, 0xfb, 0x04, 0x04, 0x09, 0x01,
  0xfc, 0xff, 0x08, 0x04, 0x00, 0x02, 0x02, 0x1b, 0x07, 0x01, 0xfc, 0x00,
  0xfd, 0xf9, 0xfd, 0x00, 0x04, 0x01, 0xfb, 0xff, 0x03, 0x0b, 0x16, 0xfe,
  0x03, 0xfd, 0xf8, 0xfd, 0xff, 0xfe, 0x0d, 0x00, 0x07, 0x02, 0x00, 0x00,
  0xfa, 0x01, 0xfc, 0xfd, 0x01, 0x0e, 0xfd, 0xfe, 0xfa, 0x05, 0x00, 0x04,
  0xf6, 0x04, 0x02, 0x01, 0xfc, 0x04, 0x05, 0x0c, 0xfc, 0x02, 0x05, 0x02,
  0xff, 0xff, 0xfd, 0xfa, 0x05, 0x1b, 0x01, 0x01, 0xff, 0x06, 0xf5, 0xfe,
  0xfb, 0x02, 0x03, 0x00, 0x00, 0xf9, 0xfe, 0xfd, 0x00, 0x00, 0xff, 0x01,
  0x02, 0x01, 0xf6, 0x02, 0x00, 0xfe, 0xfb, 0x00, 0x00, 0x00, 0x01, 0x03,
  0x04, 0x01, 0x05, 0x02, 0xf9, 0xf4, 0xfc, 0x01, 0x00, 0xfe, 0x22, 0xff,
  0x01, 0xff, 0x05, 0xfd, 0x03, 0x00, 0xf3, 0x01, 0x02, 0x01, 0xfd, 0x00,
  0xff, 0x03, 0xfd, 0x04, 0x05, 0xff, 0x00, 0x04, 0x09, 0x12, 0x04, 0x01,
  0x00, 0x00, 0x03, 0x1a, 0x03, 0xfe, 0xff, 0xff, 0xfe, 0x06, 0xff, 0xf9,
  0xfa, 0x03, 0xff, 0xfb, 0xfe, 0xff, 0x08, 0x01, 0x04, 0x02, 0x15, 0xf7,
  0x03, 0xf8, 0xff, 0x00, 0xfe, 0x04, 0xfb, 0xfe, 0xfe, 0xfa, 0x02, 0xfd,
  0x02, 0xfd, 0xfd, 0x04, 0xff, 0xfe, 0xff, 0x01, 0x02, 0x01, 0xfc, 0x02,
  0x02, 0x00, 0x03, 0xfc, 0xfb, 0x00, 0x05, 0xf0, 0x00, 0xfd, 0x00, 0xfe,
  0xff, 0x00, 0x05, 0xf6, 0xfd, 0x03, 0x02, 0x00, 0x00, 0x04, 0xf3, 0x02,
  0x01, 0xf9, 0x01, 0x02, 0x03, 0x02, 0x01, 0x01, 0xf8, 0xfc, 0x02, 0xfa,
  0xfe, 0xfc, 0x02, 0x00, 0x01, 0x01, 0xfe, 0xe6, 0x03, 0x03, 0xff, 0xff,
  0xfe, 0xfe, 0x00, 0xfe, 0xfe, 0x04, 0x01, 0xf6, 0x01, 0xfa, 0x00, 0xff,
  0xfd, 0x00, 0xff, 0xff, 0x02, 0x00, 0x01, 0x00, 0x04, 0x02, 0xfa, 0x03,
  0x01, 0x01, 0x00, 0xff, 0x00, 0x02, 0x01, 0x01, 0x01, 0x07, 0xf9, 0xff,
  0x00, 0xfe, 0xf6, 0xff, 0xfe, 0x00, 0x05, 0xfd, 0x02, 0xfe, 0x01, 0x01,
  0x00, 0x01, 0xfe, 0x00, 0x00, 0x28, 0xfd, 0x02, 0x01, 0xff, 0x01, 0x00,
  0xfd, 0x00, 0x01, 0xfd, 0xff, 0xff, 0x02, 0xfb, 0xfe, 0x01, 0x02, 0x04,
  0x02, 0x07, 0xff, 0xfd, 0x7f, 0x0a, 0xfe, 0x02, 0x01, 0xff, 0xfa, 0x00,
  0xfe, 0xff, 0xf8, 0x02, 0x02, 0x04, 0xfe, 0xfe, 0x01, 0xff, 0xfe, 0x00,
  0x01, 0x01, 0xfb, 0xff, 0xff, 0xff, 0x03, 0x01, 0x00, 0xfe, 0x00, 0xff,
  0x00, 0x02, 0xff, 0x00, 0x02, 0xfa, 0x01, 0x01, 0x01, 0xff, 0xff, 0xfe,
  0x02, 0x03, 0xfb, 0xfe, 0xff, 0x00, 0x02, 0xfb, 0x00, 0x00, 0x03, 0xfd,
  0x02, 0xfc, 0xfb, 0x00, 0xfe, 0x02, 0xff, 0xff, 0xf4, 0xfe, 0x02, 0x03,
  0xff, 0x00, 0xfe, 0x03, 0x00, 0x00, 0x01, 0x01, 0xfd, 0x04, 0xfd, 0xfd,
  0x01, 0xff, 0xff, 0x0b, 0xfe, 0xff, 0x04, 0xfe, 0x00, 0xff, 0x05, 0xfe,
  0x01, 0xfa, 0xfe, 0x02, 0x00, 0x00, 0xfc, 0x01, 0x00, 0xfe, 0x01, 0xfe,
  0x03, 0xfd, 0x04, 0x00, 0x01, 0xff, 0x02, 0xff, 0x01, 0x01, 0x01, 0x00,
  0xfc, 0xfc, 0xfc, 0xff, 0xff, 0x00, 0x1e, 0xff, 0xff, 0xfe, 0xfe, 0x00,
  0xff, 0x00, 0xff, 0xfe, 0xff, 0x01, 0x06, 0x01, 0x03, 0xfc, 0x03, 0xff,
  0x04, 0xff, 0x03, 0x01, 0x06, 0x0b, 0x01, 0xfe, 0x01, 0xfe, 0xff, 0x24,
  0x03, 0xfd, 0xff, 0x00, 0xff, 0xfb, 0xff, 0xff, 0x00, 0x00, 0x00, 0xfb,
  0xfe, 0x00, 0x08, 0x01, 0xff, 0x03, 0x08, 0xfd, 0x01, 0xf8, 0xff, 0x05,
  0xff, 0xff, 0x00, 0x01, 0xfe, 0xff, 0x03, 0x05, 0xff, 0x03, 0x02, 0x00,
  0x02, 0xfd, 0xfa, 0xff, 0xff, 0xfc, 0x01, 0x00, 0x00, 0x0c, 0x00, 0xfe,
  0xff, 0x04, 0x05, 0xff, 0xfc, 0x07, 0xfa, 0x01, 0xff, 0xff, 0x03, 0x00,
  0x01, 0xfd, 0xff, 0x01, 0xfd, 0x00, 0x02, 0x01, 0x04, 0xff, 0x00, 0xfd,
  0xfa, 0xfc, 0x00, 0x00, 0xfd, 0xff, 0x01, 0xfb, 0x01, 0x02, 0x01, 0x00,
  0xfe, 0xfb, 0x02, 0xfe, 0x04, 0xfe, 0x03, 0x03, 0x04, 0x01, 0x02, 0x00,
  0xff, 0xff, 0x00, 0x01, 0x02, 0xff, 0xff, 0xff, 0x00, 0xff, 0xfc, 0xff,
  0x00, 0xfd, 0x01, 0x02, 0x00, 0xfc, 0x01, 0x01, 0x00, 0xfd, 0x03, 0xff,
  0x01, 0x03, 0xfe, 0xff, 0x00, 0xf9, 0x00, 0x00, 0xfd, 0xfe, 0x0a, 0xff,
  0x01, 0x07, 0x02, 0x00, 0xff, 0x03, 0xf9, 0xfc, 0x00, 0x00, 0x00, 0x00,
  0x02, 0x01, 0x01, 0x00, 0x00, 0xff, 0xff, 0x01, 0x00, 0xfe, 0x01, 0xff,
  0xff, 0xfd, 0xff, 0xfd, 0x01, 0xfe, 0x01, 0x01, 0x00, 0x04, 0xfc, 0xfe,
  0xfe, 0x02, 0xff, 0x01, 0xfd, 0x01, 0x05, 0x02, 0xfd, 0x01, 0xff, 0xfc,
  0x02, 0xfd, 0xfe, 0xfe, 0xfe, 0xff, 0xfd, 0x02, 0x00, 0xff, 0x03, 0x01,
  0x05, 0xff, 0xf6, 0x01, 0xfe, 0x00, 0x01, 0x01, 0x02, 0x03, 0xfe, 0x01,
  0x00, 0xff, 0xfe, 0xfe, 0xfe, 0xfd, 0x02, 0x00, 0xff, 0xf3, 0x04, 0x00,
  0xff, 0x02, 0xff, 0xfe, 0x01, 0x01, 0x01, 0x00, 0x02, 0xfb, 0x03, 0xff,
  0x03, 0x00, 0xfd, 0x02, 0x07, 0xfe, 0x03, 0xff, 0xfe, 0x00, 0x01, 0x03,
  0xfe, 0xff, 0x01, 0x03, 0xff, 0x05, 0xff, 0xfd, 0xff, 0x01, 0x01, 0xfd,
  0xff, 0x01, 0x00, 0x01, 0xf9, 0x00, 0xf6, 0xfa, 0x01, 0xfe, 0xff, 0x00,
  0xff, 0x02, 0xfd, 0xfd, 0xff, 0xfd, 0xf9, 0xfb, 0x09, 0xfe, 0xed, 0x03,
  0xfc, 0xf9, 0x01, 0xfe, 0xfe, 0x06, 0xfe, 0x02, 0x00, 0xfc, 0xfd, 0xfe,
  0xff, 0xff, 0xff, 0x01, 0xff, 0xfd, 0x02, 0xfd, 0xfe, 0x01, 0x01, 0xff,
  0x01, 0x06, 0xff, 0x02, 0x03, 0x05, 0xfe, 0x03, 0xfc, 0x00, 0x01, 0xfc,
  0xfa, 0xfd, 0xfd, 0x02, 0x01, 0x00, 0xff, 0x06, 0xfa, 0xff, 0x00, 0x02,
  0x02, 0xfe, 0xf8, 0x03, 0x05, 0x04, 0xfb, 0xfc, 0x00, 0xfd, 0xf6, 0x01,
  0x02, 0x02, 0x01, 0x01, 0x00, 0xfd, 0x04, 0xfe, 0xff, 0x00, 0x02, 0xff,
  0xfe, 0xff, 0x00, 0xfc, 0x01, 0x01, 0xfb, 0x00, 0xfc, 0x03, 0x00, 0x01,
  0x02, 0xff, 0x01, 0x01, 0x00, 0xfe, 0x03, 0x00, 0x01, 0xfc, 0xfd, 0xff,
  0x00, 0xfe, 0xff, 0x01, 0x01, 0xfb, 0x11, 0x01, 0xfd, 0x00, 0x00, 0xfe,
  0xff, 0x05, 0xfd, 0x00, 0x01, 0x01, 0xfb, 0x00, 0x04, 0x00, 0x02, 0x02,
  0x01, 0x02, 0x02, 0x02, 0x00, 0x01, 0x01, 0xfe, 0x00, 0x00, 0xff, 0x00,
  0x01, 0xfe, 0x01, 0x00, 0xfe, 0xfe, 0x01, 0xfd, 0x05, 0x02, 0xfe, 0xfc,
  0xff, 0x03, 0x01, 0xff, 0x01, 0x01, 0x00, 0xff, 0x04, 0x00, 0x04, 0xfd,
  0xff, 0xff, 0x02, 0x05, 0x00, 0x02, 0xff, 0x00, 0x01, 0x01, 0x03, 0x01,
  0x04, 0x00, 0x03, 0xff, 0x00, 0x00, 0xfd, 0x03, 0xfe, 0xfb, 0x04, 0xfc,
  0x02, 0xfc, 0xff, 0x05, 0xfd, 0x02, 0xfe, 0x00, 0x01, 0x07, 0x00, 0x02,
  0xfe, 0xff, 0xfe, 0x00, 0x01, 0xff, 0x00, 0xff, 0x02, 0x00, 0x00, 0xfd,
  0x00, 0xfe, 0x00, 0x03, 0x01, 0x03, 0xff, 0x00, 0x01, 0x00, 0xfc, 0x03,
  0xff, 0xfb, 0xfb, 0x01, 0x01, 0xfd, 0x05, 0x04, 0xfe, 0xfd, 0x01, 0xff,
  0x03, 0x01, 0x02, 0x01, 0xff, 0x01, 0xfa, 0xfe, 0x01, 0x01, 0xfe, 0xfc,
  0x00, 0x02, 0x02, 0x00, 0x00, 0x01, 0x03, 0xff, 0xfd, 0xfa, 0x04, 0x02,
  0x02, 0xff, 0x00, 0xff, 0x03, 0xfe, 0xfb, 0x00, 0x00, 0x01, 0xfb, 0xfe,
  0x01, 0x00, 0x01, 0xfe, 0x00, 0x02, 0xfb, 0x02, 0x01, 0x01, 0xfd, 0x01,
  0x05, 0x02, 0x00, 0x00, 0x02, 0x02, 0xfe, 0xf8, 0x02, 0xff, 0xff, 0x00,
  0xfe, 0x04, 0x00, 0x03, 0x00, 0xfa, 0x02, 0xfe, 0xfd, 0x01, 0x00, 0xfe,
  0xfe, 0xff, 0xff, 0xfe, 0x02, 0xff, 0xff, 0x00, 0xfd, 0xfe, 0xfc, 0x02,
  0x00, 0xfe, 0x01, 0x01, 0x06, 0x00, 0xf8, 0xff, 0xfd, 0x01, 0x02, 0x01,
  0x03, 0x02, 0x01, 0xff, 0x00, 0xf9, 0xfe, 0x00, 0x00, 0xfd, 0xfc, 0xfd,
  0x00, 0xf6, 0x03, 0xfe, 0xff, 0x00, 0xfd, 0xfd, 0x00, 0xfe, 0x04, 0x01,
  0x01, 0xfb, 0x01, 0xff, 0x01, 0x00, 0xfe, 0x03, 0x05, 0xfc, 0x02, 0x00,
  0xfc, 0x01, 0x01, 0xfc, 0x00, 0xff, 0x02, 0x02, 0x00, 0x09, 0xfd, 0xfd,
  0xff, 0x00, 0xff, 0x00, 0xff, 0x02, 0x01, 0x02, 0x07, 0xfd, 0x07, 0x04,
  0x00, 0x04, 0x00, 0x02, 0x0c, 0x00, 0x03, 0x00, 0xfb, 0x00, 0xfe, 0xff,
  0xff, 0x02, 0x03, 0xfe, 0x00, 0xfa, 0xfd, 0xff, 0xfd, 0xfd, 0xdd, 0xfe,
  0xfd, 0x04, 0x04, 0xfc, 0x01, 0x03, 0xfe, 0xf8, 0xfb, 0x01, 0x03, 0x01,
  0x02, 0x00, 0x02, 0xfc, 0xfe, 0x00, 0xfc, 0xff, 0xfc, 0xff, 0x00, 0xd9,
  0xfc, 0xff, 0x02, 0xfc, 0x00, 0x07, 0xf8, 0xff, 0xfc, 0x00, 0xff, 0x00,
  0x01, 0x02, 0x00, 0xfa, 0x00, 0xfd, 0x04, 0x05, 0x02, 0xa1, 0x01, 0xfa,
  0x02, 0xff, 0x00, 0xfe, 0xfb, 0x01, 0xff, 0xf7, 0x00, 0x00, 0xff, 0xfd,
  0xfe, 0x01, 0xfe, 0xfe, 0x03, 0x00, 0x01, 0xfd, 0x02, 0x00, 0x01, 0x02,
  0x04, 0xff, 0x02, 0xfe, 0x00, 0x02, 0xff, 0x00, 0x03, 0x01, 0xfb, 0xff,
  0x00, 0xff, 0xee, 0x01, 0x00, 0xff, 0x00, 0xfd, 0xfd, 0x03, 0x0a, 0x01,
  0xfd, 0xff, 0x02, 0x00, 0x01, 0x00, 0x02, 0x01, 0x02, 0x00, 0x04, 0xff,
  0x06, 0xfa, 0x02, 0x00, 0xff, 0x00, 0x00, 0x02, 0x01, 0xff, 0xff, 0x03,
  0x02, 0x02, 0xfd, 0xfe, 0x10, 0x23, 0xfd, 0xfa, 0xfd, 0xfe, 0xfa, 0x00,
  0x00, 0xfb, 0x0c, 0x02, 0xff, 0xfb, 0xfc, 0x00, 0x00, 0x02, 0xfa, 0x00,
  0xff, 0x00, 0xfa, 0x02, 0x00, 0xff, 0xfe, 0x00, 0x07, 0x00, 0x02, 0x00,
  0x01, 0x03, 0xfe, 0x00, 0xfd, 0xfb, 0x00, 0xff, 0xfe, 0xfe, 0x03, 0x02,
  0x01, 0x05, 0x06, 0xff, 0xfa, 0x04, 0xf5, 0xff, 0xff, 0x02, 0x03, 0xff,
  0x01, 0x03, 0xfb, 0xff, 0x00, 0x00, 0xfe, 0x04, 0x0d, 0x03, 0x02, 0x01,
  0x02, 0xff, 0xfd, 0xfd, 0x02, 0xfd, 0xfe, 0x00, 0xff, 0x01, 0xfe, 0x03,
  0x01, 0x09, 0x00, 0xfb, 0xfc, 0xfe, 0x00, 0x00, 0xfd, 0xfe, 0xfd, 0xfe,
  0xff, 0xf8, 0x00, 0xfe, 0xff, 0x00, 0x00, 0x04, 0xff, 0x01, 0x00, 0xfb,
  0x04, 0x02, 0xfc, 0xfe, 0x01, 0x01, 0x01, 0x01, 0x02, 0x02, 0xff, 0x00,
  0x00, 0xfb, 0x03, 0xfc, 0x03, 0xff, 0xf6, 0x00, 0x03, 0xf9, 0xf8, 0x00,
  0x01, 0xff, 0xff, 0xff, 0x01, 0x05, 0x07, 0xff, 0x03, 0xfb, 0xfd, 0x00,
  0x03, 0x01, 0x00, 0x05, 0xfd, 0xff, 0x03, 0x03, 0x01, 0x03, 0xfe, 0xf9,
  0x00, 0x01, 0xff, 0x01, 0xff, 0x05, 0xfe, 0x00, 0xfe, 0xf9, 0x02, 0x04,
  0xfe, 0x04, 0x03, 0xff, 0x04, 0x03, 0x05, 0x00, 0x00, 0x00, 0x00, 0xff,
  0x01, 0x01, 0xff, 0xfe, 0x01, 0x00, 0xff, 0x01, 0xff, 0x02, 0xfc, 0x00,
  0x01, 0x01, 0xfe, 0x00, 0x00, 0xfd, 0x04, 0x01, 0xfd, 0x00, 0xfe, 0x01,
  0x00, 0xff, 0x02, 0x03, 0x01, 0x03, 0x01, 0x00, 0x02, 0xfc, 0xff, 0x05,
  0x00, 0x02, 0xfe, 0x00, 0xfe, 0x03, 0x01, 0x03, 0x02, 0xfe, 0xfd, 0x00,
  0x00, 0xfe, 0xff, 0xfe, 0x02, 0xff, 0x01, 0xfb, 0x01, 0x00, 0x00, 0x01,
  0x02, 0xfb, 0x01, 0x00, 0xff, 0xfe, 0xff, 0xfe, 0x00, 0xfe, 0xfd, 0xff,
  0x02, 0xfe, 0xf8, 0x02, 0x00, 0x00, 0x02, 0xff, 0x03, 0x01, 0x03, 0x02,
  0xff, 0x03, 0xfd, 0xfd, 0x01, 0x02, 0xfb, 0xfd, 0xff, 0xff, 0xfd, 0xff,
  0x01, 0xff, 0x03, 0x01, 0xfd, 0x02, 0x02, 0x03, 0x02, 0xff, 0xfd, 0xff,
  0x06, 0xf7, 0x01, 0x00, 0x01, 0x02, 0xfe, 0xff, 0x00, 0x01, 0x00, 0xff,
  0xff, 0xff, 0xfd, 0x03, 0x01, 0x03, 0xff, 0x02, 0x02, 0x00, 0x01, 0x02,
  0x01, 0x03, 0xfe, 0xfc, 0x01, 0x01, 0x00, 0xfd, 0xff, 0x02, 0x04, 0x04,
  0xfe, 0x00, 0x01, 0x01, 0xfd, 0xff, 0x01, 0xfe, 0x03, 0x01, 0x01, 0x02,
  0xff, 0x04, 0x01, 0xff, 0xfe, 0xff, 0x00, 0xfe, 0x01, 0xff, 0x04, 0x02,
  0xff, 0x01, 0x01, 0x01, 0xff, 0x03, 0xfd, 0x01, 0x01, 0xfc, 0x00, 0xff,
  0x04, 0x07, 0x02, 0xff, 0x00, 0xff, 0x03, 0x03, 0xfd, 0x04, 0x06, 0x01,
  0x02, 0xfe, 0x02, 0x03, 0xff, 0xff, 0xfd, 0x00, 0xfe, 0x02, 0x03, 0x00,
  0xfe, 0xfd, 0x00, 0x00, 0x0b, 0xfd, 0xfe, 0xfe, 0x01, 0xfe, 0x02, 0x00,
  0x01, 0x01, 0x00, 0xfd, 0x00, 0xfa, 0x01, 0xfd, 0xff, 0x01, 0xff, 0xf9,
  0xff, 0xfe, 0x00, 0x00, 0x05, 0x02, 0xff, 0x06, 0x02, 0x02, 0x02, 0x03,
  0xff, 0xff, 0x03, 0x01, 0xff, 0x01, 0xfe, 0x04, 0x00, 0x00, 0xfe, 0xff,
  0xff, 0xfd, 0xff, 0x00, 0x00, 0xfe, 0x02, 0xff, 0x01, 0xfe, 0x00, 0xfe,
  0xff, 0xfd, 0xfc, 0xfc, 0x00, 0xf6, 0xfd, 0x01, 0x00, 0xfc, 0xff, 0x01,
  0xff, 0x01, 0x00, 0xfe, 0xff, 0xfc, 0xf7, 0x00, 0x00, 0x02, 0xff, 0x00,
  0xff, 0x00, 0x01, 0x00, 0xfc, 0x02, 0x02, 0x02, 0x00, 0x00, 0x03, 0xff,
  0xff, 0x03, 0xfd, 0xf8, 0xfd, 0xfb, 0x02, 0x04, 0xff, 0x03, 0x02, 0xfe,
  0x00, 0xfc, 0xff, 0x03, 0xff, 0xfb, 0x03, 0xfd, 0x02, 0x00, 0x03, 0x01,
  0xfe, 0x02, 0xfc, 0xfe, 0x01, 0x01, 0xfc, 0xfd, 0x00, 0xff, 0x00, 0xff,
  0x02, 0xff, 0x02, 0xfe, 0xfe, 0xfb, 0x00, 0x03, 0x03, 0xfd, 0x00, 0xff,
  0x06, 0xfb, 0x02, 0x01, 0x01, 0x00, 0x01, 0xff, 0x00, 0x01, 0x03, 0xfe,
  0x00, 0xff, 0xff, 0x02, 0xff, 0x03, 0xfd, 0x02, 0x04, 0x01, 0x01, 0x00,
  0x00, 0x02, 0xfe, 0x00, 0x00, 0xff, 0x01, 0xfe, 0xfe, 0x00, 0x05, 0x00,
  0xfe, 0xfe, 0x03, 0xfe, 0xfd, 0x00, 0x04, 0xfe, 0x01, 0x00, 0x0c, 0x01,
  0xfe, 0x04, 0x01, 0x01, 0x01, 0x01, 0x02, 0xfe, 0x00, 0x02, 0xfd, 0x01,
  0xfc, 0x01, 0x03, 0xfd, 0x05, 0x02, 0xfd, 0xfd, 0xfb, 0xfd, 0x02, 0x01,
  0x00, 0x08, 0x02, 0xff, 0x02, 0x01, 0xfb, 0x00, 0x02, 0x03, 0xf7, 0x02,
  0xfe, 0xfd, 0xf6, 0x00, 0x00, 0x01, 0x02, 0xff, 0xff, 0x01, 0xfe, 0x00,
  0xfd, 0x01, 0xff, 0xfc, 0xe0, 0x01, 0xfa, 0xfe, 0x00, 0x01, 0xff, 0x07,
  0x01, 0x00, 0x00, 0xfe, 0xfc, 0xe3, 0x04, 0xff, 0x02, 0x04, 0x03, 0xfb,
  0x02, 0x01, 0x00, 0xfe, 0xfe, 0xff, 0x0a, 0xfe, 0xff, 0x0a, 0xfd, 0x02,
  0x00, 0x00, 0xfb, 0x00, 0x00, 0xff, 0xfc, 0x01, 0x02, 0xfc, 0xfc, 0x01,
  0x01, 0x00, 0x02, 0x00, 0x00, 0x00, 0x02, 0x00, 0xfe, 0xff, 0xfd, 0xff,
  0xfe, 0x00, 0x0f, 0x03, 0xfe, 0x05, 0xfa, 0xfd, 0xff, 0x00, 0xff, 0x04,
  0x00, 0x00, 0x02, 0x01, 0x01, 0x02, 0x04, 0x01, 0x00, 0xfd, 0x01, 0x00,
  0x06, 0xfb, 0xff, 0xfd, 0x01, 0xfe, 0xff, 0x00, 0x03, 0xfe, 0xff, 0x03,
  0x01, 0x00, 0x00, 0xff, 0x01, 0x03, 0xff, 0xff, 0xfe, 0x01, 0xff, 0x00,
  0x03, 0x01, 0xf8, 0x02, 0x02, 0xfe, 0x01, 0xff, 0x00, 0x00, 0x02, 0x00,
  0xfd, 0x00, 0x08, 0xfd, 0x02, 0x00, 0xf8, 0xfe, 0xf9, 0x02, 0xfe, 0x02,
  0x03, 0x00, 0x02, 0x00, 0x07, 0xfe, 0x09, 0xff, 0x02, 0xfb, 0x00, 0x00,
  0x00, 0xfe, 0x01, 0x02, 0x02, 0xfd, 0xfe, 0xfe, 0xfd, 0x00, 0x01, 0xfc,
  0xff, 0x08, 0xff, 0x01, 0xff, 0x02, 0xfc, 0x02, 0x05, 0x08, 0x03, 0x00,
  0xff, 0x01, 0x00, 0x02, 0xfe, 0x01, 0x00, 0xfe, 0x03, 0x08, 0xfc, 0x01,
  0xfd, 0x02, 0x02, 0x0b, 0xfd, 0x02, 0x04, 0xfe, 0x04, 0x02, 0xfe, 0x01,
  0x00, 0x04, 0xff, 0x00, 0x01, 0x01, 0xfe, 0x00, 0xff, 0xff, 0xff, 0x01,
  0xfe, 0x00, 0x08, 0x01, 0x01, 0x02, 0xff, 0x01, 0x00, 0xfd, 0x00, 0x01,
  0xff, 0x09, 0xfd, 0x00, 0xfe, 0xff, 0x06, 0x01, 0xfe, 0x05, 0x04, 0x00,
  0xff, 0xff, 0x01, 0x04, 0xff, 0x01, 0xfe, 0x01, 0xfe, 0x03, 0x03, 0x00,
  0xff, 0xff, 0xff, 0x00, 0x06, 0xfc, 0x01, 0xfe, 0x02, 0xfe, 0x01, 0xfb,
  0x01, 0x01, 0x00, 0xfe, 0x01, 0xfd, 0x02, 0xff, 0xff, 0x03, 0x00, 0xfd,
  0x00, 0xfe, 0x01, 0x00, 0x04, 0x02, 0xfb, 0x00, 0xff, 0x0a, 0x00, 0x01,
  0xff, 0xff, 0xff, 0xff, 0x00, 0xff, 0xfc, 0x01, 0xff, 0x02, 0x03, 0x02,
  0x01, 0x02, 0xff, 0x01, 0x01, 0xfd, 0x01, 0x00, 0xfe, 0x0b, 0xff, 0xff,
  0xfe, 0xff, 0x02, 0x03, 0xff, 0x00, 0x00, 0x01, 0x00, 0xfd, 0x02, 0x06,
  0xff, 0xff, 0xff, 0x02, 0xfe, 0x01, 0x03, 0x01, 0xff, 0xfc, 0xfe, 0x01,
  0x03, 0xfc, 0x01, 0xff, 0x02, 0xfe, 0x01, 0xfe, 0xff, 0x00, 0x01, 0xff,
  0x02, 0xfb, 0x01, 0x00, 0xff, 0x02, 0x00, 0x01, 0x00, 0xff, 0xfd, 0x00,
  0x04, 0x01, 0xfd, 0xfe, 0x01, 0xfe, 0x03, 0xfe, 0x01, 0x00, 0x05, 0xfd,
  0xfe, 0x02, 0x02, 0x01, 0xfe, 0x01, 0xff, 0x02, 0xfc, 0x01, 0xfe, 0x02,
  0x01, 0xff, 0x00, 0x00, 0x02, 0xfd, 0x03, 0x00, 0x00, 0xfe, 0x00, 0xfd,
  0xfe, 0xf5, 0xfb, 0xfe, 0x02, 0xfe, 0x00, 0x00, 0xff, 0xff, 0xfe, 0xfe,
  0xff, 0xfc, 0xfe, 0x01, 0x00, 0x02, 0xfd, 0xff, 0x01, 0x00, 0xff, 0x01,
  0xff, 0x02, 0x03, 0x03, 0xfe, 0x00, 0x01, 0xff, 0x01, 0x05, 0x00, 0xfa,
  0xfd, 0xfa, 0xfe, 0x03, 0x01, 0x00, 0xfe, 0xfe, 0xff, 0x00, 0xfd, 0xff,
  0xff, 0xfe, 0xfe, 0x03, 0xfe, 0x00, 0xfe, 0xff, 0x00, 0xfe, 0x01, 0x01,
  0x01, 0xfc, 0x03, 0x01, 0x03, 0xff, 0x03, 0x00, 0x02, 0x02, 0xfa, 0xff,
  0x01, 0xfc, 0xfd, 0x00, 0xfe, 0xfe, 0x09, 0xfc, 0x01, 0x07, 0x06, 0xff,
  0xff, 0x01, 0xff, 0xfb, 0xff, 0xff, 0x02, 0x01, 0x02, 0x02, 0x02, 0xfe,
  0xff, 0xfd, 0x00, 0x00, 0x01, 0x00, 0x01, 0xff, 0x00, 0xfe, 0x00, 0xfc,
  0x00, 0xfe, 0x00, 0x03, 0x01, 0xfc, 0xfa, 0xfe, 0xfe, 0xfe, 0xfe, 0x02,
  0xfe, 0x00, 0x05, 0x00, 0x00, 0xff, 0x00, 0x00, 0x00, 0xfa, 0xfd, 0xfe,
  0x00, 0x01, 0xfb, 0xff, 0x00, 0x00, 0xfd, 0x00, 0x02, 0xff, 0xfe, 0x02,
  0xfe, 0xff, 0x02, 0xfe, 0x00, 0x03, 0x04, 0xff, 0x01, 0xf6, 0xff, 0x01,
  0xfb, 0xff, 0x02, 0xfc, 0x00, 0x00, 0x02, 0xfd, 0xfd, 0x03, 0x04, 0xfa,
  0xfd, 0x02, 0xfe, 0xff, 0x02, 0xfd, 0xfe, 0x01, 0x01, 0x00, 0xfe, 0x01,
  0xfe, 0xff, 0xff, 0x03, 0x00, 0x00, 0xfe, 0x04, 0x01, 0xfe, 0x00, 0x02,
  0xfe, 0xfc, 0xfd, 0x04, 0x00, 0xfc, 0xfd, 0x01, 0xff, 0xfe, 0x08, 0x01,
  0x03, 0x00, 0xfc, 0xfd, 0x02, 0xf7, 0xfe, 0xfb, 0x01, 0xff, 0x00, 0xfe,
  0xff, 0x04, 0x05, 0x01, 0x01, 0xfe, 0xff, 0x00, 0xfe, 0xff, 0xfe, 0x01,
  0x00, 0xfe, 0x03, 0x00, 0x01, 0xff, 0xff, 0x02, 0x04, 0xfe, 0xfd, 0xf8,
  0x01, 0xe3, 0x09, 0xfe, 0x01, 0xfe, 0x03, 0xf5, 0xfe, 0x01, 0xfd, 0xfd,
  0xfc, 0x01, 0xeb, 0xff, 0x00, 0x07, 0xff, 0x01, 0x0c, 0x05, 0x02, 0xff,
  0xfd, 0x01, 0x01, 0x0a, 0xfd, 0xfd, 0x03, 0xfe, 0xfd, 0x02, 0xff, 0xe8,
  0x02, 0x01, 0xfe, 0x01, 0xff, 0xfe, 0x02, 0xff, 0xfe, 0x01, 0xfd, 0x02,
  0xff, 0xfd, 0x00, 0x00, 0xff, 0xff, 0x01, 0x00, 0xfe, 0x00, 0xfc, 0x02,
  0x03, 0x03, 0xff, 0xfd, 0xff, 0xff, 0xfd, 0x00, 0xfe, 0xff, 0x00, 0x00,
  0x00, 0x0a, 0xfd, 0x00, 0x01, 0x04, 0x00, 0x00, 0x00, 0x03, 0xfe, 0x02,
  0xfe, 0x00, 0xfc, 0xff, 0x04, 0x00, 0xfd, 0x01, 0xfe, 0xfe, 0xfd, 0xff,
  0xff, 0x01, 0x05, 0xfd, 0x03, 0xfe, 0xff, 0x03, 0xfe, 0x00, 0x01, 0x01,
  0xff, 0x02, 0x00, 0xfc, 0x01, 0x02, 0x03, 0xfd, 0xff, 0xfe, 0x03, 0x04,
  0x05, 0x01, 0xff, 0x02, 0x01, 0xfb, 0x09, 0x07, 0xff, 0x04, 0x00, 0x01,
  0x01, 0xff, 0x02, 0x02, 0xfe, 0x02, 0xfc, 0x00, 0xfc, 0x00, 0x09, 0xfb,
  0x02, 0xfe, 0xff, 0xff, 0x00, 0xfd, 0x04, 0xfe, 0xfe, 0xff, 0x02, 0x02,
  0x01, 0xff, 0x04, 0x00, 0x04, 0x07, 0xfd, 0x03, 0xfe, 0xfe, 0x13, 0xfd,
  0x01, 0x00, 0x05, 0xfd, 0xfc, 0x00, 0xfe, 0x01, 0x00, 0x01, 0x00, 0x00,
  0x00, 0x02, 0x00, 0xff, 0x02, 0x02, 0xfc, 0x02, 0x02, 0xff, 0xff, 0xff,
  0xfe, 0x02, 0x00, 0x02, 0x02, 0x01, 0x03, 0xff, 0xfe, 0x03, 0x04, 0x00,
  0x00, 0xff, 0x02, 0xfe, 0xff, 0xfa, 0x05, 0xfb, 0x0a, 0x02, 0x03, 0x00,
  0xff, 0x08, 0x02, 0xfd, 0xfe, 0xff, 0xfa, 0xfd, 0xfe, 0x03, 0x02, 0xff,
  0x04, 0xff, 0x07, 0x01, 0x04, 0xf9, 0xfd, 0x01, 0x07, 0xfd, 0x0c, 0x01,
  0x08, 0xfe, 0xfd, 0x02, 0x00, 0x00, 0xf8, 0xff, 0x03, 0x03, 0x08, 0x00,
  0x01, 0xfe, 0x05, 0x04, 0x04, 0x03, 0xfe, 0x03, 0xfb, 0x07, 0x00, 0xfe,
  0xff, 0x04, 0x01, 0x08, 0xfe, 0xfe, 0x00, 0x01, 0x00, 0x0c, 0xfd, 0xfb,
  0x06, 0x12, 0x01, 0xfe, 0xfe, 0x03, 0x00, 0x00, 0x01, 0x00, 0xf3, 0xf9,
  0x00, 0xfe, 0x05, 0x00, 0xfd, 0xfe, 0x05, 0xfc, 0xff, 0xff, 0x09, 0xfc,
  0x04, 0x00, 0xfd, 0x03, 0x00, 0xff, 0x00, 0x00, 0x01, 0x01, 0xfd, 0x01,
  0xfe, 0xfd, 0x05, 0xfe, 0xff, 0xff, 0xfe, 0x00, 0x03, 0xfc, 0x00, 0xfc,
  0x03, 0x01, 0x03, 0x05, 0xfd, 0xfa, 0xfb, 0xfe, 0x00, 0x00, 0x00, 0xfd,
  0x03, 0x00, 0x00, 0x01, 0x09, 0xff, 0x01, 0x00, 0xff, 0x04, 0x00, 0xff,
  0xff, 0xff, 0xff, 0xff, 0x03, 0x06, 0x00, 0x00, 0x00, 0xfb, 0xfd, 0x09,
  0xff, 0xfe, 0xf9, 0xff, 0xfd, 0xfe, 0xf8, 0x04, 0x02, 0x02, 0x00, 0x00,
  0xff, 0xff, 0x00, 0x03, 0xfd, 0x00, 0x02, 0x01, 0x01, 0xff, 0x02, 0xfd,
  0xff, 0xff, 0x02, 0xff, 0x01, 0x02, 0xfc, 0xfd, 0x02, 0xfc, 0x03, 0xff,
  0x02, 0xff, 0xff, 0xff, 0xff, 0x02, 0xfe, 0xff, 0xfc, 0x01, 0x06, 0xff,
  0x00, 0xfe, 0x06, 0xfd, 0x02, 0xfc, 0x00, 0xfe, 0xff, 0x01, 0x02, 0x01,
  0x01, 0xfe, 0x03, 0x01, 0xfd, 0x01, 0xff, 0x05, 0x00, 0x00, 0x00, 0x00,
  0xff, 0x01, 0xfe, 0xfc, 0x03, 0xfd, 0x01, 0x04, 0xfd, 0x05, 0x04, 0x00,
  0x00, 0xff, 0xf8, 0x03, 0xfe, 0xff, 0x00, 0x03, 0x03, 0x00, 0x02, 0x01,
  0xfd, 0x01, 0xfd, 0x00, 0x00, 0x02, 0xfd, 0xfd, 0x01, 0xff, 0xfe, 0xff,
  0xff, 0x01, 0x03, 0xff, 0xfe, 0x01, 0x04, 0x03, 0x02, 0xff, 0xfe, 0x00,
  0x03, 0xfa, 0x01, 0x02, 0xff, 0xff, 0x02, 0xfd, 0x01, 0x01, 0x03, 0xfe,
  0x00, 0x00, 0xfe, 0x02, 0xff, 0x00, 0x01, 0xff, 0xf9, 0x00, 0xff, 0x02,
  0x01, 0x01, 0xff, 0xfc, 0x01, 0x01, 0x00, 0xfe, 0xfe, 0xff, 0x02, 0x02,
  0x01, 0x01, 0x02, 0x06, 0xff, 0x00, 0x01, 0xff, 0xff, 0x02, 0xff, 0xfc,
  0x01, 0xfe, 0x03, 0xff, 0x01, 0x01, 0x03, 0xff, 0x01, 0x02, 0xf9, 0x06,
  0x01, 0x01, 0xff, 0x01, 0x00, 0x02, 0xfe, 0xfe, 0x00, 0x01, 0xfe, 0xfe,
  0xfd, 0xfe, 0x05, 0x03, 0x02, 0xfd, 0xf6, 0xfc, 0x03, 0xff, 0x00, 0xfe,
  0x01, 0x00, 0xff, 0xfe, 0x00, 0x00, 0xff, 0xff, 0xff, 0x45, 0xff, 0x00,
  0x00, 0x02, 0xfd, 0x00, 0xf9, 0xf8, 0x00, 0x00, 0x00, 0x01, 0x01, 0xfd,
  0x01, 0x00, 0x02, 0x02, 0xff, 0x04, 0xfe, 0xfd, 0x28, 0x01, 0x00, 0x02,
  0xff, 0x00, 0xfa, 0xfd, 0xfc, 0xfc, 0x04, 0xfd, 0x00, 0x01, 0x01, 0xfc,
  0x00, 0xff, 0x00, 0x01, 0x00, 0x01, 0xfd, 0x04, 0x00, 0xfd, 0x02, 0xfd,
  0xfe, 0xff, 0x01, 0x00, 0x00, 0x01, 0xfd, 0xff, 0xfe, 0x00, 0xfe, 0x00,
  0x01, 0xfe, 0xfe, 0xff, 0x00, 0x05, 0x0a, 0xff, 0xfe, 0x03, 0x06, 0xff,
  0x00, 0x00, 0x00, 0x00, 0x00, 0x06, 0xfe, 0x00, 0xfe, 0x03, 0x00, 0x00,
  0x05, 0xff, 0x01, 0xfe, 0xfe, 0x01, 0x01, 0x00, 0x02, 0xfe, 0x00, 0x02,
  0xfe, 0x02, 0xfe, 0xfe, 0x05, 0x14, 0xff, 0xfa, 0xff, 0x01, 0x02, 0xff,
  0x00, 0x00, 0xfe, 0xf9, 0x01, 0x03, 0x02, 0x01, 0x04, 0x02, 0x02, 0x02,
  0xff, 0x03, 0xff, 0x02, 0x01, 0x00, 0x02, 0x01, 0x02, 0xfe, 0xff, 0x00,
  0x00, 0xff, 0x07, 0x01, 0x01, 0xfe, 0x04, 0x03, 0xff, 0xfe, 0xfb, 0xff,
  0x02, 0xf0, 0xfe, 0x00, 0x02, 0x01, 0x00, 0x05, 0xff, 0x04, 0xff, 0xff,
  0xff, 0xfb, 0xf8, 0x05, 0xfe, 0x01, 0xff, 0x01, 0xfc, 0x08, 0xff, 0x01,
  0xfd, 0x03, 0x00, 0x01, 0xff, 0xff, 0xff, 0xfe, 0x01, 0xff, 0xfe, 0xfe,
  0x00, 0x02, 0x00, 0xff, 0xfe, 0x01, 0x03, 0xfd, 0x02, 0xfe, 0x02, 0xfd,
  0xfe, 0x09, 0x01, 0xfe, 0x08, 0x04, 0x03, 0xfe, 0x02, 0x02, 0x04, 0xfc,
  0x04, 0xfd, 0x00, 0xff, 0x04, 0x01, 0x01, 0xff, 0x01, 0x01, 0x08, 0x01,
  0x02, 0xff, 0xff, 0x02, 0x02, 0x00, 0x11, 0x03, 0x0a, 0xf9, 0xff, 0x00,
  0xff, 0x02, 0xfd, 0x00, 0xff, 0x04, 0x04, 0x00, 0x02, 0xfb, 0xfe, 0x04,
  0x00, 0x01, 0xff, 0x02, 0x03, 0x00, 0x01, 0x00, 0x03, 0x03, 0xfe, 0xfc,
  0x00, 0xfe, 0xfe, 0x01, 0x00, 0x03, 0xff, 0x04, 0xfe, 0xfa, 0x00, 0x03,
  0xfd, 0xff, 0x02, 0x02, 0x00, 0x00, 0xff, 0x00, 0x02, 0x06, 0x05, 0x09,
  0xfe, 0xfd, 0x04, 0x02, 0xfc, 0xff, 0xfe, 0xff, 0x03, 0x04, 0x02, 0x00,
  0xff, 0xff, 0xff, 0xfe, 0xff, 0x00, 0x00, 0xff, 0xfe, 0xfe, 0x13, 0xff,
  0x02, 0xff, 0xfe, 0xfe, 0xfe, 0xfa, 0xfa, 0x02, 0x03, 0xff, 0x0b, 0xff,
  0x00, 0xff, 0xfd, 0xfd, 0xff, 0x20, 0xfd, 0xff, 0xfd, 0x04, 0x01, 0xfe,
  0x00, 0x02, 0xfd, 0x02, 0xfe, 0x03, 0x03, 0xfd, 0xff, 0x04, 0x02, 0xfd,
  0x00, 0xfd, 0xfb, 0xfd, 0xfd, 0xf3, 0x02, 0x03, 0x02, 0x00, 0xfa, 0xfe,
  0xfe, 0x00, 0x00, 0xff, 0x00, 0xfd, 0xfe, 0x01, 0x00, 0xff, 0x00, 0x00,
  0x01, 0x03, 0xfe, 0xfc, 0x01, 0xff, 0x00, 0xff, 0xff, 0x00, 0x02, 0x00,
  0x01, 0x04, 0xfe, 0xff, 0x05, 0xf4, 0x01, 0x01, 0x03, 0x00, 0xf5, 0xff,
  0x02, 0xfc, 0xf8, 0xfe, 0x00, 0x00, 0x01, 0xfd, 0xff, 0xff, 0x03, 0xff,
  0x02, 0x00, 0xfd, 0x03, 0x03, 0x02, 0xff, 0x02, 0xf8, 0x02, 0x02, 0x03,
  0x00, 0x02, 0x00, 0xff, 0x01, 0x00, 0x01, 0x02, 0xff, 0x01, 0xfc, 0x00,
  0x01, 0xf8, 0x00, 0x0a, 0xfe, 0xff, 0x02, 0xff, 0xfe, 0x00, 0x05, 0xff,
  0xff, 0x02, 0x00, 0x01, 0x01, 0xfe, 0x01, 0x03, 0xff, 0x02, 0xfb, 0xfc,
  0x02, 0xff, 0xfe, 0xfd, 0xff, 0x00, 0x01, 0xff, 0x00, 0x00, 0x04, 0xfe,
  0x00, 0xf8, 0x00, 0x02, 0xff, 0x00, 0x01, 0xff, 0x03, 0xfd, 0xfa, 0x02,
  0xff, 0x03, 0x09, 0x01, 0x01, 0xfe, 0xff, 0xff, 0xfe, 0xff, 0xff, 0x02,
  0x01, 0x02, 0xff, 0x01, 0xfb, 0x0b, 0x01, 0x02, 0x01, 0x01, 0xfe, 0x05,
  0x01, 0x00, 0xff, 0x00, 0xff, 0x02, 0xfe, 0x04, 0xff, 0xff, 0x04, 0xfa,
  0x00, 0x05, 0x00, 0xff, 0xff, 0xfc, 0xff, 0x04, 0xff, 0x02, 0xff, 0x00,
  0x00, 0xff, 0x00, 0x01, 0xff, 0x00, 0x03, 0xfc, 0xff, 0xff, 0x00, 0xff,
  0xff, 0xfe, 0x01, 0x00, 0x01, 0x03, 0x03, 0xfe, 0x03, 0xf8, 0x03, 0xff,
  0x00, 0xff, 0xff, 0x00, 0xfe, 0xfc, 0x00, 0x00, 0x01, 0x02, 0x07, 0x00,
  0xfe, 0x01, 0x04, 0xfd, 0x03, 0xfb, 0xfe, 0x00, 0x01, 0x02, 0x00, 0x03,
  0x05, 0x03, 0x03, 0x00, 0x01, 0x00, 0xfe, 0x02, 0x02, 0xfe, 0xff, 0x01,
  0xfe, 0x05, 0xfc, 0x01, 0xfe, 0xfc, 0x00, 0x04, 0xfe, 0x01, 0x05, 0x00,
  0xff, 0x00, 0x09, 0xff, 0xff, 0xf3, 0xfd, 0xff, 0x01, 0xfe, 0xff, 0x01,
  0xfe, 0x01, 0xf3, 0x03, 0xfe, 0x01, 0xfe, 0xfd, 0x00, 0x05, 0xfe, 0xfe,
  0xfe, 0xff, 0x00, 0x00, 0xf8, 0xff, 0xfe, 0x02, 0x00, 0x01, 0x0a, 0x00,
  0x02, 0x01, 0xf7, 0x04, 0x00, 0xfb, 0xee, 0x03, 0x03, 0xff, 0xfe, 0xff,
  0x00, 0xff, 0xfd, 0x02, 0x02, 0x00, 0xff, 0xfd, 0xf4, 0xfd, 0xff, 0xff,
  0x00, 0xff, 0x01, 0xfd, 0x03, 0x01, 0x00, 0xfe, 0xff, 0xfd, 0x02, 0xfd,
  0xfd, 0x05, 0x02, 0xf4, 0x01, 0x01, 0x03, 0xfe, 0xfb, 0xfe, 0x02, 0xfd,
  0xff, 0x01, 0x00, 0x03, 0x01, 0xff, 0x00, 0x02, 0x00, 0x04, 0xfc, 0x04,
  0xff, 0xfd, 0xfe, 0xff, 0x02, 0x00, 0x01, 0x00, 0x02, 0x00, 0x06, 0xff,
  0xfd, 0xfe, 0xfe, 0x03, 0x00, 0xfd, 0x30, 0x04, 0x00, 0xff, 0x00, 0x00,
  0x00, 0x02, 0xfa, 0x01, 0x01, 0x01, 0x00, 0x00, 0x00, 0x02, 0x03, 0x04,
  0x02, 0x01, 0xfe, 0x05, 0x01, 0x04, 0x04, 0xfe, 0x04, 0x02, 0x00, 0x0d,
  0x03, 0xfd, 0xff, 0x02, 0xff, 0x02, 0xff, 0xfc, 0xff, 0x01, 0x00, 0x04,
  0xfe, 0x02, 0x02, 0x01, 0x01, 0xfe, 0x02, 0x00, 0xff, 0xfd, 0xfd, 0xfd,
  0x02, 0x02, 0xfd, 0xfe, 0x02, 0x01, 0x02, 0xfd, 0x02, 0xfe, 0x00, 0xff,
  0x03, 0x02, 0x04, 0x01, 0x00, 0xff, 0x01, 0x01, 0x02, 0xfb, 0xfa, 0x01,
  0xfe, 0x00, 0x01, 0xff, 0x02, 0x01, 0xfb, 0x01, 0xff, 0xfe, 0xed, 0x01,
  0x02, 0x01, 0x06, 0x01, 0x01, 0xfa, 0x02, 0x00, 0x02, 0xfe, 0xfe, 0x01,
  0x08, 0x00, 0x00, 0xfe, 0x01, 0xff, 0xfd, 0x03, 0xff, 0xfd, 0xfe, 0x01,
  0x00, 0x01, 0x01, 0x02, 0xfe, 0x08, 0x01, 0xfc, 0xfe, 0x02, 0x02, 0x01,
  0xfd, 0xff, 0xfd, 0x02, 0xfe, 0xfe, 0xfe, 0xfe, 0x02, 0x02, 0xfd, 0xfe,
  0x02, 0x00, 0xfd, 0xfc, 0x01, 0xfe, 0x01, 0xff, 0xfe, 0x00, 0x03, 0xff,
  0xfe, 0x03, 0xff, 0x00, 0xfe, 0x02, 0x02, 0x02, 0xfe, 0x00, 0x0e, 0x06,
  0x00, 0x0b, 0x05, 0xff, 0xff, 0x04, 0x04, 0x04, 0x01, 0x02, 0x03, 0x01,
  0x04, 0x00, 0x05, 0x00, 0xfe, 0xfe, 0xff, 0xfe, 0xff, 0xf8, 0xff, 0x00,
  0x04, 0xff, 0xfe, 0xff, 0xfe, 0xff, 0xfd, 0x02, 0x00, 0xff, 0xfc, 0x0a,
  0x02, 0x00, 0x00, 0xfe, 0x00, 0xfd, 0xfe, 0x01, 0xfd, 0x00, 0x03, 0x00,
  0x00, 0xff, 0x00, 0x00, 0x02, 0x01, 0x01, 0x02, 0xff, 0x01, 0xf5, 0xfb,
  0x00, 0x00, 0xfd, 0xfe, 0x01, 0xff, 0x01, 0x01, 0x01, 0xfe, 0xfe, 0x00,
  0xf8, 0xf8, 0x00, 0x02, 0x01, 0x00, 0x11, 0xff, 0x02, 0xf9, 0xfe, 0x02,
  0x01, 0x03, 0x0a, 0xff, 0x01, 0xff, 0xfc, 0x01, 0xfe, 0x02, 0x01, 0x03,
  0x04, 0x03, 0xff, 0x02, 0x03, 0x0f, 0x04, 0x03, 0x01, 0x02, 0xff, 0x05,
  0x00, 0xff, 0x00, 0xff, 0x02, 0x04, 0xff, 0x02, 0xfa, 0x08, 0x03, 0xf9,
  0xff, 0x02, 0xfe, 0xff, 0xfc, 0xfe, 0x03, 0xff, 0x00, 0xfe, 0x00, 0xff,
  0x00, 0x00, 0xfd, 0x01, 0x02, 0xff, 0x02, 0x01, 0x02, 0xfe, 0x00, 0x00,
  0x01, 0xfe, 0x01, 0x00, 0x01, 0x01, 0xff, 0x00, 0xfe, 0xfd, 0x01, 0xfe,
  0xff, 0x00, 0xfa, 0xff, 0xff, 0x03, 0x05, 0x02, 0xff, 0x04, 0x01, 0xfc,
  0xff, 0x00, 0x02, 0x00, 0x02, 0x01, 0x03, 0xff, 0x02, 0x00, 0x01, 0x01,
  0x03, 0xfc, 0x00, 0x00, 0xfe, 0xff, 0xff, 0xf8, 0x02, 0x00, 0x00, 0x02,
  0xff, 0x00, 0xff, 0x04, 0x02, 0x00, 0x01, 0xfc, 0xfe, 0x00, 0x02, 0x02,
  0x03, 0x02, 0x00, 0x01, 0x02, 0xff, 0x00, 0xff, 0xfe, 0x01, 0x01, 0x02,
  0xff, 0xfe, 0x01, 0x04, 0x01, 0x02, 0xf8, 0xff, 0xfd, 0xfd, 0xff, 0x02,
  0x01, 0xff, 0x04, 0x03, 0x02, 0x03, 0xfe, 0xfd, 0x01, 0xfe, 0x00, 0xfc,
  0xfe, 0xf7, 0xfd, 0x00, 0x02, 0xfd, 0x06, 0xff, 0xfe, 0x01, 0xff, 0xff,
  0xff, 0xff, 0xfc, 0x01, 0xff, 0x01, 0x00, 0x00, 0xfa, 0x04, 0x00, 0xff,
  0xfe, 0x01, 0x02, 0x04, 0xfd, 0xff, 0x02, 0x00, 0x02, 0x00, 0x01, 0xfe,
  0xfd, 0xfd, 0x02, 0xff, 0xff, 0x02, 0x03, 0x00, 0xfb, 0xff, 0x07, 0x0a,
  0x00, 0xf1, 0x00, 0xfc, 0x02, 0x00, 0x01, 0x01, 0xff, 0x03, 0x01, 0x03,
  0xfe, 0x02, 0xfb, 0xfe, 0x02, 0x02, 0x01, 0x00, 0xff, 0xfe, 0x02, 0xfe,
  0x02, 0x01, 0x02, 0x03, 0x00, 0xff, 0xf2, 0xf8, 0xfb, 0xf3, 0xff, 0x01,
  0x00, 0x01, 0x05, 0xfc, 0xfe, 0x02, 0xfe, 0xfa, 0xff, 0x01, 0xdf, 0x01,
  0x01, 0x00, 0xfc, 0xff, 0xfd, 0x03, 0x03, 0x02, 0xf5, 0x00, 0x01, 0x06,
  0xfd, 0xff, 0x03, 0xfe, 0xfd, 0x03, 0xff, 0xe4, 0x01, 0x00, 0x01, 0x03,
  0xfe, 0x01, 0x01, 0xfb, 0x05, 0xfc, 0x06, 0x04, 0x00, 0xfa, 0xfd, 0xfe,
  0x01, 0x01, 0xfd, 0x02, 0xff, 0xff, 0xff, 0x04, 0xfd, 0xfd, 0x07, 0xff,
  0xff, 0x00, 0x05, 0x01, 0x03, 0xff, 0xfd, 0x00, 0xfc, 0xf7, 0x01, 0xff,
  0x00, 0xfe, 0x00, 0xfe, 0x02, 0x03, 0x01, 0xfe, 0xfb, 0x00, 0x02, 0xfc,
  0x00, 0xff, 0x08, 0xfe, 0x00, 0xfc, 0xfe, 0xff, 0x02, 0x00, 0xfe, 0x04,
  0x10, 0x01, 0x00, 0x00, 0xfe, 0xfe, 0xff, 0x01, 0x04, 0xfe, 0x00, 0x01,
  0x01, 0xff, 0xfd, 0x03, 0xfe, 0x02, 0x00, 0x03, 0xfd, 0xff, 0x02, 0xff,
  0xff, 0xff, 0xf9, 0x02, 0x02, 0x01, 0x00, 0xfe, 0x01, 0x00, 0x01, 0x00,
  0x01, 0x00, 0xff, 0xfd, 0xff, 0x00, 0xff, 0x00, 0x00, 0x01, 0x02, 0xff,
  0x01, 0x00, 0x02, 0x01, 0x00, 0xfc, 0x03, 0x01, 0xff, 0xfe, 0xf8, 0xfd,
  0x03, 0xfc, 0xfd, 0x00, 0x02, 0x02, 0x02, 0xfc, 0xff, 0x02, 0x02, 0xfe,
  0xff, 0xfe, 0xfa, 0x01, 0xff, 0x01, 0xff, 0x01, 0xfc, 0x00, 0x03, 0x03,
  0xfe, 0x02, 0x01, 0x02, 0xfc, 0x00, 0x02, 0x01, 0xff, 0x01, 0xfd, 0xfd,
  0xff, 0xfc, 0xff, 0x06, 0xfd, 0x00, 0x02, 0xfe, 0xfc, 0xfd, 0x0a, 0x02,
  0xfd, 0xfb, 0xfb, 0xfb, 0x02, 0x00, 0xfe, 0x03, 0x01, 0x05, 0x00, 0x00,
  0x02, 0x00, 0xfc, 0xfb, 0x07, 0xff, 0x03, 0xfe, 0x00, 0x01, 0x01, 0xfe,
  0x00, 0xfd, 0xfd, 0x02, 0x02, 0xff, 0x00, 0x06, 0xff, 0x02, 0xfe, 0x05,
  0xfe, 0x06, 0xf7, 0x02, 0x04, 0x01, 0xfd, 0xff, 0x02, 0xff, 0x0e, 0x02,
  0x03, 0x04, 0xff, 0x01, 0x00, 0x01, 0x01, 0x01, 0x08, 0x03, 0xfd, 0xfe,
  0xff, 0x01, 0xfc, 0xff, 0xfe, 0x02, 0xfa, 0x26, 0xfe, 0x04, 0x04, 0xf9,
  0xff, 0x01, 0x04, 0x01, 0xfd, 0xff, 0xff, 0x02, 0xff, 0xff, 0xff, 0x02,
  0x00, 0xff, 0x03, 0x00, 0xfd, 0xff, 0xfc, 0x02, 0x03, 0x04, 0xff, 0xfc,
  0xff, 0x01, 0xff, 0x00, 0x00, 0xfe, 0xff, 0xff, 0xff, 0x02, 0xfe, 0xff,
  0x01, 0x02, 0xfd, 0xfe, 0x00, 0xff, 0xfd, 0x03, 0xff, 0x01, 0xf7, 0xfd,
  0x03, 0xfe, 0x00, 0xff, 0xff, 0xfc, 0x00, 0xff, 0xfe, 0x03, 0x02, 0xfe,
  0x00, 0xff, 0xff, 0x02, 0xfd, 0x01, 0x00, 0x04, 0x00, 0x03, 0x01, 0xfd,
  0xfe, 0x00, 0x00, 0xfe, 0xfe, 0xfe, 0x03, 0x01, 0x03, 0x02, 0x00, 0x00,
  0xfc, 0x05, 0x04, 0xf8, 0x01, 0xfe, 0x02, 0x00, 0xfe, 0xff, 0x00, 0xfe,
  0x02, 0x02, 0x02, 0x04, 0x03, 0x01, 0xfa, 0x03, 0xfd, 0x00, 0xfe, 0x02,
  0xfe, 0x02, 0xff, 0x02, 0x03, 0x0b, 0x06, 0x00, 0x00, 0x00, 0xfb, 0x01,
  0xfd, 0x03, 0x09, 0xfe, 0x01, 0xfe, 0xff, 0xff, 0x00, 0xfd, 0xfe, 0xfe,
  0x01, 0xf7, 0xfc, 0xfe, 0xfe, 0x01, 0x02, 0xfe, 0x04, 0x08, 0xfb, 0x01,
  0xfe, 0x01, 0x02, 0x08, 0x00, 0x01, 0x01, 0x03, 0x01, 0x00, 0x00, 0xfd,
  0x7b, 0x04, 0xfe, 0xfd, 0x02, 0xfc, 0xff, 0xff, 0x01, 0xfe, 0xfc, 0x04,
  0xff, 0x03, 0xfe, 0x01, 0x02, 0xfe, 0x00, 0x00, 0xfe, 0xff, 0x09, 0xfe,
  0xfe, 0xff, 0x07, 0xfb, 0x00, 0x00, 0xff, 0x00, 0x01, 0xff, 0x02, 0x00,
  0xff, 0x00, 0x00, 0x01, 0x00, 0x00, 0x07, 0x00, 0x02, 0xfb, 0xff, 0x04,
  0xff, 0xfe, 0xfb, 0x00, 0x02, 0xff, 0x01, 0x00, 0x01, 0x01, 0xfe, 0x00,
  0x01, 0xfd, 0x01, 0x01, 0xfb, 0x05, 0x02, 0xff, 0x00, 0x00, 0x00, 0xfd,
  0xfb, 0xff, 0xff, 0xfe, 0x01, 0x06, 0x00, 0x00, 0xff, 0x00, 0x02, 0x06,
  0xff, 0x02, 0x02, 0xff, 0x00, 0x02, 0x05, 0x01, 0x00, 0xfb, 0xff, 0x00,
  0x00, 0x00, 0xff, 0xfe, 0x00, 0x00, 0xff, 0x04, 0xfe, 0x01, 0xff, 0x01,
  0x00, 0x02, 0xff, 0xfe, 0xfd, 0x00, 0xfc, 0xff, 0xfe, 0x02, 0xff, 0xff,
  0x00, 0x01, 0xee, 0x03, 0xfc, 0x04, 0xf8, 0xfe, 0xff, 0xfc, 0x02, 0x04,
  0x00, 0xfe, 0x02, 0xff, 0x00, 0x03, 0x02, 0xff, 0x00, 0x00, 0xff, 0xfc,
  0xf4, 0xf4, 0xfc, 0xff, 0xff, 0xfe, 0x00, 0xfb, 0x00, 0x02, 0x00, 0x00,
  0xfe, 0xfd, 0xff, 0x00, 0x04, 0x06, 0xff, 0xfe, 0x00, 0x01, 0xfe, 0xff,
  0xff, 0xfd, 0x09, 0x01, 0xfd, 0x08, 0x02, 0x00, 0x04, 0x03, 0x00, 0xff,
  0x02, 0x03, 0xfd, 0xff, 0x02, 0x02, 0xfe, 0xfc, 0x04, 0x01, 0x02, 0xfe,
  0xff, 0x01, 0x01, 0x00, 0xff, 0x00, 0x00, 0x00, 0x04, 0xff, 0xeb, 0x02,
  0x05, 0x02, 0x01, 0x01, 0xff, 0xff, 0xfa, 0xff, 0x00, 0x01, 0x03, 0xff,
  0x02, 0x02, 0xfb, 0x01, 0xff, 0x02, 0x00, 0x00, 0xfd, 0xf9, 0xff, 0x01,
  0x02, 0x01, 0xfd, 0xf7, 0x00, 0x00, 0xfd, 0x03, 0xff, 0x03, 0xff, 0x05,
  0x01, 0xff, 0x01, 0xff, 0xfe, 0x00, 0x04, 0x01, 0xee, 0xe2, 0xff, 0xff,
  0x04, 0x00, 0x00, 0x00, 0x40, 0x01, 0x00, 0x00, 0x78, 0x0c, 0x00, 0x00,
  0xc8, 0x0c, 0x00, 0x00, 0x40, 0x0c, 0x00, 0x00, 0xbf, 0x0c, 0x00, 0x00,
  0x29, 0x0d, 0x00, 0x00, 0xff, 0x0b, 0x00, 0x00, 0x3a, 0x0c, 0x00, 0x00,
  0xa5, 0x0e, 0x00, 0x00, 0x5d, 0x0c, 0x00, 0x00, 0xc5, 0x0d, 0x00, 0x00,
  0xba, 0x0c, 0x00, 0x00, 0x9b, 0x0c, 0x00, 0x00, 0xb5, 0x0c, 0x00, 0x00,
  0x16, 0x0c, 0x00, 0x00, 0x1a, 0x0d, 0x00, 0x00, 0x59, 0x0e, 0x00, 0x00,
  0xd0, 0x0d, 0x00, 0x00, 0x05, 0x0d, 0x00, 0x00, 0x57, 0x0d, 0x00, 0x00,
  0x17, 0x0d, 0x00, 0x00, 0xc4, 0x0c, 0x00, 0x00, 0x56, 0x0d, 0x00, 0x00,
  0x78, 0x0c, 0x00, 0x00, 0xc2, 0x0c, 0x00, 0x00, 0x5e, 0x0e, 0x00, 0x00,
  0xc3, 0x0c, 0x00, 0x00, 0x82, 0x0d, 0x00, 0x00, 0xe4, 0x0c, 0x00, 0x00,
  0x14, 0x0c, 0x00, 0x00, 0x90, 0x0c, 0x00, 0x00, 0x72, 0x0c, 0x00, 0x00,
  0x44, 0x0d, 0x00, 0x00, 0x78, 0x0d, 0x00, 0x00, 0xf6, 0x0b, 0x00, 0x00,
  0x00, 0x0c, 0x00, 0x00, 0x4b, 0x0d, 0x00, 0x00, 0x3a, 0x0d, 0x00, 0x00,
  0x26, 0x0d, 0x00, 0x00, 0xdd, 0x0c, 0x00, 0x00, 0x9d, 0x0c, 0x00, 0x00,
  0x44, 0x0c, 0x00, 0x00, 0xe4, 0x0c, 0x00, 0x00, 0x69, 0x0c, 0x00, 0x00,
  0x83, 0x0c, 0x00, 0x00, 0x4f, 0x0d, 0x00, 0x00, 0x26, 0x0d, 0x00, 0x00,
  0xea, 0x0c, 0x00, 0x00, 0x8f, 0x0c, 0x00, 0x00, 0xa0, 0x0c, 0x00, 0x00,
  0x23, 0x0c, 0x00, 0x00, 0x0c, 0x0e, 0x00, 0x00, 0x2c, 0x0c, 0x00, 0x00,
  0x1b, 0x0c, 0x00, 0x00, 0xa7, 0x0c, 0x00, 0x00, 0xd3, 0x0c, 0x00, 0x00,
  0x04, 0x0d, 0x00, 0x00, 0x92, 0x0c, 0x00, 0x00, 0x28, 0x0c, 0x00, 0x00,
  0xc9, 0x0c, 0x00, 0x00, 0xad, 0x0c, 0x00, 0x00, 0xd8, 0x0d, 0x00, 0x00,
  0xa7, 0x0c, 0x00, 0x00, 0x1c, 0x0d, 0x00, 0x00, 0x82, 0x0c, 0x00, 0x00,
  0xd1, 0x0c, 0x00, 0x00, 0xb1, 0x0c, 0x00, 0x00, 0x90, 0x0c, 0x00, 0x00,
  0x3d, 0x0d, 0x00, 0x00, 0xab, 0x0d, 0x00, 0x00, 0x66, 0x0d, 0x00, 0x00,
  0xe3, 0x0c, 0x00, 0x00, 0x04, 0x0c, 0x00, 0x00, 0x6c, 0x0c, 0x00, 0x00,
  0xc9, 0x0c, 0x00, 0x00, 0xcd, 0x0c, 0x00, 0x00, 0x81, 0x0d, 0x00, 0x00,
  0x6a, 0x0d, 0x00, 0x00, 0xfe, 0x0c, 0x00, 0x00, 0xa7, 0x0c, 0x00, 0x00,
  0xc0, 0x0b, 0x00, 0x00, 0x3a, 0xe4, 0xff, 0xff, 0x04, 0x00, 0x00, 0x00,
  0xc0, 0x12, 0x00, 0x00, 0x00, 0xf7, 0x06, 0xf8, 0xfa, 0xfa, 0x05, 0xff,
  0x02, 0xfe, 0xfe, 0xfb, 0x00, 0x10, 0xff, 0xff, 0x05, 0xff, 0xfe, 0xfa,
  0xe3, 0x04, 0x03, 0xfc, 0x01, 0xee, 0x00, 0x01, 0xfe, 0xf8, 0xff, 0xfc,
  0xfb, 0x04, 0xf8, 0x03, 0xfe, 0x03, 0x05, 0x08, 0x01, 0x03, 0xfb, 0x01,
  0x00, 0x04, 0xfe, 0xf7, 0xf9, 0x06, 0xff, 0x01, 0x06, 0xee, 0x01, 0x07,
  0xff, 0x04, 0xff, 0x01, 0xf7, 0xfc, 0xfe, 0x00, 0x01, 0x03, 0x05, 0xfc,
  0xff, 0xf4, 0x08, 0x08, 0xf3, 0x01, 0xfe, 0x03, 0xfe, 0x04, 0x04, 0xfd,
  0x00, 0xfa, 0x04, 0xfb, 0xf3, 0xfd, 0x01, 0xfa, 0xfd, 0xfd, 0x02, 0x00,
  0xff, 0xf2, 0x00, 0x00, 0xfe, 0xfd, 0x00, 0xfd, 0xed, 0x04, 0x03, 0xff,
  0xfd, 0xfb, 0x03, 0x07, 0xfd, 0xf9, 0xfd, 0x04, 0xf6, 0x03, 0x04, 0x03,
  0xfc, 0x00, 0xfe, 0x00, 0x02, 0x03, 0xfc, 0x00, 0x00, 0xff, 0xfd, 0xfc,
  0x01, 0xf9, 0x03, 0xf8, 0x02, 0xff, 0x05, 0x00, 0x04, 0x02, 0xfa, 0xfd,
  0xfd, 0xfe, 0xfd, 0xfe, 0xfd, 0xff, 0x01, 0x04, 0xfb, 0x03, 0x04, 0x06,
  0xff, 0x00, 0x03, 0x01, 0x00, 0xff, 0x01, 0x01, 0x01, 0x01, 0x07, 0x09,
  0x08, 0x01, 0x01, 0xfd, 0x04, 0x00, 0x05, 0x0a, 0x06, 0xf3, 0x00, 0xfd,
  0xf7, 0x02, 0x02, 0xfd, 0xf9, 0x06, 0x03, 0xfa, 0xfa, 0x05, 0xfc, 0xf7,
  0x07, 0xfb, 0x04, 0xfe, 0x0d, 0xfe, 0x0a, 0x02, 0xfd, 0x04, 0xff, 0x07,
  0x03, 0xed, 0xfe, 0x08, 0xfd, 0xfa, 0x04, 0x04, 0x0b, 0xef, 0xff, 0xfd,
  0x00, 0x09, 0xff, 0xfe, 0x05, 0x02, 0x02, 0x04, 0x00, 0x05, 0xfd, 0x02,
  0xf8, 0xfb, 0x00, 0xfe, 0xfb, 0xfb, 0x08, 0xf7, 0x04, 0x08, 0xfd, 0x03,
  0x02, 0xfb, 0x03, 0x00, 0xfd, 0xfc, 0x04, 0x06, 0x0e, 0xfe, 0x00, 0x03,
  0x05, 0x02, 0x0b, 0xfe, 0x03, 0x02, 0xff, 0xfe, 0xf4, 0x03, 0x05, 0xfd,
  0x11, 0xfc, 0x02, 0x00, 0xfd, 0xff, 0xfa, 0x02, 0xfd, 0xfd, 0x02, 0xf9,
  0xf7, 0x01, 0x02, 0x01, 0xfc, 0x04, 0xff, 0x01, 0x07, 0xf3, 0x02, 0x02,
  0xfd, 0xfe, 0xfc, 0xff, 0xfb, 0x0f, 0x00, 0x02, 0xfd, 0x03, 0x03, 0xfe,
  0x01, 0x01, 0x01, 0x02, 0x07, 0xff, 0xff, 0x00, 0xf9, 0xfb, 0x03, 0xfb,
  0x02, 0xfc, 0xff, 0x10, 0x01, 0x02, 0xf9, 0xff, 0xfe, 0xf8, 0xf9, 0x03,
  0xfd, 0x03, 0x08, 0xff, 0xfd, 0x01, 0xff, 0xf9, 0xff, 0xf8, 0x17, 0xfb,
  0x03, 0x02, 0xff, 0xff, 0x05, 0x01, 0x02, 0x03, 0x0b, 0xf8, 0x02, 0x05,
  0x05, 0x08, 0x01, 0x03, 0xfe, 0x03, 0xfe, 0x02, 0xc9, 0x00, 0x02, 0x06,
  0xf7, 0xfb, 0xf7, 0xfa, 0xfe, 0xfe, 0x02, 0xfe, 0xfd, 0xf8, 0xfe, 0x07,
  0xfd, 0xf6, 0xfb, 0x04, 0xfe, 0xf9, 0x04, 0x00, 0x00, 0x03, 0xfe, 0x01,
  0xfe, 0x05, 0x02, 0x00, 0x02, 0x03, 0xfe, 0x05, 0x01, 0x08, 0xfb, 0xee,
  0x00, 0x03, 0xfb, 0xfa, 0xff, 0x03, 0x01, 0xfe, 0x01, 0xfe, 0xfd, 0x1d,
  0x00, 0x00, 0xfe, 0xfc, 0xf8, 0x05, 0x00, 0x08, 0xf9, 0xe7, 0x05, 0x02,
  0x03, 0xfa, 0x0a, 0x14, 0x21, 0xf9, 0x16, 0x11, 0xfd, 0x05, 0x00, 0x0c,
  0xff, 0xf9, 0xf6, 0x0e, 0xf8, 0x05, 0x09, 0x12, 0xfa, 0xf5, 0xf7, 0x02,
  0xf6, 0x00, 0x00, 0x05, 0xf6, 0xf8, 0xf5, 0x01, 0x0a, 0xf8, 0x00, 0x05,
  0xf4, 0x02, 0x09, 0xf7, 0xfc, 0xff, 0xd7, 0x00, 0x05, 0x24, 0xf9, 0x19,
  0xfb, 0x13, 0xf2, 0x05, 0xf5, 0x07, 0x04, 0x1d, 0x04, 0x1b, 0x05, 0x03,
  0x04, 0xf9, 0xff, 0x06, 0x0c, 0x04, 0xfe, 0xdc, 0x02, 0x01, 0xfc, 0xf9,
  0xe4, 0xfa, 0xfe, 0x02, 0x07, 0x01, 0xff, 0x01, 0x04, 0xf9, 0xfb, 0xfe,
  0xde, 0xf7, 0x04, 0xff, 0xff, 0x05, 0x0f, 0x03, 0xf8, 0xf9, 0xfc, 0x2a,
  0xfb, 0xff, 0x02, 0xf8, 0x04, 0x02, 0xfe, 0x02, 0xfd, 0x07, 0x01, 0xf7,
  0x03, 0xfe, 0x05, 0x03, 0x03, 0xc9, 0xff, 0x0a, 0x05, 0xfc, 0xfa, 0x06,
  0xff, 0x04, 0x9d, 0xf7, 0xfd, 0xf9, 0xf9, 0xfc, 0x01, 0xff, 0x06, 0x05,
  0xf1, 0x01, 0x03, 0xc6, 0x01, 0xf6, 0x02, 0x02, 0xfd, 0x00, 0xfe, 0x00,
  0x00, 0xe9, 0xdb, 0x06, 0x02, 0xf8, 0xec, 0x03, 0x02, 0x04, 0xf6, 0x0d,
  0x01, 0xf9, 0xfc, 0xfd, 0xf4, 0x03, 0x00, 0xfc, 0xf7, 0x00, 0xfc, 0xf9,
  0xf0, 0xf1, 0xfd, 0x02, 0x02, 0x06, 0x01, 0xfd, 0xfe, 0x04, 0xed, 0xfc,
  0x01, 0x02, 0xf6, 0xfc, 0x03, 0xfc, 0xfc, 0x04, 0xfa, 0x04, 0x03, 0xf2,
  0xfa, 0x00, 0xff, 0xfd, 0x03, 0x06, 0xf9, 0x02, 0x01, 0xfd, 0x04, 0x03,
  0x02, 0xfd, 0xfe, 0x04, 0xf7, 0xfc, 0x03, 0xfa, 0x03, 0xf9, 0xfc, 0xfe,
  0xf6, 0x04, 0xfa, 0xff, 0xfc, 0xfc, 0xf8, 0xfe, 0x03, 0xfc, 0xfc, 0xfe,
  0x07, 0xf6, 0x04, 0x03, 0x05, 0x03, 0xef, 0xff, 0xfd, 0xfb, 0xfc, 0xfc,
  0xf4, 0xfe, 0xfa, 0xfc, 0xee, 0x04, 0xfd, 0xfb, 0xfa, 0xfb, 0x00, 0xf4,
  0x01, 0xff, 0x01, 0xfa, 0x07, 0x04, 0xfd, 0xfa, 0x03, 0x07, 0x07, 0xfc,
  0x04, 0x0b, 0x02, 0x05, 0x02, 0x06, 0x01, 0xfa, 0xfc, 0x0b, 0xfe, 0x03,
  0xfe, 0xff, 0xf8, 0x01, 0x02, 0xff, 0x02, 0x02, 0x06, 0xfd, 0xff, 0xff,
  0x03, 0xfd, 0x08, 0xfa, 0x02, 0xf7, 0x00, 0x0d, 0xff, 0xfd, 0xfe, 0xff,
  0xfb, 0xfc, 0xf6, 0xfe, 0x08, 0x02, 0x0e, 0x01, 0x00, 0xff, 0x07, 0xfa,
  0x05, 0x02, 0x11, 0x05, 0x0a, 0xeb, 0xfe, 0xfd, 0x02, 0x03, 0xfa, 0xff,
  0xf6, 0xfc, 0x02, 0x03, 0xff, 0xff, 0xfb, 0xf8, 0x04, 0xf8, 0xfc, 0x04,
  0x07, 0xfd, 0x0a, 0x06, 0xfb, 0x02, 0xfd, 0x07, 0x0a, 0x01, 0xfc, 0x04,
  0xfa, 0xfa, 0xff, 0xfd, 0x04, 0xf9, 0x03, 0x0c, 0xff, 0xfd, 0x05, 0xff,
  0xfa, 0xfd, 0xfe, 0xfc, 0xfc, 0x03, 0x04, 0x06, 0x05, 0x00, 0x0a, 0xfe,
  0xff, 0xff, 0x0b, 0x0d, 0x03, 0x03, 0x02, 0x04, 0xfe, 0x03, 0xfd, 0x02,
  0xfe, 0x03, 0x0a, 0x06, 0xfd, 0xfd, 0x00, 0xf9, 0x09, 0xff, 0x0c, 0x00,
  0x09, 0x0a, 0xfb, 0x02, 0x04, 0x04, 0xf3, 0xfb, 0x06, 0xfc, 0xfc, 0x04,
  0x01, 0xf8, 0xfb, 0xf5, 0x01, 0xf6, 0x00, 0xff, 0x16, 0xfd, 0xf5, 0x02,
  0x01, 0x09, 0xff, 0x06, 0x06, 0x04, 0xfc, 0x04, 0xfe, 0xff, 0x03, 0xf7,
  0x00, 0x06, 0x04, 0x02, 0x05, 0xff, 0x00, 0x05, 0x00, 0xfd, 0x06, 0xfa,
  0x00, 0x01, 0x06, 0x03, 0x00, 0xfc, 0x05, 0xfe, 0x05, 0xf9, 0x04, 0x04,
  0xf9, 0xfd, 0xfc, 0x05, 0xfb, 0xff, 0x05, 0xff, 0xfd, 0x05, 0x04, 0xff,
  0xf9, 0x01, 0xfd, 0xfb, 0xff, 0xfb, 0x0b, 0xf4, 0x05, 0x01, 0xfe, 0xfc,
  0x09, 0xfe, 0x01, 0x02, 0x03, 0x03, 0x02, 0x05, 0x00, 0x03, 0x04, 0xf8,
  0xfc, 0xfc, 0xfe, 0x06, 0x01, 0x01, 0x05, 0x02, 0xfa, 0xfe, 0xf7, 0x05,
  0xff, 0xfd, 0x00, 0x00, 0xfe, 0xfa, 0xfe, 0x05, 0xfc, 0xf0, 0xff, 0xfd,
  0xf8, 0xfe, 0x06, 0xfd, 0xf9, 0x01, 0xfc, 0x02, 0xf8, 0x02, 0xfd, 0x00,
  0xfe, 0x01, 0xfc, 0x04, 0xfc, 0x07, 0x04, 0xfd, 0x02, 0x00, 0xfe, 0xff,
  0x03, 0x06, 0x00, 0x04, 0xff, 0x02, 0x01, 0x07, 0x06, 0x00, 0x01, 0x00,
  0x01, 0xff, 0x03, 0x02, 0x07, 0xf7, 0xfb, 0x00, 0x07, 0x04, 0xfa, 0xff,
  0x09, 0xf9, 0x01, 0xfc, 0xfd, 0xfe, 0xf7, 0xfb, 0x04, 0xfd, 0x05, 0xfe,
  0x16, 0xfc, 0xf6, 0x06, 0xfe, 0x03, 0xfa, 0x07, 0x03, 0x04, 0xfd, 0x06,
  0xfa, 0xfa, 0x02, 0xff, 0xff, 0xf9, 0x00, 0x0b, 0x00, 0xff, 0x02, 0x01,
  0xf6, 0xfc, 0x01, 0x07, 0x03, 0x06, 0x04, 0x07, 0xfe, 0xfe, 0x09, 0xfc,
  0x01, 0x03, 0x06, 0x04, 0xfe, 0x04, 0xfe, 0x02, 0xf8, 0x04, 0xfb, 0x01,
  0xfe, 0x03, 0x00, 0x02, 0x0c, 0x06, 0x00, 0x00, 0xfe, 0x01, 0x04, 0xfe,
  0x07, 0x07, 0xfb, 0xfe, 0x01, 0x03, 0x03, 0xfe, 0x00, 0xf9, 0x04, 0x03,
  0xff, 0x03, 0xfa, 0xfc, 0x03, 0xfb, 0x01, 0xfb, 0xfe, 0x01, 0x04, 0xfd,
  0xfd, 0x02, 0xfd, 0x05, 0x06, 0xfd, 0xf9, 0x04, 0xfb, 0xfb, 0x03, 0xff,
  0xf6, 0x02, 0x01, 0x07, 0xfb, 0xee, 0x03, 0x01, 0xfe, 0x02, 0xfd, 0x01,
  0x06, 0x05, 0xff, 0xff, 0x07, 0xfb, 0xf7, 0xfe, 0x00, 0xfc, 0x04, 0xfc,
  0x0a, 0x04, 0xff, 0x00, 0xfb, 0x00, 0x01, 0x07, 0x08, 0x01, 0x07, 0x02,
  0xfe, 0xfe, 0xfd, 0xfc, 0x00, 0xf7, 0x04, 0xfe, 0xff, 0x01, 0x04, 0xfb,
  0x0f, 0x04, 0x06, 0x04, 0x0e, 0xfb, 0x00, 0x03, 0xfe, 0x02, 0x01, 0x12,
  0xfe, 0x06, 0x00, 0xfe, 0x02, 0xfe, 0xfc, 0x04, 0xff, 0xfe, 0xfa, 0xfc,
  0x05, 0xfe, 0x00, 0xfe, 0xfd, 0xfb, 0xff, 0x03, 0x02, 0xfe, 0xfe, 0x01,
  0xfa, 0x00, 0x00, 0xfe, 0xf9, 0xff, 0x03, 0xfa, 0xfa, 0x05, 0x05, 0x02,
  0xfe, 0xff, 0x09, 0x04, 0x03, 0x04, 0xfe, 0xfd, 0xfc, 0x02, 0x05, 0xfc,
  0x03, 0xfe, 0xfe, 0xff, 0x02, 0xf7, 0xfa, 0x00, 0x05, 0xff, 0x01, 0x04,
  0x06, 0x02, 0xf2, 0x02, 0x04, 0x04, 0xfd, 0x02, 0xfb, 0x02, 0xf9, 0x00,
  0xff, 0x01, 0xff, 0xfa, 0xfd, 0xf6, 0x04, 0x05, 0xfe, 0x03, 0x02, 0xfd,
  0x03, 0xfd, 0xff, 0xfc, 0x02, 0x03, 0x03, 0x02, 0xff, 0x03, 0xfc, 0x08,
  0xff, 0x04, 0x01, 0xfe, 0x00, 0x07, 0x03, 0x01, 0x02, 0xfa, 0xf9, 0x05,
  0x00, 0xfa, 0x00, 0x06, 0x00, 0xfd, 0xfa, 0x01, 0xfb, 0xfe, 0x04, 0xf8,
  0xff, 0xfa, 0xff, 0x04, 0x0c, 0xff, 0xf8, 0x03, 0xf9, 0xf7, 0xfe, 0xfd,
  0x04, 0xfe, 0xff, 0x04, 0x05, 0xfb, 0x05, 0x04, 0x02, 0x05, 0xf5, 0x00,
  0x03, 0x08, 0xfe, 0x00, 0xf8, 0x02, 0xfd, 0x00, 0xfb, 0xfc, 0xfd, 0xff,
  0xff, 0xfc, 0x00, 0x02, 0x01, 0x02, 0x01, 0xff, 0x05, 0x01, 0xfa, 0xfc,
  0xff, 0x03, 0x06, 0x05, 0x00, 0xf6, 0xfd, 0x02, 0x02, 0x06, 0x02, 0xfb,
  0x00, 0x0e, 0x02, 0xfe, 0x01, 0x00, 0xfc, 0xff, 0xff, 0xfb, 0xfd, 0x00,
  0x01, 0xfa, 0xff, 0x02, 0xfb, 0xfc, 0x05, 0xf7, 0x05, 0xfb, 0x04, 0x05,
  0x01, 0xfe, 0xfa, 0xff, 0xfa, 0xfb, 0xf7, 0xfb, 0x01, 0x08, 0x0d, 0x00,
  0xfe, 0x01, 0x03, 0xf9, 0xff, 0xf7, 0x08, 0xfb, 0x00, 0x08, 0x03, 0xff,
  0x0a, 0xfc, 0x00, 0xff, 0x0a, 0xff, 0xfe, 0x02, 0xfc, 0x05, 0x06, 0x09,
  0xfe, 0xff, 0xfd, 0x06, 0xff, 0xfe, 0xfb, 0x04, 0xfc, 0xfc, 0xfa, 0xfb,
  0x00, 0xff, 0x02, 0x04, 0x00, 0xfc, 0x04, 0x06, 0x03, 0xf8, 0xfe, 0x01,
  0x04, 0xff, 0x05, 0xfe, 0xfa, 0x01, 0x01, 0xfe, 0xf8, 0xff, 0x01, 0x02,
  0x04, 0x05, 0x0a, 0x05, 0x00, 0x00, 0xfe, 0x00, 0xf9, 0x01, 0x03, 0xfd,
  0x02, 0x02, 0xfa, 0x01, 0x00, 0xf0, 0xff, 0x00, 0xf7, 0xfa, 0x03, 0x00,
  0x02, 0x02, 0xee, 0x03, 0xfc, 0x01, 0xff, 0x00, 0xf9, 0xfe, 0xfb, 0xfe,
  0xe8, 0x07, 0x01, 0xfb, 0xfe, 0xf6, 0xff, 0xfe, 0x01, 0x03, 0x01, 0xfe,
  0xe7, 0x01, 0xf0, 0xfd, 0x01, 0x01, 0x08, 0x00, 0x02, 0xff, 0xfd, 0xfe,
  0x02, 0x01, 0x06, 0xf8, 0xff, 0x06, 0xff, 0xfd, 0x00, 0x05, 0xfd, 0x00,
  0x07, 0xfe, 0x01, 0xfb, 0x07, 0xff, 0x00, 0xff, 0xf5, 0xfe, 0x02, 0x01,
  0x04, 0xfd, 0x00, 0x12, 0xf4, 0x00, 0x00, 0x01, 0xfe, 0xfd, 0xfc, 0x00,
  0x08, 0x01, 0x04, 0xfa, 0x0d, 0x02, 0xff, 0xfa, 0xfc, 0xfb, 0x06, 0xfd,
  0x00, 0x03, 0x06, 0xfd, 0x0e, 0x03, 0xfb, 0x01, 0x06, 0xf8, 0xfe, 0x08,
  0xfc, 0x05, 0xfd, 0x08, 0xfe, 0x04, 0x07, 0xfb, 0x04, 0xfe, 0x09, 0xfe,
  0x00, 0x02, 0xfc, 0x03, 0x05, 0x01, 0x05, 0xff, 0x01, 0x00, 0x02, 0x04,
  0x03, 0x15, 0xff, 0x03, 0x05, 0xfa, 0xfc, 0x06, 0xf9, 0x04, 0x07, 0x04,
  0xfb, 0x03, 0x01, 0x00, 0x01, 0x00, 0x09, 0xfe, 0x05, 0xfe, 0x05, 0x04,
  0x06, 0xfc, 0x00, 0xfc, 0xfa, 0x07, 0xfd, 0x06, 0xfd, 0x04, 0x01, 0xfe,
  0x02, 0x06, 0xf4, 0xfb, 0xfe, 0xf7, 0x05, 0x06, 0x08, 0xfa, 0xfd, 0xfd,
  0x08, 0x04, 0xf3, 0xfc, 0x25, 0xf3, 0x05, 0xfe, 0x01, 0x0b, 0x01, 0xfb,
  0xf9, 0x04, 0xff, 0x0c, 0x0e, 0xf8, 0x01, 0xfb, 0xf8, 0x00, 0xff, 0x00,
  0xff, 0x03, 0xf8, 0x02, 0x02, 0xff, 0xf7, 0x08, 0x07, 0x08, 0xfa, 0x06,
  0x01, 0x00, 0x08, 0x04, 0xf7, 0xff, 0xfe, 0x00, 0xfd, 0xfa, 0x03, 0x06,
  0xfc, 0xfc, 0xfa, 0xfc, 0x04, 0x09, 0xfc, 0xff, 0x04, 0x04, 0xfb, 0xf7,
  0xf8, 0x08, 0xfe, 0xfc, 0x00, 0xfa, 0xfc, 0x07, 0x05, 0x02, 0xfb, 0x03,
  0xff, 0x00, 0x03, 0x06, 0x01, 0xff, 0xff, 0x02, 0x03, 0x03, 0x06, 0xff,
  0x1e, 0xfb, 0x03, 0x08, 0xff, 0x04, 0xff, 0x04, 0xfb, 0x05, 0x03, 0x02,
  0x00, 0xfe, 0xf3, 0xfa, 0xfc, 0xfa, 0xfd, 0xfe, 0xfb, 0x00, 0xfc, 0xf8,
  0xfc, 0xfb, 0x03, 0x04, 0x00, 0xfe, 0xfd, 0xf0, 0xfc, 0x04, 0x00, 0xfa,
  0xfe, 0x01, 0xfa, 0x03, 0x04, 0x05, 0x02, 0xfd, 0xfc, 0xfa, 0xfa, 0x02,
  0xff, 0x05, 0xfa, 0xf8, 0xff, 0x00, 0xfc, 0x00, 0x02, 0xff, 0x02, 0x06,
  0xfb, 0xfc, 0xfe, 0x08, 0x0d, 0x01, 0xfd, 0xff, 0x02, 0xfa, 0xfe, 0x04,
  0x01, 0x0a, 0x00, 0xfa, 0xf8, 0x0d, 0x0e, 0x02, 0x0c, 0xfe, 0xff, 0xfb,
  0xfe, 0x04, 0xff, 0x08, 0x02, 0x0b, 0x05, 0xfe, 0x02, 0xfd, 0xf9, 0xfc,
  0xfd, 0x01, 0xfd, 0x04, 0x03, 0x04, 0xfd, 0x02, 0xfc, 0xfb, 0x05, 0x02,
  0x04, 0xff, 0xf9, 0x03, 0xf9, 0xfd, 0xff, 0xfb, 0xff, 0x05, 0x07, 0xff,
  0x05, 0x00, 0x07, 0x02, 0x02, 0xf8, 0xf0, 0xff, 0x08, 0xfc, 0x02, 0xef,
  0xff, 0x01, 0xf7, 0xfa, 0x05, 0xfe, 0xfd, 0xf9, 0x00, 0xf9, 0xf0, 0x02,
  0x07, 0x00, 0xfd, 0xff, 0x00, 0x00, 0xf1, 0x03, 0x06, 0x09, 0xfb, 0x04,
  0xfc, 0xff, 0x01, 0xff, 0x04, 0xfc, 0xf7, 0xe6, 0x04, 0xf8, 0xfc, 0xec,
  0x07, 0xfe, 0x03, 0xfa, 0x09, 0xf8, 0x00, 0xff, 0x06, 0x05, 0x03, 0x04,
  0x09, 0x0a, 0xfa, 0x08, 0x01, 0x04, 0x04, 0xfa, 0xf8, 0xfb, 0x05, 0xff,
  0xf6, 0x00, 0xf9, 0x01, 0xff, 0xfd, 0xf5, 0xfa, 0x05, 0xfb, 0xff, 0x01,
  0x03, 0xf6, 0xfc, 0x00, 0xfa, 0xf9, 0x03, 0xee, 0xfa, 0xf9, 0x02, 0x02,
  0x03, 0x00, 0x02, 0xfa, 0x03, 0x10, 0xf1, 0xe4, 0xf3, 0x12, 0xfb, 0xfa,
  0x0e, 0x03, 0x02, 0xfb, 0xf6, 0xff, 0x01, 0x00, 0x04, 0x26, 0xfb, 0xf0,
  0x10, 0xf8, 0x0c, 0xf5, 0x02, 0x0c, 0xfe, 0x10, 0xfc, 0xf6, 0x0c, 0x02,
  0xf3, 0xfb, 0x05, 0x1c, 0xfa, 0x1e, 0xf5, 0xfa, 0x4e, 0x12, 0x06, 0xfd,
  0xfc, 0xf7, 0xf6, 0xfa, 0xfe, 0x09, 0x00, 0x1a, 0xfc, 0xf5, 0x15, 0x30,
  0xfc, 0x0d, 0x1e, 0x07, 0x05, 0x1d, 0x41, 0x0a, 0xe5, 0xfe, 0xf7, 0xfb,
  0x2b, 0x16, 0xfa, 0x0c, 0xf4, 0x02, 0x08, 0x05, 0xfe, 0x0e, 0xfe, 0x08,
  0x02, 0xfc, 0xfc, 0x03, 0x09, 0xfc, 0x04, 0x05, 0x04, 0x03, 0xfb, 0x03,
  0x02, 0xf8, 0xff, 0x00, 0xf8, 0x02, 0x01, 0xfb, 0xf5, 0x02, 0x01, 0xf9,
  0xfc, 0xfc, 0xfc, 0xfc, 0x03, 0xfd, 0x00, 0xfc, 0x08, 0x01, 0xfe, 0xff,
  0x02, 0x04, 0x06, 0x01, 0x03, 0xfd, 0x03, 0x07, 0xff, 0x01, 0x00, 0xfc,
  0xfd, 0x04, 0x00, 0xfe, 0x00, 0x04, 0xfc, 0x00, 0x00, 0x01, 0x00, 0xff,
  0x03, 0xfe, 0xfe, 0x02, 0x00, 0xfd, 0x02, 0xfa, 0x00, 0xfa, 0x04, 0x03,
  0xff, 0x03, 0xfb, 0x00, 0xfc, 0x01, 0x01, 0xfb, 0xfb, 0xff, 0xfa, 0xfc,
  0x03, 0xff, 0x04, 0xfe, 0x06, 0x01, 0x06, 0x03, 0x04, 0x03, 0xfd, 0xfc,
  0x02, 0x05, 0xfe, 0xfc, 0x03, 0xf9, 0x01, 0xff, 0xfd, 0xfc, 0xf7, 0xfa,
  0x06, 0xfb, 0x06, 0xf9, 0x0c, 0x03, 0x00, 0x06, 0xf9, 0x08, 0xff, 0x03,
  0x04, 0xfb, 0xfc, 0x04, 0xff, 0xff, 0xff, 0xfd, 0xfc, 0x01, 0x00, 0x02,
  0x04, 0x00, 0x05, 0x05, 0xfd, 0x05, 0xfe, 0xff, 0x00, 0x01, 0x02, 0xfd,
  0x02, 0xfe, 0xfc, 0xfe, 0x01, 0xf9, 0x05, 0xff, 0xff, 0x03, 0xfd, 0xff,
  0xfc, 0x01, 0xfb, 0x05, 0xfd, 0xff, 0x0d, 0x00, 0xf9, 0xff, 0x02, 0xfd,
  0x05, 0xfc, 0x00, 0x03, 0x00, 0xf9, 0xff, 0x01, 0x0a, 0xfd, 0x01, 0x00,
  0xf0, 0x06, 0xff, 0x06, 0x06, 0x02, 0x02, 0x01, 0xfd, 0xff, 0xfd, 0x01,
  0xfa, 0xfe, 0xfe, 0x05, 0x00, 0xfe, 0x01, 0xfa, 0xff, 0xf5, 0x01, 0x01,
  0x01, 0x01, 0xf3, 0x05, 0x01, 0xf9, 0x04, 0xfb, 0xfc, 0xf8, 0x05, 0x00,
  0xfb, 0x02, 0x02, 0xfb, 0xf4, 0xfe, 0xfb, 0xfd, 0xf8, 0x06, 0x03, 0x00,
  0xf8, 0x01, 0xfe, 0x04, 0xfd, 0x00, 0x03, 0x03, 0x02, 0xfd, 0x03, 0x03,
  0xfa, 0xfb, 0xf8, 0x02, 0x02, 0x08, 0xfe, 0xff, 0x01, 0xfd, 0x03, 0x03,
  0xfa, 0xe8, 0x01, 0x00, 0xf8, 0x05, 0x07, 0x08, 0x14, 0x01, 0x03, 0x02,
  0x00, 0x0d, 0xfa, 0x06, 0x00, 0x02, 0x05, 0xfb, 0xd6, 0xff, 0x0c, 0xfb,
  0xfc, 0xfc, 0xff, 0xf9, 0x00, 0xf2, 0x02, 0xff, 0xfb, 0xfa, 0xfe, 0x07,
  0x01, 0x01, 0xf9, 0x0b, 0x03, 0x00, 0xff, 0xfa, 0xfd, 0x02, 0x04, 0xfe,
  0x01, 0x01, 0x00, 0x02, 0xfb, 0x01, 0xfc, 0xfe, 0x00, 0x09, 0xfc, 0xf9,
  0xf9, 0x01, 0xfe, 0xf7, 0x02, 0xff, 0xf6, 0x00, 0x00, 0xfc, 0x05, 0x07,
  0xfc, 0xfa, 0x03, 0xfc, 0x03, 0xf9, 0x0d, 0xff, 0x01, 0x02, 0xfe, 0xfc,
  0x06, 0xff, 0xfe, 0x02, 0x0e, 0x05, 0x02, 0x02, 0xfb, 0xf7, 0xfe, 0x01,
  0x06, 0x06, 0xfe, 0x03, 0xcb, 0x01, 0xfe, 0x04, 0xfe, 0xff, 0xfd, 0x01,
  0xfb, 0xf5, 0x02, 0x02, 0xf9, 0xfc, 0xff, 0x01, 0xfe, 0xfb, 0xfc, 0xf6,
  0xfa, 0x05, 0x03, 0xfd, 0xfb, 0xff, 0x00, 0x05, 0xfb, 0x06, 0x00, 0x03,
  0xfa, 0x07, 0x04, 0xfd, 0x00, 0x02, 0xff, 0xf6, 0x05, 0x02, 0xff, 0xfd,
  0x05, 0xfa, 0x01, 0xfe, 0x01, 0x03, 0x01, 0x0b, 0x05, 0xf3, 0xfd, 0x00,
  0x02, 0xfe, 0x05, 0x01, 0x00, 0xde, 0xfd, 0xfa, 0x06, 0x02, 0x07, 0x05,
  0x1c, 0xfb, 0x00, 0x01, 0x00, 0x0a, 0xfc, 0xf9, 0xfd, 0x01, 0x01, 0xff,
  0xf6, 0x00, 0x02, 0x02, 0xfe, 0xfc, 0xfb, 0xff, 0x02, 0x00, 0x00, 0xf8,
  0xfa, 0xf6, 0x06, 0x06, 0xfe, 0xfd, 0xf9, 0xf4, 0xf8, 0xfa, 0xfd, 0xf7,
  0xf9, 0x03, 0x00, 0x02, 0x00, 0x03, 0x04, 0xfe, 0x0e, 0xff, 0xf6, 0x01,
  0xfe, 0x00, 0xfd, 0xf9, 0x00, 0xff, 0xfb, 0xfa, 0x04, 0x03, 0xfb, 0xff,
  0x02, 0xf6, 0xf9, 0x08, 0xfd, 0xf9, 0x00, 0x03, 0x02, 0xff, 0xf8, 0x01,
  0xfb, 0xfa, 0xfe, 0xfd, 0xf4, 0x02, 0x09, 0x05, 0x11, 0x0b, 0xfe, 0xfa,
  0xfe, 0xfc, 0x00, 0xfe, 0x04, 0x07, 0x02, 0x00, 0xff, 0x03, 0xff, 0x01,
  0xfe, 0x01, 0xfd, 0xfc, 0xfd, 0xf3, 0xfe, 0x04, 0xff, 0x00, 0x02, 0xfb,
  0xff, 0x04, 0xfc, 0xfd, 0xfd, 0x07, 0xff, 0xfe, 0x06, 0xfe, 0xfe, 0x00,
  0x03, 0x04, 0x03, 0x06, 0xfc, 0x01, 0xfa, 0x01, 0x04, 0x01, 0xfb, 0xfd,
  0xfb, 0x02, 0xfe, 0xff, 0x0a, 0x03, 0xf9, 0xf9, 0x03, 0xf8, 0x08, 0xf9,
  0xfc, 0x01, 0x01, 0xf9, 0x02, 0xfe, 0x0a, 0xfa, 0x01, 0xfe, 0xfe, 0xfd,
  0x02, 0xfe, 0xfe, 0xfb, 0x06, 0xff, 0xff, 0x00, 0xff, 0xfb, 0x02, 0xfd,
  0x02, 0xfd, 0x05, 0xfd, 0x0e, 0xfa, 0xf8, 0xff, 0xfe, 0x05, 0xfc, 0xfe,
  0x07, 0xfe, 0x01, 0x00, 0x00, 0xff, 0xff, 0xfa, 0xf6, 0x0a, 0x00, 0xf7,
  0x00, 0x02, 0x05, 0x05, 0x00, 0x01, 0x04, 0xff, 0xfc, 0x01, 0xfe, 0x02,
  0xf2, 0xfd, 0x01, 0x02, 0xfe, 0xfd, 0x04, 0x12, 0x0b, 0xfe, 0xff, 0x02,
  0xf9, 0x08, 0xf8, 0x03, 0xfd, 0x04, 0x0d, 0xff, 0xf9, 0x03, 0x01, 0xf8,
  0x00, 0xfa, 0x0b, 0x02, 0x02, 0xfe, 0x00, 0xfd, 0x06, 0xfc, 0x01, 0xf6,
  0xf7, 0x01, 0x01, 0x06, 0xff, 0x01, 0x04, 0x08, 0xfa, 0xfd, 0xf9, 0x04,
  0xf3, 0xfd, 0x00, 0x07, 0xfa, 0xfd, 0xfd, 0xfc, 0xfe, 0x00, 0xfe, 0xff,
  0x03, 0xfd, 0xfc, 0x02, 0x09, 0xfd, 0x01, 0x01, 0xfb, 0xfb, 0x04, 0xfe,
  0x00, 0xfe, 0xfc, 0x00, 0xf9, 0x02, 0xff, 0x00, 0x02, 0x03, 0x04, 0x06,
  0xfd, 0x03, 0xff, 0x05, 0xfe, 0xfe, 0x04, 0x05, 0xfe, 0xfd, 0x02, 0x02,
  0x04, 0xf3, 0xfd, 0x01, 0x09, 0xfc, 0x03, 0x01, 0x00, 0xff, 0xfd, 0x04,
  0xfe, 0xf3, 0x04, 0xfd, 0xfb, 0x02, 0x07, 0x05, 0x0d, 0x00, 0x01, 0xfd,
  0xfd, 0x00, 0xff, 0x11, 0x03, 0x06, 0x03, 0xfb, 0xfc, 0x05, 0x04, 0x01,
  0xff, 0xfc, 0xfe, 0xfb, 0xfc, 0xf1, 0x00, 0x01, 0xfe, 0x00, 0x02, 0x05,
  0x05, 0x01, 0xfd, 0xf6, 0xff, 0x07, 0xfe, 0xfa, 0xfe, 0x01, 0x01, 0x00,
  0x04, 0x03, 0xff, 0xfc, 0x03, 0xfe, 0xfe, 0xfc, 0xff, 0xfd, 0xfa, 0xf6,
  0xfa, 0x02, 0x00, 0xfd, 0x01, 0xf9, 0xfe, 0xfc, 0xff, 0x01, 0x07, 0xff,
  0xfd, 0xfd, 0xfe, 0xfb, 0xfd, 0xfb, 0x0d, 0x00, 0x01, 0x01, 0x03, 0xfe,
  0x05, 0x00, 0x01, 0x04, 0x0e, 0xfa, 0x00, 0xff, 0x00, 0x00, 0x00, 0x0a,
  0xff, 0x04, 0x00, 0x03, 0xeb, 0x01, 0xff, 0x05, 0xfb, 0xfb, 0xfa, 0xf7,
  0xff, 0x00, 0x02, 0xff, 0xfd, 0xf9, 0x01, 0x05, 0xfc, 0xfc, 0xff, 0x00,
  0x02, 0xf8, 0x00, 0xfc, 0xfb, 0x01, 0x00, 0x02, 0xfd, 0x06, 0x02, 0x03,
  0x05, 0x03, 0xff, 0x03, 0xff, 0x07, 0xfa, 0xf8, 0xfd, 0x02, 0xff, 0xfa,
  0x01, 0xfe, 0xff, 0x02, 0x00, 0x01, 0x05, 0xfe, 0x06, 0xf5, 0xfc, 0xf6,
  0xfe, 0xf8, 0x04, 0x06, 0x04, 0xfd, 0x02, 0xfc, 0xfb, 0xff, 0x01, 0x02,
  0x0c, 0x09, 0x03, 0x01, 0x01, 0x06, 0x01, 0x03, 0x02, 0x01, 0xf5, 0x00,
